#version: 0.2
e r
i n
o n
e s
a n
a t
e n
a l
e d
i s
i c
a r
o r
in g
u n
i t
e l
r o
r e
l e
s t
c h
u s
i l
r a
o l
e t
p h
es s
o m
i d
l y
i on
a c
u l
a s
u r
t h
a b
en t
e m
o s
a m
o t
a d
o us
u t
o g
u m
is t
r i
e c
o p
t er
i v
i m
o c
a g
i z
o d
at ion
p er
i g
n on
v er
q u
a p
an t
i a
i r
s u
s h
n ess
ic al
l o
at e
i p
i f
c on
es t
c o
el l
s p
p ro
an d
e x
e p
i an
is m
er s
un d
a st
in e
ab le
p re
is h
o ver
u d
h y
i b
p l
i es
il l
it y
s e
u c
a e
o b
it e
h e
t r
al l
a k
ar d
s c
' s
i al
d e
p r
o w
c e
ec t
n e
a v
m an
y l
f f
k e
en d
a y
c l
o ph
iv e
f or
u g
b l
c om
o st
at ed
r y
in d
an g
su b
b o
ol og
en ess
d is
t e
f l
b e
i e
u p
at h
c t
ar t
o ut
ical ly
u b
in t
iz e
h t
w or
as s
ac k
c y
ic k
at or
m on
i er
in ter
t ra
f ul
en s
el y
t a
s y
p ar
m is
s el
a ch
m ent
id e
l i
i ous
ra ph
m o
a w
at ing
ac e
ar y
r on
u st
t o
w e
or t
g e
r es
o k
b er
r an
r ic
on e
m at
lo w
g l
ac t
h o
r ed
s em
su per
ro p
c or
oc k
m et
in s
sel f
y s
ing ly
i um
e g
c ol
it h
o id
c ar
u re
l ess
il ity
und er
e v
h a
p ol
ig ht
p t
d i
il le
p o
og raph
w o
w ell
s l
d er
s o
p e
f o
w h
is e
iz ed
t ed
in ess
et er
t on
ul ar
a h
id ae
al ly
ag e
an s
ra m
ro m
r at
ul t
ro w
o th
o v
m in
b ar
o x
y m
re t
ro s
le t
b r
a z
ic e
h er
sh ip
iz ation
s k
o f
e y
g er
en ce
ab l
y n
m er
b ur
t ri
ar ch
at ive
b ra
h al
t y
g ra
m ic
os e
p ed
c op
l ing
g u
a x
en e
v ille
an n
a u
i ed
m ar
ic h
c er
or n
or m
f er
t w
d ec
as i
iz ing
s er
f e
he ad
l ed
p le
as h
li ke
an th
st r
a ut
v e
un s
un c
al e
i le
m y
t ing
un g
C h
ol d
A n
iv ely
ed ness
m e
k er
og en
i est
re e
ab ility
il y
at er
ig n
c al
om y
ep t
on g
co un
a in
ist ic
or e
m ed
ow n
qu asi
i re
a f
in c
at es
g en
hy d
m en
g r
o ch
i k
p ost
ab ly
s n
on d
on t
an e
in n
se ud
r it
d o
ri g
b le
p y
p os
ing s
th er
s w
m a
in k
ation s
st er
c k
c ent
abl eness
l er
s on
c ur
olog y
m al
os is
et ic
b ed
h em
d es
r el
us h
ro l
it ies
o ur
an c
an ce
if ic
a ph
ch e
om e
a ir
b ack
t ur
at t
p seud
a ff
u e
p or
r en
th e
is ed
or s
un t
v en
b re
b ro
hy per
uc k
ph al
p al
ed ly
coun ter
em ent
ro ph
wo od
g o
ar e
ro t
z o
en n
s al
if orm
p et
i o
i x
ug h
y t
uc t
et h
A l
d em
ous ly
it is
it ion
iv eness
en c
or d
is s
or ph
f t
am b
er ed
h and
p an
el e
con t
pr es
if y
l in
ib le
om et
o u
c ul
c ap
g ed
f ish
l and
qu e
r u
ig h
s ol
ator y
a il
re g
ist s
u al
ar i
om an
e ar
er ous
is ing
ra g
pol y
on s
ul l
r h
o ff
os s
an k
c at
ic s
as e
el i
le g
t en
re p
l or
s ch
in a
ac c
er y
wor k
ic t
st e
ace ae
re c
h ar
b or
b i
r ing
ace ous
d en
k n
in f
l es
om at
sy n
hal f
s ul
ion s
v al
ar s
c an
b al
v ol
or y
it ic
el d
tr ans
un f
o le
m ak
for m
w ard
p a
c a
ous ness
A r
v ent
in es
i as
l ast
p at
ion al
s m
el ect
b y
i ent
un n
ec k
re f
e e
com m
c ra
p ing
b ut
ch ar
pr ed
a ur
p ri
ph ot
r al
h om
it t
u ff
p ur
ro g
s qu
r id
ant i
el ess
d ep
u th
et t
er n
ation al
p ort
p s
w ar
h um
ot t
d om
m es
m el
u ra
pr ess
on ic
ag n
r um
er e
yl l
d ra
m ult
g ar
v is
in ed
ad d
r est
pro of
p ra
v el
l a
ir d
b el
st ra
u ch
o y
z e
us s
h ol
e qu
r ess
v i
ar ian
d el
b it
ious ly
t im
olog ical
fo ot
ver s
he art
w ay
if f
b on
p i
in al
c ir
tw ice
p en
s ur
hy p
ious ness
ic ul
ro us
at ic
c le
h ous
en cy
ad e
m ac
or ed
re m
u k
t op
it ch
om eter
s il
al k
d y
f ac
es is
mic ro
os cop
n er
r in
ros s
ug ht
g re
y g
ch i
am p
tr an
c lo
ol l
ex t
e b
e k
g y
at ur
c ri
com p
c um
ast er
fl u
or g
if erous
h or
h am
re ad
er al
le ct
i ph
ath er
w ise
ar k
or th
b es
de f
c ut
g ing
a er
om a
s ec
em b
olog ist
le y
p ot
ial ly
il d
l d
il i
sp l
s id
et s
b en
c in
l im
p art
con f
er t
ak e
ta il
sy ch
c re
bur g
t et
ter s
P ro
en g
j ect
an a
al s
sh e
r ist
ent ly
p in
iz es
un k
um b
row n
hyd ro
sp ir
ot e
we ed
el s
f low
s s
d ist
w ater
r is
M ar
et te
v it
u ro
m or
o h
ot ic
if ied
ograph y
w ind
it es
ant ic
ness es
rig ht
l ong
wor ld
S h
b u
am in
un ch
oc y
pl ic
ap ed
l ar
p ul
t s
g ro
m us
ho od
S t
d iv
os ph
n a
ri es
v ing
th y
ar p
f ar
re ct
z z
sc ri
g al
u le
ex c
m od
un ct
pro t
om orph
ph il
un con
d own
er ing
f ur
i eld
v ed
n o
op er
ific ation
at ch
m ind
ful ly
b ol
e w
ro d
per s
it ed
ent er
d a
m id
b as
t el
at a
iz er
e ff
er g
ot y
b all
c ross
ell a
ph en
am e
oth er
ent al
oc c
b lo
it er
pre c
ex p
w ing
im m
i ac
l ight
t or
od ont
h ard
l og
c os
c ry
j o
ing ness
un re
th al
st one
sy m
d u
i ra
head ed
t ro
ul a
og n
ib ility
ch er
ph on
bo ard
b ird
s um
su p
p ic
es h
h eter
t ar
t em
E l
d ri
f il
k in
con c
b at
mis s
b and
k s
sem i
b ul
e an
ra di
am ph
for e
g on
s im
as c
ur al
p sych
en ed
ism s
a ud
l ine
m ot
p it
at ively
ish ness
t al
m ill
ar th
ra d
em at
im p
ag es
qu in
n ot
k ing
m it
ra c
ul ate
sh aped
P h
d og
ad en
s ing
at ely
us es
ur ed
C ar
id es
ut e
ri f
ex tra
l as
an al
w a
i ate
k ed
l at
o e
o z
v es
hous e
h igh
k a
ob ia
av e
b ell
r up
r ub
le x
r ust
y r
y ing
bl ack
c ock
is ation
un p
b ow
l am
s or
ful ness
s a
el low
re w
op t
ator s
d ed
m il
p ent
en ch
b in
c ard
s ac
b a
l ac
ch lor
ant s
i ke
d ip
ar ia
it or
e f
t i
is er
de v
ran ch
h el
ac et
ant ly
bo ok
wor t
l ip
ar ing
l ab
es e
ar n
con d
op s
qu ad
b et
wh ite
org an
g lo
at s
ar a
us e
ra p
th or
b an
w he
ar c
oph il
L e
it al
um in
r ate
is c
ri m
sul ph
m ut
s we
ar g
ap t
I n
i us
l oc
er ic
id ent
ur n
th es
ist er
oph or
ful l
s mo
c ro
p ass
av ed
on y
ph y
b ill
v an
un st
s in
id i
co ur
ib l
j ud
w it
op od
ub le
t re
ver t
ke y
h ed
ag g
elect ro
olog ic
em ia
ak ing
A m
e ch
in v
es c
es ter
ish ly
th ree
ist ically
ak er
eli ke
f ire
g n
pl an
end er
ir ed
po int
an cy
ify ing
ro ck
ra s
h ex
ap p
ey ed
cir cum
b od
t ub
v ir
ar ies
ot rop
fac ed
m s
o ol
in er
op ter
ser v
a i
b ing
or r
ra ct
pro v
mat ic
ox y
en ic
ch n
id s
ne um
ary n
anth rop
ch em
ip p
res p
d et
g am
ic ular
ud e
bo x
T h
c am
en ing
un w
ast ic
ograph ic
b ac
e u
i od
id d
ell ed
tr ic
g ast
i os
at ter
um p
m ing
al ity
is on
ut ion
oph ag
ys is
g a
is es
it s
ell ing
ber ry
ical ness
f act
t wo
en a
ol a
im per
mak er
f a
k y
ot omy
og ram
ian s
at in
om er
em on
con tra
s et
re v
op last
sp ec
pro d
in st
sp ect
ment s
f ol
el ed
ro ugh
od e
ud d
N e
h ab
el le
oc t
i et
m ist
ro ot
ch a
ra b
ost e
blo od
om n
um s
ag ed
l iv
ion ed
M c
c ot
f in
f ield
p il
w oman
ic o
wor d
l ock
in o
ar ter
ch ed
em an
j ack
l it
p el
ph ys
om b
mo uth
op e
ib ly
s en
am ent
c r
d ay
n os
lo ok
ta in
l ad
p ut
p ath
s le
il t
et e
hy l
mak ing
c u
d am
u x
ur g
pro f
b ush
p od
u bl
l if
n ut
ch y
be g
c ast
e phal
im ent
od er
su c
l ap
s oc
id al
ri p
sh o
ill a
col ored
less ness
f ree
n it
p ale
in ae
flow er
S ch
b il
f ib
i at
ag on
and er
pseud o
i or
l an
l ib
v ic
ol y
id er
m as
o on
ul tra
h ist
n al
af ter
f lo
pl ay
m eg
r ical
r ang
y ellow
on es
le m
g ly
h orn
ro st
cor d
U n
s un
el ic
re am
em pt
d im
f ir
s ed
s ens
om en
ian ism
c ed
g ent
p op
an im
or ous
ul ation
sh ort
ne w
a ver
or ial
ir on
do uble
d ig
i ol
un e
ent ial
ot s
oph y
us c
om ic
oph obia
ric h
gre en
g old
i able
s per
cor n
fo ur
bur n
d r
s at
s ign
in ate
it a
ap e
E n
b ec
o il
r ant
al g
un m
bo und
ogen ic
tur n
f ly
un ic
ibl eness
O r
st and
ish ed
ne y
t in
er o
al d
ra y
oscop e
c el
f re
r ation
v o
ol ic
yn am
l av
l aw
p ig
or ic
H y
b est
s ph
in i
un h
em ic
pro p
v a
ro und
ect ion
yt ic
d ia
l en
n ight
v ul
on ia
ar m
ch or
pl ac
ence phal
g le
n ar
in ation
an o
en er
st ar
ch rom
sp e
j ur
p ap
un ex
os es
iv al
ow er
k et
l ay
m ast
fish es
f ast
t u
in ous
am m
un b
cy st
in it
ad ed
pre h
for d
ang u
ton gu
or al
em p
oc ephal
co ver
man n
a qu
m agn
ch o
th o
ec e
oc rat
non con
ce phal
c as
f ron
g el
t it
v ag
et y
j e
t est
in ing
at o
ad o
uc le
s ent
iv es
ul ated
os p
pl at
ob last
C on
b ag
in ic
om ed
ant im
bl ue
enc es
omet ry
al i
un sh
b ab
b ull
c ab
g all
k en
l ic
l ig
s an
t ic
al y
or a
st ick
su ff
dra w
b ri
l ers
l iness
n et
s and
s ix
ad s
wor m
G u
el ec
st ock
il ities
ur es
ant ip
se a
act yl
c oc
en th
ic on
le aved
il ed
cl ass
am ine
bo y
mind ed
f le
j ust
el a
il o
ut er
ri x
iv ity
heart ed
Q u
b low
c ess
ion ist
end ed
ho le
c od
e ver
t own
at hy
al es
it ive
ri a
ter n
olog ically
ta x
c ell
l ith
u v
it ing
om ies
int ed
rol og
M on
b ot
d on
e a
v et
ro mat
ch ron
ri b
ir t
pre t
tra ct
P er
el ing
il s
id a
co w
ber g
sn ow
h u
n i
p ant
hy po
ard s
ect omy
tet ra
as on
op en
op ol
cy cl
so ft
f ed
h en
m ag
m aster
p ast
s ide
v in
v ar
w all
th ro
de ep
tim e
b orn
c ran
g est
er a
al ism
ri an
ang e
aw n
sk y
a im
m ad
ac qu
rol l
omet ric
b ic
c it
d ic
d ish
s ar
s ap
ch ol
ur ing
iv er
non re
ium s
g es
g ram
m ol
w ash
al lo
al ize
og am
i ation
p neum
ro om
st all
ch es
fl ag
ide a
gr ess
C or
H er
b os
b ib
g et
i ro
o o
t ab
im et
ant e
swe et
f all
o od
r or
t il
un in
ol ith
pl um
ill ing
bo at
ron g
str uct
C ol
a ul
m ous
r ent
on ian
ag u
iz z
ap pro
ill ed
sc ar
b ig
b uck
s man
v oc
ob i
sub st
to x
anc es
p ip
t ap
on der
il ing
end ing
R e
a us
h ot
ic ed
oc arp
le af
st at
ac y
ist ical
op ath
ne ph
iness es
look ing
f at
h ib
s ick
t ree
al t
ur ia
os ity
ter ed
und is
ha ir
pal ae
hor se
b ron
d ol
h ip
s es
w ed
un per
el et
st em
et ically
be ar
au x
scri pt
c es
d ing
d ry
m ur
at eness
at iveness
re en
lo id
he av
int ra
b us
j ug
in u
al ed
ch an
tr y
ak ed
ay s
mon ger
to oth
ben z
c and
m os
n or
y e
it ation
ph osph
as p
cl im
spir it
B ar
G er
H e
H ar
f ri
v as
w in
ra in
ent s
oc er
fl at
c ad
f ing
an i
st ri
gl ut
ster e
sing le
g ri
s ept
al a
ro se
us ion
ly m
con n
sp in
tr ich
for t
bl ed
dis c
gr and
D e
m and
p ick
em in
ap s
co st
ke e
ey e
M al
h ep
p enn
al ist
oph thal
wor th
sem ic
oid al
f ig
h ur
i ers
t ip
w ith
on ym
th ick
ab ol
ad a
se qu
ang i
br id
bor o
sil ver
M er
b ott
n y
t ol
an es
ph ar
iz able
f al
s aw
un pro
st ep
pl ed
less ly
so ul
ther m
A S
a j
c ular
ch in
ac o
ac id
olog ies
B e
n ic
n eck
o es
p ter
um ber
sp or
C al
b ug
g od
r un
s ess
re con
om in
ad ing
ag er
ox id
ogen esis
gen er
hum an
flu or
f old
i aceae
v est
an y
an is
ic ate
ur s
em a
cl er
oph yll
gra ss
a int
d il
g or
p ens
iv ers
ia st
An ti
M el
N on
s av
ph yt
as is
oc o
und ers
sc op
bl ast
pres ent
d rop
k o
n ec
en z
un com
ch ing
ot ted
ant is
mo on
sem ip
sl ip
B ra
c ath
d est
s ville
v iv
an ic
al ing
re in
im e
if t
pre con
way s
e ph
g yn
h old
r ated
on a
am a
per i
ell er
col or
r ug
un l
ol s
og on
ag og
met er
A C
P an
i oc
w rit
el t
os aur
um er
ir l
sp ar
ib er
out s
ograph er
mar k
foot ed
aryn g
B l
g ang
i ated
r er
r ite
t ot
es cent
or ch
ch ond
op ed
od on
ap y
ish ing
pr er
bl ind
ograph ical
ogen ous
d ro
g h
g as
r il
v ice
w ide
z er
ar l
st re
ch al
om al
ret ro
ward s
S al
al low
un im
ne u
ros is
go od
ear th
c av
s ex
u ous
an at
ar ed
ul s
ad es
oph ys
c all
g ran
h on
i ant
n atur
o zo
r ill
v ie
y le
re at
ul ating
qu is
pro s
sc ler
col l
ple x
ple as
pos ition
E d
c up
d ys
f ra
i qu
al b
ed uc
rup t
C o
T ur
c et
c ant
f am
g em
h od
j u
s om
y a
el er
st on
if ies
ect ed
ind er
ub er
ran chi
tho ught
P ar
r ically
it an
it able
ra ck
os por
ut ter
per f
ap or
se ed
ne uro
ran k
bro ad
f ru
p id
r ut
t om
ic ation
ar ist
us ed
qu er
pl ant
ne g
cl ad
bl ing
wh ip
hem at
B er
C y
P al
d ent
i ot
m ir
on om
it ut
ac ter
if er
wo ol
B S
c ac
c ate
d ial
h ome
r hy
t am
t um
un ad
ra w
ol ite
lo y
de ad
res h
act in
f ace
in con
al ized
em e
ig en
ang le
act ion
Ch rist
rog raph
b rom
b ank
k i
n ov
s ome
y o
at ure
it ting
non ex
te ar
let s
clo th
ocy st
cry pt
A d
b one
h og
h aw
m ud
s am
t le
ic an
ro id
et al
as es
S te
b red
f av
j a
v ac
z ing
it ter
sp ort
sp ring
tr ess
ect or
ne ed
ating ly
mult ip
gro und
B o
M S
b id
d ale
h an
o ec
s us
s ep
it ate
ro y
ul ous
og l
ap pe
be aring
mon t
rit ic
sch ool
vi ol
b rown
c ult
i ence
m ia
p ack
r us
z ed
ro ad
st yl
ol ar
ur y
su pra
com pl
ang el
one y
cra ft
oscop y
M or
c us
m ach
n as
r ine
r ud
v ill
in cl
ic ity
ch eck
et ical
id ing
ul ph
gl ass
bre ak
sm all
tail ed
smo oth
prod uc
preh ens
H al
es th
ar o
os oph
qu ick
pr el
up s
ogen etic
d le
z en
on ed
it o
ch am
ol at
as k
ir re
sh ot
R os
h es
h il
h op
m ort
w ig
ch ur
ra ch
ol ig
id ium
as m
og e
per son
if e
dem on
enc ies
yll ab
d oc
f et
g un
g um
l ie
l ier
in ated
et her
he a
li k
ho ok
po und
inn ed
omat a
I S
W h
c art
g an
g rat
l u
n ow
z yg
er v
as ia
em er
op las
sh op
cy an
pa per
lym ph
M an
g row
h i
i ar
m am
n om
p up
r ick
u zz
es p
le uc
et a
ab b
ep s
ast ed
ach y
ization s
py ro
mac ro
whe el
M ac
f air
l ion
m ul
n ed
p om
r ink
w ick
ed ing
it z
ra ce
ip ar
com b
li est
ran s
so und
uct ion
bac ter
G e
M o
e as
i en
t ight
w alk
y er
y ard
ic ol
st ro
am id
con v
man y
ement s
ou th
oman ia
stra ight
jud ic
C am
a ed
d iff
p ac
el ia
st om
ra v
oc ent
ation ist
qu est
cl os
cl ose
sul f
cri min
c rown
d rag
g ig
h ag
i aceous
m art
o i
p ay
u a
u it
u ally
x y
x anth
in ct
id ed
yl ic
act ic
my th
hand ed
wing ed
C S
S e
j ac
j oy
m orph
un sc
st rat
ion ally
ur ic
oc ele
lo b
ang er
eter min
gu ard
sol id
P ol
c ing
t ick
w il
or es
un co
un sp
il ic
ad er
pl ate
ie f
ric t
sal t
a ug
c iv
d ict
k il
t rop
et ta
ph yl
ur an
ow l
cl aim
par as
gl oss
fo und
ah s
aut o
ocy te
mouth ed
W e
f ic
h ier
i ri
s co
t able
w er
al ness
il it
om s
op y
im eter
non f
qu arter
if fer
ust er
pra ct
A b
P ost
c ub
g ut
k ind
u es
v ari
w atch
en es
sh arp
con st
ex tr
ish ment
hy ster
se ver
bl ock
ost er
te chn
ber t
ev ol
gra v
gra y
orn ith
cle an
bu ilt
S c
b ranch
h ell
l um
n ob
p ec
r and
s ab
s ight
u per
al er
un a
th ir
per ic
non pro
su bl
end s
col lect
car n
str ing
me as
C A
d od
h all
m ix
t ow
or ship
et ed
ion ary
ac on
ad i
ad v
oc yt
sc al
cy t
ov e
sid er
C l
T e
f um
h ap
i idae
en o
il es
th under
ent ed
am o
am ed
am ic
ous e
oc ar
qu al
est ed
ep ig
fl av
ment al
ling s
ich thy
esc ence
E r
T S
x yl
er ies
el eg
re al
ra il
ol es
ul us
em or
ep is
ast e
ae an
ob ject
li qu
der ed
sk in
bra in
my el
back ed
lin ed
work s
omat ic
pri m
B ur
b em
d or
k h
m uc
p es
t ele
u ph
z a
or ing
il lo
am er
ter min
ep ic
av es
ide an
ber ries
ograph ically
off ic
cri pt
oty pe
D el
H ol
j unct
w inter
in tr
ic a
re ed
ch ap
id ia
id ian
ot ed
iv ing
ag ing
iz ers
od y
per ed
over n
br ush
B el
E m
M a
b is
f us
g raph
p ect
ic ism
ar ily
un for
am ar
ist ed
ag ger
co al
pre f
de w
ain ed
pos ed
magn et
P S
S er
f ram
g ard
n in
s ail
w ire
es thes
al ia
is k
it ious
ro of
st ud
od es
ak es
bl es
col on
omat ous
emb ry
imm un
wit ted
ilo qu
b ir
j our
n av
w are
ing u
ra cy
ph ant
ot er
ig er
ip ed
con s
ial ity
eness es
rom e
cal c
pos sess
bre ad
mel an
pi ece
tub er
M y
d ress
h eli
l ot
n es
p all
w an
y ear
z on
ra z
em por
am y
ri ed
ap per
ir m
ill er
cl in
oph ore
fl or
bre ath
ste ad
har mon
ias is
esh ip
hab it
lif e
P seud
b ad
c en
c ase
d ism
f an
g in
j aw
p ier
s low
t an
al in
id ly
im a
oc al
sh ell
ish es
ae a
de ath
be at
we ight
sem is
iph on
V er
b um
b row
h ang
o ok
r he
v ig
w ax
un ted
ro man
re pro
st en
st op
ol ysis
id ine
em ph
if ier
se e
ind ic
rop e
bar k
sk i
tri but
roph y
press ion
omorph ic
A R
A g
b ob
b att
f ro
h ob
i ology
j ar
p ist
w est
x en
at i
or ia
un ab
ph yll
om as
im on
pr on
cl am
res ol
ha z
di rect
au thor
ord in
val u
icul ate
spl en
bib li
b s
c ept
d id
l uc
p ep
r uct
on er
it ud
le pt
st rong
us ing
am orph
ut ed
op athy
ag in
ap ost
all ed
wor n
ok en
ster n
pred is
gast ro
O S
P y
b og
d s
d ark
m ob
m ost
n ick
p un
u z
in te
es que
ic le
ro b
ph ag
os c
am an
ot ox
um ent
im pro
de b
ne e
av en
cl av
for med
ogn ath
P et
b ud
d ar
h os
i el
j er
p inn
r ating
el ly
ol i
th s
th in
ri al
sh ow
tr ust
ug e
met al
car e
fo ol
ship s
gen eral
kn ow
Ph il
cour t
A t
C er
F ran
g ers
k es
l act
m ass
o ed
v ine
ic es
or rh
le e
us ive
os per
ot om
non per
con sc
ell ate
over s
ard ed
pr int
be e
ator ial
min ist
cer t
pos it
ink ing
amb ul
oman cy
ars en
comm unic
oplast y
elec tr
penn y
g ate
h ow
w re
w ild
on ite
th en
em en
og ene
ag ram
sp ur
ex ec
pre ad
ak en
bl er
bo ur
car bon
der mat
cont inu
bel ly
cle ar
lar ge
A s
B al
G al
L a
b ath
h oney
l on
m ate
o is
t ut
t ide
in fl
at on
at al
at he
is able
ar in
ar ium
re ar
le an
il er
et hyl
am s
ec a
ill ary
ob e
pr est
ub b
tra m
ta ut
cor por
oid s
ure t
ax is
ient ly
comm un
otrop ic
gent le
hep at
c row
g ul
i ary
l s
v ib
w ol
z es
or i
el o
et ing
ac anth
im er
od d
ig u
ow ed
we ar
res c
ha ired
so ur
pat ri
add le
cos m
L y
c ann
d ust
f ash
h ay
m ant
m ade
p est
r uc
r ush
u rous
re ver
id ity
ly s
as per
ep ing
ost omy
car p
ev il
ty pe
eth n
ear ed
but ter
eless ness
alg ia
C an
S ar
b right
d ich
h un
i op
l ag
m ith
ess es
ad ic
ri v
od or
lo ving
ian a
ry s
par ad
to uch
res ist
eg g
ha em
itt le
tongu e
G ar
T er
W il
h at
r ul
r ational
v ict
al izing
is o
le ad
il ia
ul i
um en
ant it
lo ve
ip s
se ven
ob lig
tr it
all el
sc ut
sc rew
man ship
mo ther
col d
car b
fo x
br ick
cer e
rh iz
cover ed
A c
C om
M ic
M ad
N or
a id
f ix
k ins
p ie
z y
in fer
an ch
ed er
ar ic
ch ild
ra ble
ph an
em ot
os h
am mon
ag an
per it
qu ar
co ff
ep ith
se y
olog ists
we ather
ym ph
her o
anc ed
comm od
fron t
C C
K e
K ar
g ia
g az
l un
l ust
n est
p ad
s ect
t ang
u f
u ther
w is
is th
is su
un cont
us k
ur er
ent y
am et
ir es
sh ad
ud ed
pl ain
sc ap
oph ile
int ro
ort ic
po et
rom y
ma id
mind edness
ophy te
tongu ed
A M
M e
b uff
e or
e em
g reg
m i
n s
p on
p itch
w el
w ill
y st
in ex
at ri
al ization
un er
un en
un ce
it ism
ch el
ol ate
ac ious
th read
em i
og y
sh er
pro ct
aw ay
mat er
met all
str uc
roph ic
hol der
other apy
prof ess
H el
a per
f ive
i ency
k ill
n ose
n orm
p as
p ow
p end
u pl
w art
w itch
an ter
it ted
it ude
ro gen
le ment
ch as
id in
id ness
ly n
ur b
ot ing
su g
and a
und ec
ne ur
int el
wor ker
ful s
sem in
ock s
arch y
ann a
ren ch
leg ged
phot o
tran sl
sle ep
D or
U l
b ly
b ind
c ogn
g ab
m ay
n ing
o ugh
p ir
un pre
st o
il a
od ynam
ia e
tra p
ular ly
ogen y
cra ck
ura ble
S y
c red
d ors
h ack
m ax
n ucle
s od
t ender
u ate
in ian
st iff
ul d
ab ilities
ri er
op in
op ar
iv ed
non dis
ap od
ant id
ep it
pl ace
uc e
ug g
ie v
tra d
ach e
we ak
mer c
ste el
sec ret
she ep
nos ed
fir st
B ro
D S
M ay
a ust
c yl
c amp
i ating
n od
s ag
in us
on i
al th
is ion
ph er
ul um
ab a
ent ness
am ing
ri e
non ad
qu et
ap pl
ical ity
ep ist
ish er
ick en
ron e
ev en
abl es
omet rical
miss ion
elec tric
kee per
vie w
intel lect
G od
V al
d al
d ot
l os
l ut
l ate
p unct
p ubl
u an
in ch
al ous
st ate
st own
il ly
ph ren
ab or
oc racy
qu iet
sh ire
con sum
pl ag
pr inc
cl es
ok ed
br and
yn ia
me chan
rh in
sch iz
squ are
occ up
sac char
a en
c og
c ass
d ynam
f el
h ept
h ipp
i i
k al
l ick
n ig
p ink
t ent
v y
w al
w omen
at om
ar med
or ies
it ical
st ream
ly ing
as y
ur ban
os m
op le
ip it
co at
co ol
he at
tr is
ial ist
av ing
ost om
ind iv
ach er
po le
wo und
az z
ger y
bra ined
tw in
An glo
och em
heart edness
gre at
sec ond
bu ild
phil osoph
orr hea
D on
G re
I s
S k
T rans
c ic
f ier
g ym
l ass
m ig
n id
s ke
s burg
u co
w ro
in com
un th
it arian
el and
st al
ol in
ph or
om ot
ac er
em per
os a
am en
ri but
ter ing
im it
ep id
ak a
ure ter
ev e
ha ust
fe ather
ond yl
ery th
ett es
mel od
card i
dip l
acet yl
ogl oss
Pseud o
C ap
b ene
p ill
s lo
at ta
ar iness
le c
st y
ra ft
em pl
su re
ex ter
ial ize
for es
for est
ron s
cor rect
pol ym
wh it
rat es
do or
port ion
mot or
chur ch
esthes ia
P oly
S ol
U S
a un
a uc
d in
h ors
l ist
m um
r ene
x er
ro c
ch rist
ch romat
il ian
ra pt
th orn
em ber
og ly
ec on
lo ud
all ing
sc ur
ial ism
ry ing
ind ust
bo ot
fl esh
ass oc
sem id
met aph
ith er
pol ar
oth e
bra chy
ty p
my st
anc ing
ste ep
oh n
sum mer
bill ed
heav y
C O
C ha
D ar
R h
f lex
f ract
h ill
l ich
n at
p u
w id
in vol
an ism
at able
al ph
al og
al co
it ory
st orm
os yn
oc ol
con ce
ated ness
ack s
tra vel
ho und
ty ph
gra d
oman iac
tim ber
ham mer
pass ion
inv est
idd le
fol k
pip e
A P
I r
M us
M eg
N E
P lat
a is
b ass
d ream
d actyl
g ol
g ib
h ir
l ent
l ingly
m n
v ell
v eg
w ine
y an
ed s
or bit
un v
un se
un inter
st im
ol ine
ph th
om on
ul ose
am ide
op p
op ro
im al
oc ard
ation ally
if iable
sp read
ast ing
com e
up t
wor thy
mon ey
tra ck
ach ed
ach ing
ge al
so uth
tw el
med ic
clo ud
cry stall
mil it
dev il
lad y
fru it
A T
J ac
S ab
T ar
T he
f ine
f rost
h id
m ers
o ing
in y
at ers
al leg
st ill
ch ang
id ic
am or
ist ry
im pl
im ental
ig raph
ia h
co en
hy n
tr ick
tr uth
ak s
ne ut
br al
head s
ane ous
cur s
ru ff
pen et
oscop ic
meg al
san ct
A sh
L or
P rot
b ay
c rop
d re
d um
f ellow
g rown
h ost
h atch
m ah
n ur
p ower
t z
t end
t roph
u ously
at ric
al istic
un ob
re vol
st itch
ra x
ac ro
am yl
ag en
ag raph
ig erous
qu int
ant al
ir k
ir id
pro mis
ill i
ial ness
yl ike
ated ly
sub ject
act iv
col our
ult ure
inn er
che ek
acc ess
tem por
bod ied
ape ut
fing er
phar mac
H am
P e
b ip
b ast
e al
k at
k ick
p low
t ens
u ousness
in ite
ic ian
un ivers
st ip
st aff
ur us
th i
th ing
um pt
op o
iv orous
ig mat
co el
ex per
ian ce
ial s
cl ub
ind ul
ang ular
ta w
met eor
wh is
ah ed
rel ig
anc ies
enc ed
Ar ch
but ton
pri est
tran sp
eng th
bod y
phys i
heav en
crown ed
S am
T ri
b ers
b omb
e on
j am
n orth
o unc
s ib
t un
t all
in her
an ite
en ite
en ne
or ient
st or
ol ytic
om ent
ul ae
th a
ut s
im b
oc ean
sh el
if ul
ell ar
hy al
sc ul
ay ing
oph en
com mon
ind ig
ang led
be h
br ut
cop e
An n
rit is
war m
cut ting
gal van
jo int
lab or
orr ha
sat is
spe ed
bron ch
B on
D i
L uc
M en
T y
b un
b uc
c id
c ens
c ement
d ur
e ight
i oid
m ain
s it
t es
at is
en se
ar bit
or ig
ing er
el ph
el ig
el lo
st art
ch ro
il ize
ac co
as ed
th ym
ot a
um e
oc on
ag ia
co ated
pl en
pr ick
for mal
bl eness
ost ic
mo un
to id
sem im
cal cul
ific ations
back s
bre ast
rot ic
ail s
ste in
ref lect
hous es
comp ens
mil k
oplast ic
olat ry
A p
E x
G ra
G all
H a
I l
M ont
c rum
c rest
j et
m ism
m ore
n um
o en
o idea
v ey
er c
on al
ic ing
or ian
un fl
el ine
st ain
om ing
th row
og lo
op tim
im mer
su ck
su gar
est im
ell i
pl as
pl ast
art icul
inter n
gl ed
gl uc
met hyl
rom a
ult ur
ox al
tri ple
fe e
my x
Ch ar
me an
inn ing
ma j
ste am
sm ith
resp ect
subst ant
tooth ed
Ger man
M at
R S
b ish
c ust
d ow
g ob
n an
o und
p lo
p onder
r ator
w et
w ag
on ing
at ical
ar ab
un ap
un be
ch ant
ch air
og ast
op ic
op ia
im port
od i
ver n
ip e
if lor
sp ot
sp oken
ex ist
ill ion
tr um
com pan
com plex
ron t
ge e
ho ur
met ric
bra ch
cop y
gu e
fe ud
ple ment
aph yl
go ing
atur ed
flow ered
pul s
resp ons
contra ct
sper mat
bear er
indiv id
C he
c ies
d rum
f est
f unct
m ock
r unn
s que
s omn
u ation
v apor
on ism
an ap
at y
ed ged
el in
ol o
ab sor
ag o
non com
ir ing
av a
ath ered
tra che
mo v
aw a
ran n
sem if
col um
tw enty
coun t
rid den
ext ens
eff ect
point ed
app end
F ar
F or
J ud
M ed
M il
M ag
P el
P hy
c ros
c anc
d ie
d etermin
f og
i que
j ew
k ers
l ink
m ine
p us
s ig
t ack
t ort
t alk
u ed
in ize
or h
ing en
it im
re ass
ra h
ion e
ad or
oc occ
ag glut
od ic
ir rit
sh am
sh ut
lo v
co b
sp ac
pro te
ex pl
ex press
mo id
we b
ho of
let ter
af t
wood s
bor ne
phen yl
sym path
tem per
ocrat ic
ranchi ate
perf ect
B en
B as
C le
D an
F er
S il
U r
c rit
d ul
d and
d end
d ens
i j
l ily
l amp
l ux
l aryng
o ot
p and
p ine
p ock
s ob
s angu
w onder
x es
z ym
Ġ the
at rix
ar ct
or ac
re b
ch is
ch im
ph le
ion ic
ul f
em ing
am el
op l
op ing
qu art
ant in
est abl
sp ong
pro to
ill s
tr u
tr ue
sc or
bl ess
we igh
az e
bur y
och rom
tur b
bro ken
ition s
pa int
thor ac
smo ke
gold en
nar row
emp loy
A ust
D er
M art
R ob
c osis
d ock
d uck
e el
f y
f ant
f oss
h us
n em
p sy
t art
un sl
el ite
st ret
ra ss
ab dom
ent ially
em bar
os ed
ad vent
ri ver
ri ft
pro ph
for g
te en
aw s
to ad
gl ad
rop od
ev ille
pe arl
bar bar
mar sh
fer til
head edness
cap t
ict ion
stra w
equ ip
comp ass
bol t
resp ond
alb umin
tuber cul
fash ion
C M
C all
E u
J er
M et
a ins
b ep
b old
e es
e ur
f if
f rog
f asc
g i
g os
j um
j oc
j ig
l od
l iter
p ell
t ie
in th
is a
or b
un ge
re qu
re present
il ized
ul ative
th rough
os ome
am us
ut ch
ter y
od actyl
ant ed
co x
sp ic
se ism
ect omies
ay a
ay ed
bl u
te e
aw k
act ive
ith ec
ille t
ton ic
ker at
ik a
pos ing
des p
aff ect
go ose
dem i
cont ent
inf ra
pri v
dep end
sen su
C ass
G l
I tal
S her
V ol
c ram
c ru
f ug
p to
p ull
p ict
t at
at us
or ate
un ion
un pl
re pt
ch il
il ar
ra ge
ot es
ot ome
ad j
ut ing
co ok
sp ace
sp otted
hy de
pl ing
pr en
ow s
ect om
be am
to o
ure th
pol ys
di am
ym pan
tri p
bra ss
ann er
ann ed
fe as
ash ing
str ate
ept ion
do ub
etic s
iss a
cap ital
igh ter
ual ity
pur ple
squ am
emb ran
ili ar
ocy an
mod ern
thor ough
prod uct
osp ore
ophthal m
D es
H o
M ah
S S
T am
b if
d at
f en
f ell
f ung
g irl
h r
i ably
l ub
n aph
p ain
p ont
p anc
r ism
s yl
u ated
an il
en erg
ic ide
un ar
un le
un par
un rep
re im
st ir
ch op
id ol
ul atory
ot on
ter ror
ag a
non de
ap par
ap ple
ud ing
he el
sc ope
de hyde
oph on
ath ed
sy st
ach es
to ur
gl ing
sem it
cor on
ha emat
fe ed
sn ake
sw ing
the or
bro ok
ition al
omet rically
form ing
char acter
eless ly
stra ct
arian ism
bit ter
oxy gen
lem n
haw k
sug gest
B or
B ab
D I
J an
K al
L am
N ew
d ian
e z
f resh
g ic
g ur
g ust
j ob
k el
k ary
l ace
l aden
m im
m itt
n ap
p ush
p achy
s ist
s ir
v il
y rin
er ship
in et
in ism
in spir
at ically
en gra
al o
ed e
un gu
le ather
st ers
ion ing
ul ator
ul ates
as al
ent om
am eric
ot omies
op ex
im o
ver te
ant ness
lo ad
ip ter
sp oon
pro cess
ish able
ill ust
sc ot
cl us
ind is
cy m
ier e
mat a
so le
fo ul
ted ly
fe ver
my r
cal y
our s
cat ch
rec ip
gal act
exp ect
quin qu
rub ber
sor row
plat y
draw n
bott le
neck ed
produc ing
twel ve
A A
B ol
C her
E v
G a
M P
R oman
b ree
c rust
d an
f u
g ad
g ment
g overn
i per
l ater
m ug
m uck
m ira
n ail
o in
o ke
r end
r uss
t us
t ag
t ell
t rot
w as
w rap
in ating
in flu
ed ge
ar ial
it ous
st rip
ac re
ac le
op sych
im s
oc ry
ant ine
sh ar
und e
ast ro
ne ar
yl ene
to ol
mat ch
cor p
cor rupt
met hod
ev al
wh ere
bar rel
unc i
sw ift
cont rol
work ing
rec ogn
comm end
la ud
tran sc
cri m
sid ed
spir ited
oty p
ophil ous
sph er
oblast ic
veg et
orrha phy
A mer
B a
C ur
E C
M in
M id
M ill
W al
b ent
b ond
c ake
g ill
k ar
k it
s af
s men
v io
w rong
in struct
es es
al le
ar ious
un man
un cl
un bl
et i
ph em
om el
ul ter
ot ten
um a
od end
ant ist
ant if
sh ed
ip per
con serv
co u
and s
und ef
av i
yl s
for th
sub t
be an
ick er
mat ical
act ed
pol l
ted ness
ton s
cop per
mar ked
ash ed
ble phar
cent ral
Al l
lin es
ank ed
bal d
pat ron
ett le
agn et
sil ic
Pro to
hydro gen
ote chn
exp ans
du od
cond ens
quad ri
oder m
yo ung
iffer ent
B ern
D C
E S
G len
J o
M es
N eg
R ed
S w
b im
b ore
c ine
f id
f ill
f ather
j un
l ord
p ian
r ath
s phen
s arc
y ph
on ize
en de
al tern
is se
ar ith
un ac
un rel
it ated
ro ch
ro ut
re fer
le uk
st ag
st alk
ch ange
om eness
id an
ul es
ab out
em bro
am per
am pl
su as
pre ter
ib ilities
he e
sc i
yl ess
ry pt
ace a
mat ically
gl ac
ha ul
pol lin
pol itic
ight ed
po ison
ym en
let te
az ine
ger man
tri m
ash es
och ron
des c
ca us
last ic
squ ir
hyp not
alk al
ophor ous
otrop ism
vo iced
prop ag
brid ge
need le
alco hol
A k
C at
C as
C yn
K er
M A
M os
P le
b ub
d os
f i
f it
f ist
g ir
g ain
k ish
m ess
m und
n ect
p is
s ad
s ne
s word
t rem
v id
v ap
w ester
z inc
in qu
in ity
in vent
an ia
un qu
le pid
st up
ch ir
ch ief
ra st
et to
et ting
ion less
ac ia
ac iousness
ab i
em bra
per is
su d
lo ose
if ol
sp eck
pl ur
ob ed
ob ranch
ob serv
ial es
de vel
ne ver
oph one
for et
ug n
int s
tra in
par ap
mat ous
act ing
ight s
rat t
rat ive
ey es
ann el
au th
ire ct
pal at
ugh ter
ari us
kn ot
mak e
comm and
exc it
sup port
dri ven
bell ied
ophag ous
soc i
wol f
intellect ual
D em
L yn
R A
S el
T or
a ec
b io
c i
c ip
c ach
c ele
d oll
f ret
f ring
i ad
k id
n ine
o er
o ul
s ic
s yllab
w ife
y ar
y cl
an ac
al ities
or der
ing ing
il ation
il ization
ac iously
as ing
am es
ell ig
sp ear
ers ville
und es
und el
pre m
ass ert
par allel
sel en
mo or
ho op
rop ter
wo ven
rat ch
ov el
her ed
ax on
aut oc
inc re
our ed
iveness es
rous ly
wind ow
div ers
osph ere
board s
flo od
sens it
wro ught
A z
A le
H eter
L at
M I
O l
O t
R O
S a
b ase
c aut
g ird
h ul
p unch
r ar
r all
s omat
t ob
u j
er er
on n
an ne
el ian
re y
le v
le ft
ch en
ch ain
ch ord
om es
ac a
ac ad
th ec
th umb
ab d
am al
ot in
og ue
ist le
im ble
ag ue
ir s
lo ph
co ag
sp ell
pre ex
pre par
pl ot
pl ane
he ath
pr ison
ens it
sy stem
gl er
met h
wo e
well ing
bar e
ym a
cer n
ker y
ik i
pseud os
land s
ca ul
ref ract
heart edly
sil k
she et
plic ation
sym bol
lip ped
cond uct
Ne o
ocarp ous
igen ous
L and
L ev
S lav
c is
d un
d ub
e ating
f un
f ut
g rim
h as
l ung
m az
n arc
p ly
p ans
p ose
r ion
u y
v ex
v ass
v acc
in os
ic ist
ic ip
ar row
ar bor
un it
un int
it ative
st uff
ra sh
ra de
ol t
ph aryng
om it
id ence
ul ent
th ous
ab er
ab ber
em aker
am n
og yn
ap prec
su pr
if iers
sp an
pro gram
ep iph
ill umin
se al
tr in
ay er
cl ar
for ce
ick s
ator ily
par aph
ort ed
ric e
gl es
so ap
gra in
gu ar
me at
omy cet
acc ept
trans fer
form ation
char ge
ern al
bel ie
sho ul
appro pri
osaur us
esth etic
cyl ind
C I
F lor
G il
N A
N S
O d
O n
R om
S ph
W ood
a ult
b ach
d it
h ast
h ung
m ell
n ud
t id
Ġ Ġ
er ite
al ve
or ation
un sub
un equ
el ev
st ad
ch uck
ch ole
ol er
th on
th rom
ab et
ab sol
ab stract
os o
os al
am ber
op al
im press
ver se
qu a
qu it
qu ant
su it
ip ot
est ing
pl es
tr il
ak i
sc ra
sc ient
oph yt
ind ec
te a
be aut
mon os
mo ist
ins ur
ograph ist
ograph ies
so lemn
str uck
str icken
ree k
ther e
ail ed
acc um
ee ch
hom oe
dep rec
vis ion
hyp n
orth od
sid es
tel eg
amph ib
aryn geal
cot ton
suc cess
ogam y
pneum at
cand le
stre et
grow ing
cheek ed
vio let
B y
C a
G reen
P l
S he
S tr
b ie
c ren
c uss
f ied
h s
l ies
m ec
n ull
o an
o ic
p um
p av
p age
r ally
s oph
s ult
s ong
s ext
u el
w right
an us
al ised
ic ient
ar is
or ousness
it ution
re ck
le vel
st omat
il ate
il ib
ac ity
as ic
em atic
ot ically
ad just
ad minist
um at
ri um
ri age
ec cles
non inter
sh aw
lo qu
con tr
co ach
sp at
sp ark
ep ip
und ist
ud es
hy post
tr id
tr ench
ak y
pr or
ect ic
man if
yl ed
cl ay
oph yl
bl az
bl enn
com par
ang a
up le
ta ch
we en
ok ing
wh at
ret in
gra ve
fer ment
ple uro
ater al
sn ap
ink s
roph ot
ou ch
ery thro
val id
can on
stra p
ek ing
cri b
odont idae
arg ent
Am ph
Mc C
antim on
ali en
rolog y
phosph or
itut ional
epis cop
R E
d ac
d eter
d ull
e at
k an
l est
l az
l amin
m ile
p eg
s ie
s old
s yll
y ne
at um
is ol
un iform
it ish
le arn
st am
st ub
ch art
ess ion
ac cent
ur in
ur ation
th m
th et
iv ism
im in
oc ular
ag gress
iz en
od ynia
ant on
ant ib
con vent
est s
ex ped
ast s
pre vent
se ason
all er
sc and
pr in
ne igh
for ec
for mat
ind uc
fl ash
ack er
ack ed
mon arch
mo le
ust ic
to ed
res cent
one ph
gl ott
sem ib
ock ed
ight ing
oth ec
ax es
fe ar
ign ed
ept ic
post er
cur v
hem i
our ing
the at
bre aking
bre asted
cont in
cap it
cra w
mult i
vers ion
read y
omorph ism
conc ept
rif ic
cond ition
spec ial
cr uc
opath ic
fing ered
conn ect
disc ip
ipar ous
itud in
inte gr
A ra
F rench
G old
L em
L im
P A
T al
T im
T her
W ar
b aw
c n
f rat
f ond
f rag
g ier
i ability
l umin
m un
m ust
m oss
m oll
o at
s ow
t as
u h
en al
en ia
al ter
ic ated
ar com
un he
un ass
it ure
el ement
le en
st a
ch ry
ch ev
ac in
am ental
ad apt
ad vert
ut es
ri val
od al
non def
ver b
qu es
ap point
pro b
pro st
pro top
ep end
pre gn
ud ge
all oc
sc ro
pr ud
man s
ang s
bo om
int ens
aw ed
we ary
ran ce
ho e
min im
sk inned
hyd roph
gr ind
inn y
pseud oc
bre aker
enn ial
syn chron
hol low
tran qu
mind edly
gn ath
ray ed
gh ost
nov el
mater ial
' t
F red
R I
R ich
R uss
T et
a o
c ritic
f iss
g s
j ib
k ne
k ines
l op
m em
m op
m ish
m old
o os
p ag
r ide
t orn
u i
u er
u ating
w s
an em
at tract
or c
or ical
un ter
un res
el abor
st ones
ch at
ch it
ac ies
ur i
ab s
ent e
os in
ot ri
ut ation
od a
od s
per ip
ig ne
ap a
pro pri
and o
pre en
pre fer
hy men
end or
oph ob
up per
wor ship
wor ms
cy n
cy clo
gl or
gl and
gl ish
rop ic
met ap
sl ender
der ing
rom antic
sk ir
cer eb
dec ol
fe atured
str um
men ing
mal le
che e
che er
sm art
cra b
dep ress
hyp oc
ner v
flu id
dist ribut
plic ate
line ar
anal y
horn ed
rib bed
hu ed
tox ic
sep ar
roof ed
princ ip
individ ual
C el
F S
P C
P en
P ter
R am
W est
b ust
c ous
d umb
e ag
e uc
f emin
f rank
g il
g ag
h ort
l amb
m ale
n el
n ame
p ard
s iphon
t inted
u vi
w ave
w hole
y ch
es ia
an ian
at ives
al ise
al umin
is an
ar ism
ar ach
or ism
un lo
un te
ch ic
ol itic
ion ism
ac ar
ac ular
ul in
ul ations
as se
ur ate
ab e
ad y
ad os
ad ip
op ard
non dec
pro ud
ex ual
uc ker
ae us
sc ab
sc iss
sc rut
de er
de uter
ay an
for k
ost at
fl ame
ub a
mon opol
ok es
pt ion
sl av
pe ace
rat ic
ov al
ox yl
arch it
anth us
An t
me al
och ro
rig h
cent er
ail ing
cat al
pat ch
ze al
bon es
iousness es
fur n
fil m
opt ic
opod a
gly cer
new s
gel atin
clim at
ju ven
fav or
cham ber
oplas m
dod ec
otox in
ogly ph
hyn ch
H en
L in
L ind
M yr
O C
R C
c uck
c rin
d ir
d ib
e ast
e up
g ay
g amb
h it
h ut
k ol
l is
l ang
l ack
l ign
l angu
p ated
p au
r ell
s is
s ip
s atur
t ess
t ann
u ary
w ast
at m
al c
or o
it ating
el on
st ing
ch and
us ively
ol ed
et on
et ter
ph ra
ess ed
om ous
em aking
am i
ot ism
um ed
ri form
non sub
non cont
qu i
ap an
ant ing
con e
and ro
ian th
ast ically
pr ere
ow ing
end a
cl ock
for ed
bl oss
com pet
fl am
int im
ta chy
we ek
low er
met ry
ev angel
po or
ov en
abl ed
gra c
ann ex
fer n
dec om
An th
gr u
py ram
rol ler
unt s
pal m
pres by
land er
leg is
inf ect
dep os
eng ine
mod er
occ ip
jo inted
book s
ophil ic
ophor a
udd le
flag ell
tol er
fal se
Pal ae
Wh it
quest ion
thir ty
hos pit
Jac ob
crest ed
B rit
C ast
C ath
D o
I m
P o
S p
W el
a ic
a ine
b om
b rim
b apt
f und
f ile
f ranch
l ach
l ance
p ub
t act
y ou
al ic
al ian
un ed
un self
un conf
it ively
ro scop
ra k
et es
om phal
ac us
ul ant
ent ral
em s
em as
og s
ec ed
op isth
iv a
ir rig
sh ri
ex amin
over t
hy ps
ob st
ob acter
he im
ak ers
sc atter
end oc
bl ers
bl ank
ind a
te in
be ad
int ellig
ator ies
to e
we e
ock ing
eg o
pe ar
ton ed
ult ural
row s
ty rann
gra du
mic rop
ling u
ann i
aut os
och lor
ma int
des ign
att en
ven er
reg ist
off s
rec ept
ca ud
la id
stra it
sur f
clo thes
flu x
mus k
mus ic
mid dle
conc ili
extra ct
ony ch
orr ho
fib ro
usc ept
fre qu
pig eon
olith ic
Christ ian
lik eness
evol ution
nav ig
plo ugh
C ro
D ic
D ur
D av
F re
G o
H art
K ir
L ar
L ib
M as
M ur
S emi
T A
b ism
b end
c anth
c amph
e ud
f oc
f ted
f illed
g iest
h ug
h art
i ative
j ub
l ins
l ute
m uch
n oct
p ile
p ond
p sal
p uff
s ized
t ext
y d
y ak
in as
in oc
in ia
in idae
or ously
re per
ch yl
ol um
ol ys
om ast
ul tr
ab il
am eter
um br
ri pe
ec onom
im ag
per iph
ap ped
ant il
ant ig
ex hib
pl er
pl umb
pl atin
he ar
pr is
ke ys
ay e
oph ytic
sub ter
wor se
mon oc
tra de
ful nesses
mis er
to ugh
mat ur
gl omer
red is
so oth
ger min
mer cur
mic rom
mar ble
dec k
unc le
sn uff
rig ged
sw an
ma il
go at
pet t
hand edness
rid ge
dep art
war rant
oll en
sec ut
part icip
flow ing
pul ver
tro ch
rif y
anal og
ops is
serv ice
ios ity
root ed
usc ular
ocephal ous
boro ugh
bott om
nec ess
Bra h
cate ch
brow ed
osc ill
syst emat
C hal
D al
G en
H an
H ell
J e
J ohn
K en
L o
L aur
M ol
W ol
b ite
b ard
b ang
b ility
b ail
c ity
c ence
c ane
c ott
c ili
c ris
e er
f ric
i ological
j i
l oss
n ag
n ik
n umer
n ymph
p ate
s ut
s op
t os
v all
v oy
in able
an ag
en oid
al ising
ed itor
or ium
or ange
un cor
st arch
ch et
ch est
ch rys
us ur
om ely
em n
em ble
os ities
ot ax
ot rophic
ad am
per y
per pet
non d
ia z
sh ap
sh oe
sh allow
sp r
ill us
se vent
uc er
ne o
for ep
com bin
bo ats
fl ies
be ard
be arded
out w
ack now
ick ed
mon o
sy phil
par al
ok er
eg y
sl a
der m
so on
fo il
min ister
arch ic
ax illary
ann ing
uns ur
hyd ra
py r
rol ling
att le
iform es
cul ate
ru f
leg itim
acc us
ward ly
ousness es
dom in
press ed
mult ic
vis aged
cir cu
top ped
cut ter
spl an
lim bed
ject ion
weed s
oty pic
other apeut
iac al
chlor o
opod ous
opter yg
fact or
vul gar
ophyll ous
ozo ic
Tur k
icol ous
ocent ric
rict ion
liqu id
bir th
emph as
gentle man
auth ent
B r
B at
D E
K at
L S
L ab
L ong
N ov
R T
R o
S cot
T O
T ra
W ill
b ane
b eck
c ret
d ash
f s
f are
g rip
h is
h und
i w
i ates
k iss
m end
n ia
p ug
p ach
s ack
s ore
t og
t unn
t ympan
w on
y th
y ield
on ist
es cap
an as
an ize
en su
al ite
is ch
is chi
ic ize
ar ine
un ting
un exc
it iously
el astic
re co
st ool
ch amp
ol ing
et ted
om ical
ac commod
ul o
th io
ab el
ent re
ot o
ad ren
op a
ag re
ag ree
iz a
qu ot
ap pet
ant es
ant ep
ir cum
sh a
sh ev
con form
co le
ell s
ell ip
ian ize
all a
de af
ke eping
cl ed
cl usion
oph osph
for c
ath emat
inter s
ta h
ge on
res ur
low s
gl az
met rical
ins ol
under stand
ev ent
ev apor
pol it
so u
pe ac
ular ity
row ed
ox ic
her e
bra dy
fer ro
my ri
An d
ign or
hyd ros
tur ed
reg ard
vol at
but t
pur g
mult if
thy ro
prot ect
oz on
box es
fact ion
liv er
phys ic
beg gar
soc ial
nit ro
stand ard
spe aking
enth us
room s
imet ry
imet ric
spirit ual
gyn ec
chond ro
hon or
sound ing
Te ut
breath ing
oglo bin
D ol
D ec
F E
F al
F ul
H or
L A
O ph
O ri
P ort
S in
S an
S ha
S pan
S aint
W a
d ies
d uc
e ul
f r
f ab
g ross
h ad
h ind
i ator
i amb
j an
k am
m u
m pt
m arch
m emor
n am
n ie
n ote
p eck
r yl
s ort
t ul
t ower
w av
z el
in ist
an ist
at ine
en osis
al ty
ic idal
ar es
it on
it us
re pe
re ason
ch ast
il ely
ra e
ra ke
ph one
th etic
em ig
op aed
oc oc
ap o
ap ter
lo st
ip ped
if fl
con vers
con jug
sp eech
ers on
pre v
over ex
pl a
ob enz
all en
sc en
ne bul
end o
for ty
dis co
te as
be et
out f
int end
ick ing
ta ined
ach romat
li ed
ace an
low ing
gl ig
col lar
pt ic
wh el
bar on
ox in
ym e
let t
br u
her b
tri gon
bra g
au ch
do ugh
zo ic
rh od
pa ed
vent ric
pred ic
vis cer
ben ch
amin o
gro up
omorph ous
bas ket
ball s
phen omen
tem pered
sim ple
cour se
tre at
tre as
ophag y
rab bit
lib eral
fir m
sper m
emp ir
ocephal ic
mous e
etal ous
bacter i
civ il
exec ut
opin ion
neut ral
dac ry
acknow led
splan chn
A v
A ct
D T
L O
M T
M ach
P I
P O
P at
P ed
P od
P hyl
P aul
R hod
T a
T el
T om
b ble
b eth
d ess
d ext
g ian
g oss
g iving
h ing
l id
l ant
l ard
l up
n ational
o ak
p ump
r ations
s well
t ier
v iz
w rist
z i
z an
in ely
in oid
es ophag
an er
an chor
en y
al is
al um
ic er
ar rang
or ize
el der
st ay
st age
st rom
ch anc
us a
us iveness
ph leg
ess e
om o
ion er
ac es
ac cord
ul as
ul iform
th all
em et
ad mir
ad elph
ous es
og g
ist a
ri min
im es
im ic
ag h
ation ism
per t
non im
ver min
ap olog
sh ear
con cent
ep il
ian g
ill on
com ed
com merc
ost ra
ind uct
be w
be ef
ub ber
int rod
ass es
inter rog
ens ive
ach ie
we et
gl os
met amorph
ev ed
pe ach
wh ir
ular ia
min th
of ib
tri v
gu er
mar ket
orn ing
dec ar
ser pent
str ang
ve ined
bro ther
uck le
sal ping
cont ro
sch ol
ura ge
uss ed
ress es
del ic
icul a
rous ness
pot ent
spl end
exp and
tem pest
opt osis
bet ter
In do
ophor ic
fa ith
lock s
sho ot
dr unk
pneum on
subst anti
oco el
writ ing
natur ed
peric ard
build ing
invest ig
A dam
B A
B ry
C E
C ard
C lar
D A
D y
D am
G ym
L en
L atin
M C
M E
M ary
O k
P E
P a
P ic
P ur
S u
V en
a ub
b ak
c ort
d ler
e ing
e ater
f ust
g om
g av
h av
j ing
l ur
l ug
l aur
m embran
n oc
r s
s und
s ax
t ig
t int
w ink
on ically
at ism
at ry
is ot
is op
ic he
ar ize
ing ton
it i
re ce
st an
st ed
st out
st air
st aphyl
ch ick
us er
ra ff
ul ary
ul ously
ur t
ur on
th ank
os y
ad der
ut a
um m
op son
oc ta
ag ic
per ine
non co
qu am
ap prehens
ant ism
sh ield
lo x
con sol
con cert
ell es
and ra
ex is
ill ar
end able
for ward
ind le
bo ys
dis crimin
ass er
par a
mo ving
ok a
red uc
car pet
car cin
ha unted
di ap
ah u
rat er
ov es
ov ed
ov ate
ox ide
tri g
gu an
mar g
fe athered
str id
ve h
An gl
hyd rate
sw itch
son s
cur rent
des er
ush ing
aff ir
eth ane
kn ock
kn ife
inf init
anti qu
other ap
prec ipit
odont ia
jo in
du plic
tro ubl
arth ro
sulph ur
opter a
fa ult
udd ing
blood ed
prof it
suc cin
lap ar
iat ric
burn ing
sign ific
jur y
blow n
dol ich
asp ir
tip ped
fru ited
cult iv
stom ach
fram e
jour nal
perit one
trad ition
publ ic
lich en
lub ric
opex y
B ul
C orn
D u
E le
G ab
G ood
L u
M ass
N ic
P ent
S im
V ir
c occ
e ury
f ris
g id
g over
g ene
g own
g unn
h ect
i let
i ableness
k on
k ib
k ok
l il
n ath
o un
p yl
p ept
r ural
s ett
t ank
t ake
u ity
v inc
w ur
w and
w ho
w yn
y ly
z ar
z ig
al der
ed om
is is
el ism
re mon
st ent
ch on
us her
il ated
et o
et ch
ph a
ul oid
ul ousness
th ird
am as
ist e
ist ing
ri k
ec ker
iv oc
im an
od le
od ial
per ist
ig o
ant agon
ip ping
con fer
est ic
pro log
ud er
pl ug
ill as
se arch
ob long
sc ale
sc rap
de fer
ne a
ne glig
oph ot
ang ium
be er
be ak
int on
ach ron
ran e
cor e
ure ment
ev el
di agn
di abol
sl ide
pe op
wh er
bar red
az o
az ot
her d
ting s
istic s
hyd rop
och e
ik s
ther mo
enn a
io le
enc ing
pan ic
sol ic
acc eler
ional ity
by e
phot oc
bel t
bon ed
comp let
aer ob
cre am
far m
bat hy
band ed
dev ot
hed ge
agg reg
plan et
flo or
ogam ous
fall en
agog ue
fam iliar
drag on
Fran co
gym n
omot or
bene fic
iflor ous
americ an
manif est
A F
A h
A ch
B ell
B art
G or
J es
K a
K ol
M O
M ich
M aur
N y
P as
P har
R od
R ay
S em
S har
a ire
a unt
b ary
b ure
c ker
c ater
c ush
d art
d aw
e ad
f em
f ren
f ancy
f owl
f ruct
g im
g au
i h
i am
j ol
k or
l ia
l ength
m ild
n ost
n ub
o est
p able
s ay
t ile
t oll
v end
w y
w ir
w ish
w ain
w agon
x iph
y ed
on ium
at ist
en ers
al m
al dehyde
it ant
ro th
re ve
re form
le a
st ained
ch ow
ch alk
il ism
ol on
ion ate
ac s
ac rom
ac etic
ul li
th re
th reat
ab o
ab as
ent gen
ot te
per ig
per iod
non in
sh in
sh ir
co id
sp ider
und iv
und ep
ine ff
pre in
over d
hy brid
se eming
he al
de e
av al
ug al
olog ize
dis pens
up e
ack ing
tra ff
li x
res e
one u
mat ist
mat ri
act or
sem il
cor respond
ure a
min eral
bra zen
mic ros
gu id
ser mon
fe eding
anth e
ve in
uns ec
cal or
cal am
coun try
sn o
mal t
rol led
che es
por phy
ven om
enn y
sal v
reg ular
elect roph
uff le
mult is
ency cl
ark s
spl it
dist inct
div is
blo om
light ed
psych o
glo b
inv ig
opter ous
urg ical
lap s
bab y
thro at
cran i
iast ic
ranchi ata
cate gor
mach ine
clos ed
jaw ed
revol ution
cust om
agglut in
diam ond
archit ect
hund red
A ri
A lex
B re
B ow
C ent
C op
D en
E s
E st
G r
G y
G oth
K or
L I
L ow
N I
N ot
O s
P ap
S and
S yn
W y
Z e
b und
b ash
b rig
c eli
f as
f ec
f ag
f right
g ingly
i ard
l ud
l ash
l uck
n emat
p enc
p rag
s ine
s addle
t ib
t iger
u ing
v ale
w n
w ad
w if
w inn
w ald
in def
on it
es cal
an on
an ed
at ress
en ary
is ob
ar ra
or ious
un i
un as
un am
it ary
re com
re conf
re cord
st ic
st rew
ch aff
il icate
ol is
ph ac
ph as
om i
om eric
id o
id ate
ion ize
ac ed
ac char
ul cer
th ron
th esis
ot rich
ut t
ec an
op us
ter m
iv en
iv ory
im ed
ag ra
ig e
qu at
ap oc
ap ping
ap plic
ant age
sh y
sh ro
sh ag
sh af
sh irt
lo th
con cer
con sul
ell ers
sp on
sp it
pro portion
ep i
ep ar
und o
hy g
tr unk
all s
all ic
ard e
ial ized
cl iff
oph age
bl ingly
bo k
bo u
ass im
mon d
inter med
ens ion
par ent
par ag
mo th
we ap
sem ent
met rop
ins ist
col leg
pe a
ah l
bur den
arch ies
bra c
cer emon
dec or
str ess
uns al
ler y
des m
bre eding
are e
iss ol
omet ers
kn ob
vol can
ett i
ura s
oy ster
equ ilib
cir cul
tran sport
part icular
pin ch
antic ip
scri bed
occ as
tem pt
dri ve
sim pl
asc ular
Le on
imper son
iet y
liv ing
nut rit
agon al
dim in
mann ered
fron ted
suff ic
hen ia
fort un
fig ur
soul ed
orch est
rograph y
yllab ic
uzz le
comb ust
stro ke
sight ed
pep per
orrh agia
pow der
indust ri
moun tain
A ur
B I
B u
B arn
D F
H il
H ib
H ay
I sl
K h
L C
M ax
N C
N o
R us
R ad
T C
T E
T re
T hom
a emia
c uc
c inn
c amb
c rep
c rem
d ell
d ling
d led
d read
f ang
f rig
f als
f elt
g us
g org
h et
h ub
i ologist
j ail
k as
k ie
k nee
l ak
l ott
l ittle
n oth
o ar
o ophor
p ang
p ure
s atin
t ired
u fact
w en
y outh
es ome
an ol
at ize
en am
ic orn
ar as
ar gu
un av
un trans
un pur
un prov
ro le
re ex
st ich
st ink
ch ym
ra ven
ol it
ol ip
ph ase
ess ential
ac ut
ac ron
ac rid
ul able
ul fur
th us
th mic
ab al
am yg
ot ter
ad vis
og a
ri le
ri ff
ag y
ig ate
non pl
ver bal
ical ism
con ven
est one
ell ation
sp o
ian ist
ine ous
over e
hy pos
ib ranch
pl ess
ill es
se am
se eking
tr uck
sc at
sc ented
ial ization
ke el
dis p
dis sol
int est
inter fer
li ament
mo ve
mo unt
aw e
ber y
act ual
cor al
cor ac
car ry
sl ack
wh irl
ret ic
arch ae
bra s
gra ined
cer at
cer tain
dec e
str ength
ale e
ong s
inc ur
hyd ric
rit orial
hem is
ush ed
aff e
the ad
bro om
zo a
zo on
pet al
eli or
rep ubl
kn own
can al
pa id
unn y
pri ze
squ ar
ational ism
gar n
pra ise
uss es
equ al
del iber
bit ten
pi ro
pi ec
cir cular
hor iz
ben zo
hood s
down s
exp lo
imm ort
tor ment
bird s
bul b
sa int
sa fe
hel p
ops ia
hed ral
chem ical
flo at
cran k
script ion
pter yg
writ er
neg lect
wil low
nob le
osper m
wre ck
shad ow
maid en
scul pt
transc end
Amer ican
devel op
acad em
chole cyst
arcom a
legis l
A ud
B E
B ac
C re
D ip
F I
F e
F ab
H u
H es
H is
H ipp
J oh
M ul
N a
R ock
S or
S um
T o
T art
T hor
W A
X en
b ist
b able
c ly
c ite
c ary
c ash
c rot
c ortic
d ob
d uct
f ran
g ow
g ather
j ay
j ump
k op
l eness
l ax
m ens
m amm
m oment
n u
n ell
n aut
n umber
p agan
r ina
s me
u let
v ene
x im
y aw
Ġ a
Ġ Ċ
er ot
on ate
al am
is oc
is land
or ially
un tra
un ref
it u
it he
it ably
it iveness
st ric
st ates
ch au
ra ment
ol us
et z
et ric
ion able
th ur
th rust
ab and
os er
os ing
os ol
os ia
os se
os ely
ot ry
ut able
op leg
im ped
im part
od ent
ation ary
ig ar
ig ation
non s
non en
ant a
ant ir
sh od
if ically
co in
ell um
ell ite
sp oil
ex pos
und i
ast on
ast ron
ies is
uc a
sc all
sc ratch
de ut
ke en
cl a
cl ing
com pos
ost rac
bo th
fl ax
ub st
ass ign
mon e
mon key
ta ught
par an
par at
sel ect
ide i
ide al
mo ul
mo urn
res ent
ok in
act s
sem icon
cor k
ins ect
di et
di ac
sl op
sl im
der iv
pe ople
ton ian
bar n
mic rog
tw ig
anth er
coun sel
ik in
sn ob
ane ously
aph or
aff ili
bre vi
roph ia
hand ic
que en
sch ist
acc ust
har sh
kn ight
vol ution
rid ing
ps il
rum s
dra ft
dra ught
dra wing
add ress
hyp ot
emb od
lim e
lim n
scri m
exc ept
prot est
ira ble
sup press
dri ed
asc end
wa ist
cond uc
cro ok
vir tu
eu phon
fa int
dam n
lib er
dig it
vul can
tu be
rolog ist
acqu aint
sar co
wash ed
stem med
ocer at
writ ten
roy al
subl im
phant as
raz or
fier y
christ ian
bish op
phle b
orthod ox
A th
A sc
B erg
D D
D O
D in
D ev
E th
F air
G ib
H ed
H ad
J ul
L ept
N i
N orth
P or
R P
R en
S us
S id
S av
S ub
T ro
b ion
c ia
d ab
d ate
d up
f ind
f ty
f ict
f eld
g ence
g our
g ement
h ide
j on
l l
l ane
m all
m ash
m unic
n our
p ia
p int
p ins
p isc
s ill
s ial
t ac
t rep
v at
v ow
w ry
w rink
z ie
in co
in trans
on ous
at tribut
is y
ic ard
ar r
ar id
ar ms
un al
un op
un super
un mer
un rest
un rem
it ers
it ten
it iousness
el iness
ro bed
ro bor
re vers
le th
le ys
st in
st ur
st eg
st ore
st ory
ra sp
ra ising
ol u
ol ous
ol ia
et in
et ym
id ental
as ym
ur idae
th ys
ut il
og ony
ri ev
ri ze
iv ist
od ium
non ab
ap oph
sh ack
sh ake
sh rew
sh ift
con ch
con son
con struct
con sider
sp un
pro cur
hy gro
ill ate
tr ist
all ot
sc reen
ce iv
ne ys
yl ar
ff er
cl od
oph i
oph obe
com ment
ind ex
ind ict
ie w
ath a
ath ic
int ent
wor ts
ass ed
inter pret
tra pe
ta int
sy non
par ab
ort s
ge able
ok ines
red ist
rop ean
sl ed
tri b
gra b
gra s
gra ce
anth rac
unc ur
ting u
me z
omy cosis
gr um
att ent
por tra
ix es
rec re
bor dered
vol t
Ar ist
char ged
aur us
aur icular
mes mer
mult il
vis ual
add y
stra in
del eg
tim es
gre y
read ing
part y
antic on
eff ic
other m
imp ass
rif ied
whe at
ophil ia
In d
loc ut
hed ron
emon ger
lit eral
day s
rang e
dim ens
dig est
burn t
turn ed
spe ak
je jun
rolog ical
wall ed
stri ke
stri ped
ophyll um
anat om
itut ed
dial ect
paras it
thir st
vig il
know led
consc ious
wre ath
coff ee
struc tur
trum pet
sob er
fif ty
throm b
pau per
ruf ous
eul og
B ay
F O
F il
F rank
G i
H um
H ard
J un
K in
K rist
L an
L ep
L ou
M end
M ari
N er
N em
P om
P ri
P ers
S en
T hy
W all
b ia
b ys
c ist
d ers
d ung
d les
f ired
f illing
f itting
g ie
g age
i ker
l ite
l ive
l ain
l atch
m og
m est
m int
m ight
n ab
n im
o unce
p im
p aw
r are
w r
y on
er ect
on ne
at el
en ol
en ian
al ine
ed ict
is en
is ement
ar b
ar er
or ite
or ator
un is
re pl
st um
ch t
il ite
il eness
il der
ra che
ol as
om ere
id ently
em y
em bl
os ite
am ate
um ing
ec o
im pression
oc ell
ag ric
iz ingly
od ed
per su
ig an
non res
ver ted
qu o
ant ia
ant ich
sh ore
ip al
if ical
con dem
co y
co ast
sp ire
ism us
und a
hy mn
ib les
pl ank
pl astic
pl asm
uc in
uc id
ob as
ob ranchiate
sc re
pr ice
ne at
man ip
end os
cl ud
oph onic
com y
com ing
ry m
ry stall
ang o
te eth
fl oc
fl atter
ie g
art ic
ick y
tra il
ment ally
we ep
mat ric
ha i
po on
po ur
sl um
sl ug
pe e
ult im
row ing
br ate
sk elet
mer ry
bra chi
ax ial
aut omat
me ad
ept or
sn ip
ont ic
sw ollen
cur r
che ap
tur f
pseud op
por ter
ren eg
the ast
the olog
bro us
wood en
rot omy
ix ed
lin ing
cap s
ual ism
erous ness
work ed
bor ing
can non
elect rom
pred ict
uff ed
hum id
dra mat
la ugh
hol es
arian s
icul ated
dy sp
emb ow
conf ess
oh ed
bu oy
thy re
far ad
prec ed
thal am
sup pl
radi o
mit ted
rac em
anal yt
bow ed
quad ric
organ ic
imper ial
lock ed
oder ma
mas cul
empt y
dr ug
ocephal y
vag in
test ing
ucle ar
var ic
acqu is
ses qu
fig ure
tol u
cath olic
dest ruct
Bl ack
orch id
neu rop
neg ot
Hal f
nin ety
haz ard
Bro ok
ochem ical
alph abet
lux ur
naph th
sold ier
occip ital
sevent y
' -
A ut
A ug
B lo
B our
B rown
C ir
D M
D P
D ra
G ro
G ran
J ar
K an
K el
K ur
K am
L T
L ip
L ud
L aw
M az
N ik
P enn
R ub
S O
S ta
T rin
V ed
V ar
Z o
a est
b ah
c ec
c ation
c rat
d as
d rom
f row
f iddle
g ild
i ometer
j or
j as
k le
k ite
k elet
l ath
l elike
m ush
n igh
p ud
p ater
p ore
s wo
s add
t ir
t ars
v or
v ast
v eld
in form
in spect
es ian
es che
an ct
an aph
ar on
or us
un ver
un ret
un fe
un anim
it as
el f
ro entgen
re vel
le agu
st s
ch ance
ph o
om ach
id rosis
ul ed
ur ine
th wart
ent ing
ent ry
ot ch
ad ia
ad ian
ut y
ut en
ut ic
op per
op oe
op oly
ter er
iv ities
im prov
oc ation
oc ial
per ing
per for
ig a
sh ak
sh ock
lo on
lo ft
con junct
co ad
sp rink
pro ject
and i
ex plic
ex haust
ep ile
ism al
pl ut
se en
ob tr
sc int
sc yph
de acon
pr ise
ke ep
ost atic
bo id
dis ent
te et
fl ess
fl int
art ific
art iculate
ub ri
int u
mon ot
par rot
ort ing
ge ar
low ed
red eem
cor ner
ins inu
ha us
pe ak
fo am
eter n
rat tle
ov a
sk ull
tri um
mic roph
ax i
mar riage
dec ked
anth ra
str al
aut om
Ch il
Ch am
ain ing
gr en
och ond
ther apeut
aff irm
ors al
ix t
hand edly
lin er
ru in
reg ret
cat ac
leg s
pat ient
comm it
comm emor
ps is
dom s
pen it
uk i
hydro xy
vit al
mor al
bu zz
div er
dri p
dri ft
quin one
Ph ilo
rub y
hel ic
otrop y
cha et
rab ly
hist oric
scar let
fri end
worth iness
cler k
pleas ant
vill ain
doc tor
amo eb
empor al
beat en
lys is
hun ting
emot ional
Ul tra
indust rial
NE T
runn ing
pock et
doub t
yrin th
corp ore
crim son
prin ce
presby ter
olys in
' d
A eg
A del
B an
B os
B ir
C R
C ord
C amp
C rypt
H S
H all
I t
J on
L E
L ap
L ang
L ew
N az
O c
R eg
S ax
U m
a el
a ure
b ry
b art
b ung
d ov
d eli
e us
e ut
e igh
f unn
g ame
g irt
h m
h n
h are
j im
j ap
j unk
k ra
k um
l int
l att
m ack
n t
p iest
p ik
r ins
r atory
s ock
t ard
t ect
t ors
t oss
v ad
v ate
er ism
in ization
in hib
on c
on ville
es ville
es ign
an ab
an arch
at omic
ic os
ar en
ar ity
ar se
or se
or ang
or ically
or ax
un ev
un war
el es
el as
re ven
re inst
le ted
le aves
st ell
st ack
st ark
ch os
ch iv
ch ore
ch ase
ch icken
us able
il ous
il ist
il ine
ol ater
ph ere
ph log
id ial
id ym
ul idae
as yn
em uls
os cler
am bo
ot actic
ot rophy
ot axis
ad vers
ous ed
ist ers
ri ot
ec lip
ter eb
im pet
im orph
im pregn
oc l
oc las
ag ers
iz ability
od us
od ia
per m
ig g
qu il
ap pra
sh ik
sh ovel
con tribut
co ch
ell idae
pro let
pro gress
pro mpt
and ers
ep alous
ian o
ast y
pre p
ish ers
hy oid
ib a
ill um
ill ation
ob el
tr init
all ant
sc rub
pr uss
man ufact
end ers
for s
for mic
ind oc
sub sid
dis en
fl ap
fl irt
ath ers
out st
ass a
mon k
par iet
ron ic
ort ion
rop s
met at
under t
pol yn
di est
po etic
sl ight
min ic
az ole
ice phal
of er
ey er
ann ic
ann ot
my c
ker ed
ogen etically
omy c
ore an
med it
och rome
py g
sw allow
mal ign
hem oglobin
des cript
rol ith
ific ator
che on
bre w
roph obia
ord ination
cul ous
cap sul
rh om
cat alog
val ue
ref lex
pred ec
pred est
port un
hum or
agn etic
uss ing
equ ival
sur face
hyp op
comp uls
ham med
iph er
ging er
conf ident
tail s
tail or
she pher
dist ingu
unch ed
sym phon
fore ign
rac ies
rif ication
oz yg
glo bul
umin ous
swe ep
cam pan
ogram s
contra dict
liv ed
word s
fib rin
fir es
sat ir
Hy dro
dia z
dia st
encephal ic
lay er
coc cy
fed er
thro ated
ocarp us
loid y
bus y
monger ing
cath ed
spar row
omal acia
natur al
pleas ure
gem m
dial og
multip lic
ulph ur
demon str
Wh ite
eps is
diff us
Sc ott
Cer at
Ir ish
orbit al
exper iment
abdom inal
cou rag
amal gam
thous and
righ te
anni hil
B og
B ob
C ly
C oc
C ory
D end
E ur
E ury
F T
H ind
I d
J ack
K on
L es
M M
M u
M ess
M ark
P in
P and
P ier
Q ue
S o
S at
S ept
T rich
a ort
b iv
b ier
b ord
b isc
c ud
d ag
d yn
d amp
e en
e um
e ug
f ect
f rum
g ap
g iness
i aries
j in
j al
j og
j amb
j ou
k ab
k ir
l ank
m ap
o a
o let
p oc
p ies
r idae
s ang
t oc
t ant
t yl
t ass
t rom
t ire
w ab
w ist
w ang
y am
y ach
z ers
Ġ and
er man
in quis
on ent
on omy
on omat
es y
an x
an ast
an achron
al ge
ed ed
is ers
ic y
ar gy
or ily
it idae
it ors
it ously
ro up
ro meter
re ach
re press
st il
st ow
ch us
il ess
ol iv
ph obia
ph aryn
ess a
id en
ly ph
ly ric
ac compl
ul ic
ul iferous
ur ally
ur gy
th rill
ab und
ent a
ot al
ad ar
ad ulter
um n
ri vet
im post
im pos
im agin
oc lim
ag us
od ian
od rom
per id
per cept
qu izz
ant y
ant ire
ia k
sh ade
sh ark
sh aft
ate e
con vert
ell us
sp iro
pro l
pro port
and y
ep ider
ib ular
ob struct
he arth
he alth
tr on
ak in
ial izing
av ow
end oth
cl as
cl og
cl ap
oph ony
for em
for eg
bl ur
com plic
ost ome
ost oma
sub du
bo il
olog er
olog ue
dis pers
dis sim
fl ight
out er
ator ship
mon s
ens es
ens ed
ely n
par och
par son
li que
aw ing
to k
res er
ok y
ber e
mat es
mat ism
ho ot
cor rel
met ast
col loqu
ev ac
pt y
sl ap
sl ave
fo od
fo under
ram s
rom orph
ov ari
ret ard
br ill
sk ip
sk ill
arch ed
gra de
gra vit
ped agog
gu il
au k
mar ks
cer vic
orn s
tw ist
dec em
gen cy
sw oman
ink ed
ific ate
ific ative
pseud om
bro mo
uck s
sal es
sal ic
ord inate
iss ion
hand s
pres umpt
lin al
cap ped
sol ed
ari i
rh abd
ank s
ank yl
den atur
kn it
can cer
ines e
unn ing
hom ogene
dra b
pen se
hyp oph
micro scop
ild a
she ath
mus cul
div in
osph eric
zz le
da int
tel es
eff er
prec is
sym met
tar iff
kin et
miss ive
band s
isc us
arg ument
thes ia
prov inc
anthrop omorph
eu phem
set ting
arter i
lit ig
pel t
tain ing
suc ker
anim al
turn ing
sph yg
vul s
encephal on
preh end
cephal ic
je opard
sent imental
rib bon
ogam ic
neph ro
dry ing
bott omed
hold ing
rhy thm
Ge org
walk ing
pac ed
ocyt osis
hap l
uph ol
ognath ous
parad ox
odynam ic
max im
opro tein
bast ard
fee ble
maj or
colum n
hoof ed
adj ut
wester n
absol ut
teleg raph
eccles iast
frat ern
Span ish
A ster
B C
B M
B ak
B rand
C ot
C ad
C lo
C ry
C ho
E ri
E ry
I C
I P
J ap
J ew
P ot
P yr
S P
S ig
S pr
T an
T ub
b ate
b ies
b asi
b ranchi
c im
c ib
d us
d op
d ine
d aff
d itch
d irt
d welling
f ight
f rust
g aw
g ale
g rot
h end
i id
j es
j ag
k l
k ak
l ore
l air
l ark
m ow
m ull
n ep
n ib
n ith
n aked
o ir
p ish
p ity
r ude
s ass
s cour
t ep
t ene
t led
t uss
t read
u in
u pro
w i
w l
w rite
in de
at os
at ae
en vir
is or
is co
ic ter
ic les
ar mor
or ec
un ro
un il
un rec
it ol
el ae
re ward
le aden
st ib
ch ers
ra f
ol ive
et ra
ph all
ph ras
id olat
ul os
ul ine
as a
th anat
ent ric
os cul
ot ine
ut z
ter at
ag al
ag inous
non syn
sh if
con ver
con vol
con sent
est eem
co on
ell ike
sp ondyl
pro hib
ex es
ex empl
und em
ine a
ud der
hy phen
se er
ob y
ob sess
ob scur
he ir
he eled
tr es
sc aph
sc are
pr un
ect asia
av ian
man ner
man gan
yl ate
oph th
for eb
for esh
olog raph
dis se
dis par
dis put
fl ush
be au
up right
art ed
out sp
mon op
tra g
tra ce
ens or
ta en
par ac
par am
ment ed
res in
ok s
sem ire
ock er
met ac
ins on
ins ular
eg al
less nesses
ev an
ha il
ograph s
ograph ers
sl id
so uther
ton ia
age able
oth eca
min i
ret icul
of t
arch a
arch ical
bra v
ped est
gu ess
ann y
ann oy
orn is
dec lar
ser t
fe u
fe at
fe et
fe off
str and
uns w
cal end
inc ul
inn oc
rig id
py cn
ther ap
mal ac
hem ia
anc ip
att end
bro od
rot ten
zo le
ition ist
hand led
cont est
ru th
cat en
ina ug
har vest
bi ot
sul fur
pa uc
Ar ct
uff s
hum eral
dra in
atur al
comp act
bes h
sec ur
emb ell
ili ac
tet an
dist ract
osph er
mod est
phil anthrop
enter ic
tor ch
thal ass
sym pt
mot iv
tal low
anal ysis
lex ic
lam y
sa uc
ench y
sac ro
opter an
spect ro
rab ility
lit ho
beg otten
cast ing
oly b
pop ular
ocephal us
six ty
appro ach
benz ene
gri ev
sequ ential
som eness
vac u
sus pic
appe ar
race ous
oi etic
branch ed
adv antage
batt le
valu ed
print ing
cosm opol
hun ger
epith eli
profess ional
norm al
Gre co
chang ing
imb ric
complex ioned
shoul dered
bach el
ĠĠ Ġ
bloss om
obenz ene
overe ign
B O
B ron
B rad
C ab
C ong
C rist
C oh
E E
E ug
E gy
F R
G A
G S
H em
H op
H ill
H ob
I ch
K u
K il
K ath
L ac
L ag
M and
N ord
O x
O ct
P op
P hal
S E
S T
S ter
S ap
T ap
V an
W in
a que
b ian
b ran
b rat
b ake
b idd
c ure
d ah
d ifferent
e ase
g og
g able
h l
h itch
l anc
l umb
l ump
m ite
m ie
m ier
m ord
n umb
n amed
o ist
p ingly
p ann
s ize
v ous
z ier
z one
in ary
in ized
an cer
an ese
an omal
at iv
at rop
or ist
ing le
un bo
un mar
un vit
el ong
el itis
ro sy
re as
re med
re vis
re jo
re conc
re gener
le w
le ar
le igh
le uco
st ation
st ap
ch ip
ch ill
ch ie
ch ment
us ia
il is
il ating
ph rag
om us
om antic
ion es
ac cur
ac ities
ul ch
ul ite
as su
as ian
ur ist
th rift
ab ial
ab sent
em py
em ata
em ancip
os sal
am eb
ad mon
ri ve
ec al
op press
im ide
oc or
ag it
ag grav
od ec
non er
ver at
sh are
sh ame
if s
if era
co up
ell able
ell ae
ell ated
sp as
sp ik
und en
und et
ine e
he w
he ars
de al
pr ink
ne b
for get
ost enosis
ind ent
bo ut
dis pos
te ach
be ast
be fore
art s
out ed
int ing
wor st
ass ess
ass ist
ick le
tra ch
ens ively
ta per
par ach
par then
mo ot
aw ak
aw ays
to il
we ird
res id
gl a
act ivity
ith al
car nal
ha u
pol yt
pt ian
po ol
pe y
pe as
wh ar
ym er
br in
br ide
mer y
au ro
ich es
orn ament
ser en
fe w
ple ct
aut e
ung a
ung en
old s
inc ap
inc ub
inc rust
ane ousness
ther apy
cent rif
son ville
des cri
ome chan
att est
aff or
bre ed
hyper bol
phal ang
pal ud
go er
dem ocrat
cul p
sol ar
ari aceae
bi as
bal sam
eld a
pred ef
pri mit
phot ot
uff er
pur su
rid er
ational ist
hum ili
mel low
press ure
stra d
pi ke
dy e
dy ed
dy st
ner ve
ner ved
sec ular
lim it
ert s
cre ep
bu ilder
pul p
div id
scri bing
tel ep
imm ers
aud i
rad ic
card inal
lac ed
dev ouring
lab i
organ ization
sulph o
sin ist
circum st
vir gin
set ter
inst inct
pale o
vic ar
gly c
plac ent
tit an
liness es
ever y
opol is
fed eral
past or
sap on
chol ester
bron ze
fal con
ophys ial
pros ely
fra ught
hop per
oplas mic
race ae
eas y
pract ic
gut t
clean ing
epig lott
fram ed
cons ult
pier cing
jar gon
Py th
cere bro
intro spect
struc ted
wal ker
exter nal
phth ong
inher it
eight y
ogast ric
jew el
ococc us
hus band
embar rass
ocry stall
desc end
vap our
fring ed
neigh bor
orrho ea
amyg dal
A ss
B et
C ob
C ow
C aly
D un
D om
E p
E chin
F in
G reg
H A
H E
H ur
H aw
H eli
I R
J en
K n
K o
K y
L ut
M od
M ong
N ar
N ap
O p
O ak
R aph
S yl
W inn
Z yg
b oss
c est
c ave
c elled
c ode
d ug
d ron
d ual
d iffer
d ove
e uch
f ad
f ow
f ide
f inn
f inal
f inned
i y
i antly
j ohn
k ur
k need
l umber
m om
m ias
m ott
n uc
o om
o ons
o idean
p ess
p ied
p unk
p awn
r ish
r iloqu
s ard
t ug
t ale
t rol
t aking
u pr
v ot
v ia
v ide
v indic
w ra
w ob
w ak
w eld
w rath
y lo
y ism
z able
Ġ of
er ie
in ol
in vit
in corpor
on ics
at tain
at ivity
en light
al iment
ic us
or as
un ent
un gl
un aff
it ia
it ian
el us
el ier
ro de
re th
re tr
re ple
re cal
re cur
re pet
re ject
re action
le b
st able
st eth
st igmat
ch ecker
il izing
ol der
et us
et um
ph onic
ph thal
id el
id ge
id ities
id ered
ac ial
ac ral
th ion
am ite
am az
ot us
ot yled
ad orn
ous ing
og an
ri est
op ot
op sy
op pos
ag s
per me
qu ir
qu ill
ant iv
su stain
sh r
sh rub
sh ape
lo ch
lo os
co ul
co bal
co oper
sp ad
sp ike
and e
and rog
and rous
ex orc
ine al
pre ach
pl uck
pl ural
ill usion
se g
ob le
ob ot
ob ate
ob ser
he y
ak o
sc am
sc ape
de g
de hyd
pr ism
pr inted
av el
av oid
man ia
yl a
yl on
yl and
end ors
cl usive
com miss
com prehens
ind ist
ind epend
ind emn
ang ed
ang elic
sub er
sub tle
dis sent
fl uct
ct en
out d
ass ur
cy on
cy to
ator ially
ier es
inter est
tra ged
ful min
ful ler
ens ian
par k
ide ous
to y
mat ive
gl u
gl ar
ho o
red ec
sem ig
sem ian
ys es
col ic
car rying
ev is
di ph
di agram
po ke
sl ick
fo ve
ans wer
ram a
min ute
ox ys
let ic
br inging
sk el
ger ies
gra p
ped ic
ax y
dec id
dec ad
ser aph
anth ous
str u
aut ot
old ing
ign ing
gen ic
men su
gr is
sw ine
rel ation
rel ie
anc est
ific atory
air ed
go os
are an
ord ain
cont amin
cont empl
pres up
pres ub
ari idae
rh agia
sch emat
acc ep
bor der
den omin
sul phon
val et
ca j
ref in
comm ut
cra cker
char m
hom olog
pur chas
ura bly
ura bleness
ura bility
add ed
pra yer
foot s
gre ed
tran spar
ext end
atur es
comp art
part ed
conf ig
plic ated
pul mon
St an
div ul
erg ic
oty pes
phen ol
other mic
imm ig
sum mar
dri ver
radi ot
arth ritis
sac rific
jud ging
opod ium
tre ason
agg le
electro ly
ech in
chem ic
ipp us
cam el
atter ed
spec ific
sle ek
urg ic
prof an
ophy ce
En glish
Hy per
suff er
fle ck
pret ty
hypo thec
acqu ies
wash ing
plum e
obi ology
He bra
aco ust
drop s
gran ul
wool ly
sus pens
pec ul
meas ure
ocar cin
pron ounc
nick el
cere br
epith el
ochem istry
steep le
Meg al
milit ar
ahed ron
orig in
pict ure
panc reat
squir rel
obranch ia
ipot ent
pyram id
opleg ia
synon ym
floc cul
alge bra
A e
A y
A mar
B uc
B uck
C ut
C av
D ul
E ver
F A
F el
G on
G ir
H on
H igh
L av
M D
M un
M oh
O g
O lym
P ant
P ont
R u
R an
R ab
R ud
S ad
S outh
T on
T ib
V S
Y or
a fore
b ant
b ote
b udd
d orm
d ign
d rown
d ental
d extr
e ject
f uc
f uss
f ying
g ish
g low
k ier
k iest
k enn
k illing
l ish
l ake
n ett
n imble
p ings
p amph
r ise
r ings
r ue
r ators
s ull
s cow
t is
t ast
t ies
t we
t one
t ied
t ink
t att
u rop
v om
v am
v oid
v arn
w am
w att
w ere
w aters
er os
in str
an in
an orth
at ious
en yl
is in
ar rest
or is
or cin
un we
un tw
un med
un sup
it hy
it ically
it ousness
it iner
el ers
el ast
re an
re ins
re ma
le p
le man
le te
st ab
st ann
st yle
st rict
ch ia
ra vel
ol ly
et ian
ph e
ph us
om eg
id idae
ac compan
ac climat
ul u
ul ted
ul led
th ink
ab ond
os ide
ot ting
ot onic
ri fer
ri pen
op es
op or
op ped
iv y
iv ate
im us
oc om
ag ar
ag ent
ag ement
iz ard
od en
per v
ig ated
qu ist
ant ry
sh or
ip pe
if lu
co uch
sp i
sp ine
sp ath
sp out
sp ice
pro mot
pro gn
ex erc
ep in
ep iz
ian cy
ian ces
ast h
ast ical
ish ingly
ud a
se w
ob a
ob liv
tr al
all i
ak is
sc ep
de an
de ed
de vi
ect s
ect ive
man ic
cl aw
for er
for mer
ug u
ost al
ost omatous
ind ign
sub til
dis com
be y
be ach
wor ded
ator ium
tra gic
ach i
aw ard
ron ed
res ult
ran ial
sem iv
met abol
eg u
eg reg
col le
car bur
pol ish
ille g
po under
sl ing
sl ate
sl ang
so il
wh or
wh ile
ah an
rom ant
oth orax
min a
bar s
bar ked
let y
br is
her pet
sk id
sk ins
mer chant
bur s
bra ce
bra ck
ax ed
ann ounc
ich ord
ash i
aut or
uns ol
Ch i
me et
ong a
own er
own ed
inc ident
hyd raz
gr ub
ik o
ond a
ane e
inn ate
ma ph
cent ly
cent ric
son net
bed ded
hem ic
des ert
des ulfur
rel ev
rol ite
air n
tur es
tur bin
ven ge
rot und
sal mon
ugh s
enc umber
que er
cat cher
ten u
ring ing
inf lect
syn d
can ker
unf ri
mak ers
ca es
vent ion
pat tern
pri or
rog ram
squ aw
ern a
war es
mel t
yll able
rest ra
vel vet
vi per
bon net
rem uner
uk a
fac es
tran spl
ext empor
gy ro
spl ash
conf irm
cre ated
wind ing
antic om
Sh el
ocy cl
scri be
omorph a
oty py
prec ept
imm ing
iac s
light s
cher ry
arth rosis
imp ut
aden itis
ves ic
dip ter
mut ual
In dian
ophor us
phy to
vert ible
chem istry
atter ing
rev iv
rev oc
inst itutional
fol i
ete er
lif t
oder mic
turn ip
tin ct
fre ck
chrom e
pap ill
mast ers
ocrat ical
osp asm
lic ent
san it
suff rag
bri ef
blow ing
dish on
voc al
clim bing
fri vol
fri zz
gri ff
hep atic
gang lion
tot al
chond ri
odon toid
cav al
hon est
thought ed
plant ed
Cy cl
hil ar
pup pet
mart y
gut tur
eleg raph
My x
dress ed
see ing
hero ic
bind ing
opar as
metaph ys
wid ow
promis e
opo iesis
sib il
arct ic
Aust ral
foss il
proph et
myr mec
govern ment
was her
alle vi
nect ar
ifol iate
cele br
tob acco
heath en
shoul der
Sph aer
insur rect
grind ing
skir ted
eag le
resur rect
Jes uit
A ph
A rab
B ut
B ri
B and
B oy
B urn
B run
C ant
C oll
C arp
C ephal
D N
D ow
D ry
E t
F ur
G ard
H as
H az
J ess
J am
J ust
J ah
K ing
K ra
K as
K im
L L
M it
N P
N U
P on
P itt
S A
S I
S ib
S tra
S part
T ol
T ab
T ham
V e
X anth
a ith
b oc
b aff
b ele
b unk
b ump
c il
c ter
c ated
c low
c af
c rag
d all
f on
f ame
f isted
g ip
g ull
g iant
h ik
h unt
i ologic
j ell
j ee
k ot
k ah
k itt
k itch
l ene
l ave
m ath
m udd
n ation
n ay
p add
p udding
r arch
s i
s au
s ink
s amb
t ical
t ex
t ine
t ung
u che
v ical
v ard
v ascular
w om
w ant
w itt
x is
y od
z ation
z ir
er upt
in ad
an hyd
at l
at ar
at ian
en joy
al able
al ike
ed ic
is ian
is cal
ar ly
ar omat
ar rog
un el
un har
un eff
it em
it ely
it one
re bo
re te
re par
le mon
le ader
st ol
st rig
st rep
st agn
st ump
ch allen
ra bleness
ol ated
ol itan
et ies
et ho
ph in
ph os
om ethane
id ist
ac an
as phy
ur ch
ur ian
th an
th ly
ab ular
ent o
ent ia
em bal
os arcoma
ad ec
ad ap
ad able
ad opt
ut o
um ar
ec raft
op yr
iv ation
im med
im plic
oc ere
oc lastic
oc racies
ag r
ag ous
per d
per mut
qu ake
ap op
ant o
ant ial
ir us
sh i
sh ining
sh rink
lo om
lo ver
co ph
co th
co unc
ell ent
ell ine
sp rit
sp ira
pro ter
pro ton
pro spect
ex am
ex plan
ex empt
ex pression
ep e
ism ic
und y
und ev
ast ig
ast ric
ine qu
over sp
over pro
ill ess
ill age
se at
se greg
se gment
uc ed
ob j
ob sc
ob rom
ard o
sc rup
sc raw
pr ide
av it
yl es
end um
bl ush
bl aded
com pound
com plement
olog izing
te g
te acher
fl ike
be z
be ater
be aked
ie u
up on
int oler
int oxic
mon od
inter ject
ens er
ta ins
par cel
mis e
we alth
mat ter
gl ers
ho y
red e
sem ir
col labor
oid es
pol itical
pt on
di k
sl umber
der og
so f
so v
so ot
wh ale
bar ric
bur st
arch e
bra z
bra ke
gra sp
gra ft
gra vel
gu ilt
fe it
head edly
uns us
unc al
unc ap
unc iation
unc ircum
my ster
my cet
Ch ry
Ch lor
ept ate
ain es
gen etic
och a
och romat
sn ak
inn ov
do ing
ble m
pos s
pos es
pos able
aph th
air s
pseud od
enn es
eth ic
dem and
ition ed
enc ir
iss es
ele phant
cul um
ru le
poly p
rh omb
rh aps
off ice
acc red
ste at
bor g
omat osis
syn erg
val ent
pa inted
ca per
ional ism
elect ion
unn er
cra p
char ging
phot od
uff ing
rid icul
agn osis
equ ivoc
vi able
del ine
iff s
pi per
cir ro
ext rem
comp uter
iferous ness
ben evol
cin emat
cin chon
hydro ly
vit ri
oh ist
thy roid
ball ad
hard en
cry pto
jo ined
tro uble
conc ret
miss ible
bul let
amph ic
extra vag
bow l
lac er
whe y
ophil ist
loc al
ident ial
cro oked
wit ness
esc ency
opter is
gam et
eu ph
ga uge
mist ress
cast le
fib er
play ing
sed iment
iol ate
corn ered
dr ill
Or th
Or nith
Hy d
jur is
pap y
lay ing
osp ondyl
cell ar
bot an
mag ist
roll s
flag ellate
ocarp ic
palae o
chan ter
hur st
sav ing
dest ro
Tur ko
rhy n
pack ed
mach in
amid o
conv ex
conv ey
flav ored
akes pe
jour n
breath ed
vict im
Ac anth
phan er
quar rel
issu e
plag iar
ostom ous
hors es
Cha et
pu er
intern ational
chis is
opl ank
naph thal
recip roc
odend ron
duod ec
arith met
ifol ious
syll og
scand al
mole cular
frag ment
arach n
Wel sh
endoc rin
Hell en
peac ock
strew n
ophage al
Hib ern
trape z
uphol ster
' ll
A dri
B ed
B us
B rig
B eth
C L
C P
C T
C amb
D B
D U
D is
E ast
E sk
E ld
E ss
E uph
F ra
H om
H ip
I A
K i
L ad
L oc
L epid
M ak
M ath
M ith
N at
N ab
O T
P is
P ra
P ho
R M
R ic
S i
S ed
S ak
S par
S au
S mith
T en
U N
V A
V iv
W S
W as
W end
a vers
b agg
c res
c att
c igar
d ox
d arn
f ry
f anc
f oll
f rock
f usc
f rug
f uzz
g ot
g one
g oth
g ilt
h ic
h ush
h agg
h usk
i ations
i osis
k ow
k ha
l au
m iest
m ule
m olyb
n ip
p ah
p ung
r ho
r uck
r ere
r ants
s ister
t up
t ith
t itt
v able
w ack
w rest
y arn
in carn
es ters
an om
an os
an agram
at ia
en et
en as
en ger
en anti
en cher
ic ulture
ar mo
un bes
it ro
ro ok
re x
re cl
re act
re tract
re collect
st au
st amp
st ood
ch ess
ch att
ch ested
ch annel
il ion
il ver
ol ent
ol os
et or
et ize
om ist
om ys
id le
id ation
id ene
ac ing
as best
ur id
ur ism
th um
th inking
ab ys
ab hor
ent it
em br
os us
os oma
am on
am ous
am ni
og al
og el
ec ess
op ers
im ens
im ple
oc a
oc in
ag i
ag li
per il
per suas
ig rade
non rel
non rep
non trans
non spec
non sens
ver m
qu ed
qu aint
ap es
ap ing
ant ee
sh ine
sh all
sh ee
ical s
ical ize
lo o
lo bul
if ted
if fe
con ic
con fl
con spir
con cord
con greg
est on
co il
co ut
sp y
sp el
sp ook
sp leen
sp indle
pro c
ex act
ex curs
ian ic
ud s
ib i
ill in
ae ol
ob er
ob ar
he ated
he imer
all iter
sc ram
sc rag
pr ent
ne ust
av ail
man cy
ay able
ay ne
cl ip
cl air
oph ane
oph aryngeal
ug ed
bl an
bl and
bl ade
com ic
ost eg
ost omata
ry n
ang ios
bo uch
bo iler
fl um
be ating
be aver
ie val
art ite
ub iqu
ass ent
cy cle
cy top
tra des
tra itor
ta iner
sy ring
par abol
par liament
ach a
mo uld
to le
res on
res ub
gl am
gl auc
red o
rop y
cor y
cor ed
cor rup
cor robor
met ro
met ab
ins k
eg ot
ith ic
car s
car ac
car ab
car cer
car bol
di phthong
po x
so up
pe ep
fo un
fo ught
wh istle
ans on
ros es
ger ont
arch al
bra w
gra pe
gra ding
orm al
tw itch
dec re
str ange
ve il
unc ate
ile y
An ton
edness es
me ek
cal f
hyd rin
sn atch
inn a
ther mal
sw ept
son ic
cur ed
hem ip
des pot
che i
att empt
pseud ob
aff l
aff ron
por ous
pal p
sal ut
uct or
cont empor
pres er
pres cript
cul a
cap ac
sol en
ear nest
cat aph
leg al
ten ant
rep ur
rec uper
inf us
inf all
form s
sm ut
sm ug
sm elling
comm ens
phot os
ral s
pur se
ps or
mult iv
add ing
bon n
cir cle
sur viv
icul us
icul um
uk u
clo ak
gy psy
comp ut
orth o
aer o
conf ir
conf eder
ert ion
eng ross
Mar c
vit uper
ified ly
div ert
exc av
unct ure
prot uber
no on
enter tain
occ ipit
log ic
sum m
sim on
arth rod
mit ting
las m
wa it
ench yma
itor ial
hel minth
lab our
quad rup
whe eled
mut ton
swe at
urn ed
cour te
otrop ically
cam er
iod ide
fact ory
prod ig
jack et
lif er
oder mat
nit ros
Sch iz
fib rill
ider ite
flo ur
ophy ta
four th
burn ed
dr ink
stand ing
tin sel
plac ed
init ial
tit le
ado es
uv ial
berg ite
bos omed
fall s
agu a
appro b
voc ifer
obi ological
spin y
fig ured
onym ic
sequ est
step ping
dil at
oco ele
enz ym
gyn aec
peri oste
pros op
position al
alb um
ospor ous
perf ection
seed ed
yo ke
fav our
multip le
esth esis
clos ing
wil ly
phyl lo
epig ram
gard en
stud ded
itud es
otox ic
impro vis
osper mous
otom ist
consc iousness
elo qu
cann ib
fash ioned
hun ter
wis dom
odynam ics
ske w
polym er
othe ism
taw ny
tun ed
iful ly
iful ness
gluc os
ultur ist
mean ing
funct ion
Jud a
establ ishment
Ital ian
ectom ize
stir ring
russ ian
Neg ro
politic o
propag and
doll ar
meth ane
omycet es
beaut y
concept ual
fab ric
tul ip
decar bon
bure auc
oclim at
destro ying
A st
A ver
A ub
A fric
B road
C ed
C ul
C ay
C och
C elt
E ph
F le
F ort
F ern
H os
H ow
H av
I N
J u
K le
L P
L on
L is
N ah
O w
O ss
P ul
P ad
P av
P ha
R a
R ot
R and
S om
S ac
T N
T hal
W at
W ater
W ald
a esthetic
b ine
b ric
b ending
c ric
c une
c rescent
d ad
d war
e id
e ager
f ter
f ath
f ting
f els
f idd
f oster
g t
g ne
g rog
g ently
g aud
h in
h ass
h ock
h uff
i atory
j ak
j ov
j ung
j oll
j ux
k is
k re
k os
k iness
k ink
m ille
m uff
n is
n ir
n ard
n ug
n omin
p ion
p am
p ok
p unt
p ott
r ind
r ender
s ord
t row
t rous
t angle
v int
v atic
w ake
w aste
y og
y te
z ia
z ero
in an
in ers
in valid
es i
es er
an or
an ing
an ec
en v
en glish
al ex
is al
is od
is ia
is ingly
is cope
ar ite
ar io
un ite
un ker
un mor
it ta
it oid
el im
el ize
re me
re juven
le ch
st ig
st abil
ch id
ch ann
us al
ra el
ol ize
et ty
et own
et ail
ph s
ph ae
om ia
om ize
om bro
id y
id ig
id ious
id ase
ac ulum
ur eless
th em
th eg
th atch
th imble
ab ra
ab sc
ab eth
ab sin
ent ine
em erg
os eness
os ophy
am ort
ot ation
ad voc
og ens
ri ger
op ping
op neum
op ithec
iv ated
iv ery
im os
im bib
oc top
ag le
ag am
od ge
per e
ig s
ig ram
ig enic
non ev
ver mic
qu ib
qu ack
ap i
ap os
lo e
lo bed
con sign
con gress
co v
co erc
ell as
ell ia
sp ra
sp inal
sp ade
sp ray
pro stat
ex cre
ex tern
ex agger
ep imer
ers burg
und ra
und ity
ast ers
pre med
pre jud
pre occup
ish ments
hy m
pl ike
uc es
ob l
ob s
ob il
he ed
tr ate
sc y
sc ol
de gener
pr ank
ce ed
ne ural
man ce
man eu
yl ous
yl ation
end ered
ay o
oph ren
bl as
bl under
bl unt
bl ame
com press
com bat
com mission
ost ate
ost omies
ost asis
olog ized
dis cer
te am
te ut
te enth
fl ing
be f
be en
art icular
int o
mon et
tra v
ens ible
mis c
li en
ron tal
to ff
we as
res ign
ric es
one ural
gl um
gl amor
ho ar
red dish
sem e
sem ide
cor ros
met as
car rot
ure thro
di ab
di ad
sl ope
wh im
wh oles
eter nal
rom ic
ult s
min is
bar ley
ret ent
az in
az ure
her mit
her ni
sk a
abl ing
mer it
bur r
cop ic
gu es
ich n
uns at
Ch rys
old ed
An g
cal vin
ept ive
ore e
gr ate
sn ug
sn iff
ane ity
rit ual
do es
py ren
sw ay
son ia
cur ric
aff ection
unt en
uct ive
Al d
itis es
amb a
pan egy
pres cri
omet ries
rag on
rag al
ank led
leg end
acc ident
har a
bor ed
inf il
les ome
omat ically
ars enic
form able
ward en
ca use
ines cent
ional ist
eck s
pred ep
aur ic
phot ograph
ps ia
war p
mes h
mel on
onic a
vel ing
vel oc
bel le
bel ief
hol m
hol id
del iver
tim er
icul ation
rem od
rem ember
top sy
fac ing
ext inct
ben ign
cin ct
unk s
unk y
spir al
flow ering
uro id
oh m
pul pit
no is
da ub
da ughter
tel ec
other mal
exp end
hard ened
cry stal
dri ving
fil ter
bul ly
amph ig
mit ig
rust y
sac er
ba it
quad rat
glo om
ophil ism
full est
sin u
vert ic
ech o
app ell
tub ul
iner ved
opter on
serv ant
det ract
ophag ia
sen se
cr us
lap id
nit rogen
lan tern
yellow ish
pop py
alg ic
sph aer
ival ent
tho od
vag abond
osp inal
cab inet
draw er
Qu aker
ni hil
cit izen
plum ed
mur der
jug ate
trich lor
ophthal mia
onym ous
pter id
bug s
fold ed
pens ion
osaur ia
osaur ian
stre ak
stre pt
ozo a
position s
fra ud
iqu es
educ ated
plant ing
mir th
ocyst ic
ogl ossal
appe as
produc e
doc ument
conv inc
aug ment
claim ed
mix t
epig raph
offic ial
junct ion
magnet o
nin th
sail or
witted ness
repro ach
rob ust
infl amm
wear ied
dich otom
sher iff
opar al
cyl inder
appl aud
plag i
itarian ism
acer b
pill ar
flesh ed
omaniac al
phth is
ocard ia
hid den
chang ed
whis per
ophen ol
ound ing
illion th
sque e
inspir ing
Roman o
amper e
Od ont
eat en
learn ed
theat rical
condition ed
discip lin
cuck oo
sla ughter
circu it
yield ing
peop led
invig or
fas cin
Isl am
rhom bo
envir on
diph ther
A x
A ly
A qu
B ou
B rid
B uch
B alk
B oe
B ibl
B udd
C os
C and
C ort
C our
C la
C laud
F C
F ay
F inn
G E
G ur
G ri
J os
J ov
J ose
J eff
J acqu
K re
K os
L ock
L ith
M ell
M eth
N es
O P
P r
P il
P ow
P ale
P ear
P lac
R ol
R um
R he
R oy
S is
S und
S ud
S oph
S abb
T P
T ed
T us
T ill
T ob
T all
T itan
V ul
V ict
W I
Y an
Y ah
b iz
b yl
b iest
b anner
c un
c ag
c ale
c ress
d ith
d ance
f im
f ont
f rit
f riction
g li
g orm
g utter
h im
h oc
h ull
i encies
j ab
k t
k u
k om
k ad
k ho
l ae
l igh
m ies
m ire
m ele
m ote
m izz
p ith
p orn
p ix
p ithec
r ha
r hea
s iz
s able
s ah
s ans
s igh
s iph
s ection
s nee
t ak
t uck
t omb
t antal
u ros
v ind
v ah
w ah
w ired
y el
y ester
z ine
Ġ to
er i
er ess
in sp
in ase
es co
es ce
an ous
an ical
at ron
at ax
at io
en ous
en idae
en lar
en umer
al ab
ed it
is och
is omer
or er
or in
or um
or hynch
un ip
un if
un car
un che
un vol
it ly
it ial
it ability
el ous
ro v
ro bot
re es
re ap
re inter
re tra
re trans
re iter
le ech
st ry
st ony
ch ak
ch ari
il in
ra co
ra ised
ra chi
ol ymph
et he
ess el
ac red
ac count
ul id
ul ist
ul ence
ul ently
ul atively
ul ators
as phal
as pers
ur ite
th r
th at
th ra
ab ac
ab ras
ab norm
em es
ot ion
ot roph
ad al
ad her
ut i
ut ely
ut ions
um atic
ist an
ri o
ri ous
ri ven
ec ter
ec ret
op el
op ular
op portun
op oietic
ter ia
ter rest
im n
im y
im en
im par
oc ate
oc ytic
ag ro
ag ist
ag ged
ag grand
per ia
per man
per cuss
ig ger
non vis
non equ
qu ater
ap ar
ant ian
ant enn
ir cular
lo an
lo ath
lo ugh
con gen
con ject
con vuls
est e
sp um
sp end
sp inous
pro vis
and ry
ex pi
ex peri
ex termin
ian ly
ers ome
ast r
ish nesses
ud o
ib ranchiate
se ated
uc ent
uc co
ob o
ob ic
ob ac
ob ile
tr ed
tr ell
tr end
ard ing
sc um
de oxid
pr ene
pr ised
ne ura
av as
yl er
yl os
oph aryn
for ced
bl ot
bl ond
com et
com ple
bo o
bo ul
bo iling
dis k
dis per
dis sem
dis continu
te an
te ens
fl amm
up a
ath ia
ick ers
mon gr
inter nal
ens on
ens iveness
ta ff
sy ne
par agraph
mis anthrop
aw l
ace phal
to es
res erv
ber ger
ran ean
act ically
red ress
sem ist
super fic
cor all
col umb
oid itis
car av
under ed
pol ic
di ed
di phenyl
po th
sl ur
so lec
ram p
ram ine
row er
ov o
ret t
ret ch
ret te
br ing
br us
br ist
az a
ice ous
her n
yn ous
arch ist
bra ve
hal low
gra ded
mic r
gu a
mar gar
ich i
fer v
dec ur
dec im
ser ge
ser ving
led ness
ple be
anth em
uns ent
uns av
ale in
Ch em
Ch ap
Ch ama
ign ment
cal ib
omy cin
coun ted
own s
own ing
ire ment
inc umb
ates hip
hyd at
ik on
rel ax
air y
att i
pseud or
pseud ol
pseud of
aff in
ren a
bro ker
yt es
eth nic
ition ary
iss imo
amb y
amb ly
amb igu
pan el
pan eled
pres erv
ual ness
ank ing
cat ar
ste er
ste al
har m
ring ed
kn ack
inf ection
syn apt
bal anced
trans vers
trans mut
form ular
vent riloqu
ines cence
ias m
elect rop
eck ed
but y
phot om
itt able
pur pos
ett s
ern um
mel ting
rum in
mult im
bel iev
bit ing
alk alin
oscop ically
gy ps
flu ent
hor ror
def in
sec l
emb ol
ili ate
ili ary
burg h
tet rap
pin ac
ts ville
far c
rect omy
zz led
scri b
oper ation
da isy
bas ic
tor rent
cry st
tro ut
tar ant
amph it
psych os
mill enn
emat ous
quin que
rif ying
wa ver
wa iter
wa isted
ves icul
lam ent
dev out
quad ru
Le uc
isc ip
point s
vir g
otrop e
det on
iod ic
root s
Mc G
fin ished
pil low
mouth s
soc iet
play s
gly col
dim ethyl
ential ity
dr inking
stand s
cel est
encephal a
cho ir
plat itudin
bag s
class ic
just ic
rolog ic
past eur
thro b
awn ed
obi otic
opath ology
hib ern
sick le
cand id
phosph at
ny ct
saw ing
drop ping
slip per
agog ic
iber ian
odon ta
educ ation
uber cul
dial y
rograph ic
cloth s
tress es
sus p
cult ure
compl iment
doc tr
lie uten
judic ial
clos ure
hag i
rand om
ocar bon
qual ified
iloqu y
jour ney
cons ist
bread th
tuber cular
harmon ic
rhe umat
pep ton
resc ence
vict or
consum ing
wound ed
Dar win
Rh in
alph ab
Plat y
opro ct
alleg or
atric e
rax is
univers ity
expl os
dul c
dand y
employ ment
marsh al
Bol shev
otyp ical
arith m
obed ient
lung ed
format ive
tranqu ill
propri et
ochro matic
phra se
chest nut
otherapeut ics
beet le
iatric s
gid dy
gover nor
traff ic
shaf ted
spon ge
weap on
noth ing
republ ican
His pan
Aug ust
teet ot
Spr ing
Ich thy
instr ument
A I
A sp
A ry
A mal
B ud
B ah
B ert
B arth
C u
C ec
C lay
E g
E uc
F M
F l
F ro
F ried
G w
G as
H O
H ir
H end
H ans
H ey
J ay
K ent
K end
K enn
L ob
L itt
M am
M ant
M ir
M ann
M ik
M ars
M ech
N ick
P P
P ip
P ass
P ick
P arth
R N
R on
R em
R ox
R oss
R eb
S C
S ur
S ir
S to
S iphon
T ory
V O
V a
V el
V as
V ill
a ig
a emon
b ros
b ale
b uk
b aker
b aked
c z
c io
c ote
c asc
d ive
d ram
d ain
d och
d ru
d itt
d otted
e un
e uth
f ers
f res
f elic
f rill
f rut
f ocal
g edness
g eless
g rous
g ift
g reek
h ig
h ak
h ating
h apt
h uge
j us
j ang
j ah
j ets
j elly
k ies
k ang
k ath
k ov
l ian
l oll
m aw
m astic
n ak
n unc
n ettle
p ous
p rig
p air
p aved
p uzzle
r ary
r antly
s ly
s ite
s ley
s elling
s overeign
t ally
t ape
u ates
u osity
v ist
v ier
v eter
v ile
w im
w ander
y es
z as
er otic
in ium
in aceous
on in
on is
on omic
es ite
es cri
an ker
at as
at ous
en vel
al to
al chem
is ser
is ection
ic ted
ar us
ar mac
or able
or iness
or idae
un id
un em
un all
un end
un po
un ty
un inc
un part
un ters
un mut
un inv
it ar
it um
it ness
it ations
it ableness
el id
el man
el imin
ro on
ro matic
ro scope
re a
re comp
re miss
re bell
le as
le ver
le ase
st roph
st ear
ch s
us an
il able
il aginous
ol led
ph yr
ph eric
ph aen
ess ay
ess ive
om ination
om achy
id aceae
ac les
ul er
ul ian
ur ers
ur ated
th is
ab ness
ab sur
ab ove
ab brevi
em al
em eter
os omal
os ulph
ot or
ot ate
ad el
ad as
ad ine
og ical
og ged
um ental
ist on
ri ers
ter a
ter ritorial
iv istic
im id
im man
oc ul
oc to
oc cur
oc last
od ing
od ies
od ox
per turb
ig in
non ir
non jur
ver d
ver nal
ver ruc
qu ette
qu ench
ap ic
ap sul
ant ec
ant ie
su ited
sh iv
sh ah
sh rim
sh aded
ical ist
lo a
ip a
if l
if id
con sec
con grat
con found
est a
est y
co arse
ell ary
sp ore
pro w
pro long
pro pit
and ria
and rian
ex er
ex hal
ep och
ast roph
ine an
ine bri
over pl
ib us
pl aint
se ph
se as
se em
ob ium
ob sequ
ob tus
ob ranchiata
he b
he en
tr ud
tr ink
all ess
ard ia
de ar
pr ising
ect al
ect asis
av ille
man cip
cl ang
cl ude
cl uded
oph istic
ug os
com pt
ind etermin
ang ul
sub urban
sub sist
bo ule
dis cre
dis sip
fl ed
fl ock
fl utter
be es
be ing
ath olic
out sh
ub in
int a
ass in
ass em
ass ail
ass umpt
ier ed
inter pol
tra sh
tra chel
par athy
ach is
ach us
to ise
we aring
ge es
ge om
ran cy
mat ize
mat ron
gl ory
ho u
red iv
red ef
red empt
met rically
ith s
car ic
ev a
ha ft
pol len
pol lut
di op
sl it
so vi
pe er
rom ed
rat ively
ov is
ov ing
min es
bar gain
ret urn
let ing
let tered
br um
az ed
her y
sk etch
mer e
mar ine
mar king
ich lor
orn er
anth es
uns on
uns ed
uns anct
unc ed
Ch im
old en
An gel
me w
ong o
med i
med ull
inc k
inc ip
gen esis
hyd rated
gr ud
och ord
ik ing
ik ins
sn ail
py roph
py rid
ther ium
sw ar
sw iv
sw amp
cent ro
tur key
aff ected
go al
sal s
ix ing
eth s
dem ur
dem ean
iss ance
amb ass
hand y
pres c
cap on
cap ular
fish er
reg al
reg iment
cat ap
sch ed
sch ism
rec ru
den ed
kn uckle
syn ton
val v
bal ne
bal ance
bal loon
form id
Ar g
vent urous
pat ric
sm ell
sm ile
elect rod
unn a
ref resh
cra sh
aur ian
squ at
dep ut
port s
ps amm
war n
hum ble
mult in
vers ed
mac er
top s
oscop ist
oscop ies
ext ir
eb ulli
lect ion
def ect
emb oss
pot s
cre w
cre ed
hydro chlor
spir ed
mus cular
na use
far mer
zz a
exc us
omorph y
omorph ae
no ok
oper icard
rod den
pers ist
bas alt
tel ev
tor ped
sup p
dri b
kin etic
amph ip
sim plic
mill ion
mit s
rust ed
ded ic
dip lo
acet ate
organ ized
whe els
rim med
In ter
bill s
van ad
esc ing
gn at
rock et
bod ing
bod ies
vir t
orr he
prod uction
fol ks
blood y
cot yled
fin ish
fin anc
pil ed
pil ot
pil grim
arter ial
jack s
lit urg
free ze
ero ot
fre ak
va ult
cell ul
rolog ically
tract ion
awn ing
chol ed
gress ive
agu er
appro xim
iling ual
alt ies
hair y
hip ped
script ural
try pan
rain bow
ocer as
glut ton
conn ected
fort une
disc uss
cost al
hep ta
onym y
aj a
god dess
fluor ide
dil ig
semip ro
hold ers
gang li
neu rot
sex ual
alb umen
seed s
rhy me
tum ult
appe al
Ros en
person al
grow th
nom inal
pup py
ocent esis
gig ant
jac ent
Pol ym
tick et
carn iv
meas uring
ocar b
pref ect
melan chol
dress ing
pall ad
stead y
fro zen
phyll ous
bud get
wre athed
rul ing
max ill
epit om
electric ity
melod ra
rapt ure
Rh iz
timber ed
ocard i
spread ing
igraph y
ahed ral
satis fied
vern acular
runn er
absor b
link ed
dend ro
orac ic
fant as
ectom ized
anil ine
recip ro
agnet ism
expans ion
duod en
embro idered
fi end
sne ak
narc ot
alve olar
Ca es
soph istic
mem orial
cous in
evolution ary
pett ico
authent ic
Gym n
veh icle
pyl or
matri mon
encycl oped
intest inal
horiz ont
munic ip
okines is
pho enic
scint ill
effer ves
sphyg m
Cry pto
mini atur
prosely t
ocrystall ine
asphy x
sacer dot
A U
A es
A lo
A gu
A cro
B ag
B ill
B all
B ull
B oh
B ened
C ran
C yr
D oc
D ob
D eb
E P
E T
E ud
F ri
G M
G ol
G om
G am
G av
G ust
G lad
G reek
K ab
K az
K irk
L M
L it
L ie
L ys
M ish
M iddle
O liv
P it
P ep
P all
P ach
P ros
P lan
R y
R ib
R ow
R av
R ey
S ec
S ass
S cy
S ans
S pi
S wed
S cler
T ag
T ele
V es
V is
W ah
a ught
b ann
b itt
b unch
c ep
c able
c ose
c ree
c zar
c affe
d av
d ition
d ump
d asy
f ain
f rol
f enn
f rown
f rang
f ighter
g at
g ros
g ily
g aff
g eld
g aster
g ets
g iven
h uck
h ope
i ences
i ya
j it
j ut
j az
j ong
k im
k ap
k ay
k ily
l iss
l ase
l itt
m uss
m orning
m elior
n ers
n ae
n ox
o ag
o ught
p und
p ak
p ind
p iness
p inc
p uck
p ogon
p uzz
p addle
p anthe
s ant
s uns
s unk
t and
t ill
t weed
t ame
t roll
t ask
u ist
u ke
u plic
v and
v ies
v ina
w ow
w add
w ench
w asp
w rack
y ok
z u
z or
z ib
z ite
z iest
er as
er em
er ia
in eness
in hal
in izing
in hum
in ette
in jur
in habit
on id
on de
on ucle
on cus
es on
es ic
an id
an con
at rophia
al ong
al ms
is ive
ic id
ic ent
ic ult
ic ule
ar ous
ar mon
or ine
or hy
or ne
or ific
un es
un ing
un exp
it re
it ur
it eness
it ize
it ute
el en
el ate
re h
re un
re el
re hab
re cover
re quis
le i
le pro
le ton
st ult
st anch
ch um
ch aw
ch ok
ch ias
ch atter
ch ival
ch inned
us ions
ol ation
ol ler
ph i
ph oc
ph oid
om est
om ial
om erous
om uscular
ac ri
ac ism
ul ia
as in
as car
as cope
as certain
th ia
th etically
th ief
em iss
em ias
os i
am ia
am ped
am ines
ot to
ot ric
ad on
ad ol
ad ial
ut op
ut ive
ut ric
ut tered
og ic
og one
um an
ri me
ri ving
ri zed
op ac
ter ers
iv ating
ag inal
iz abeth
od ous
od ist
per tin
per plex
ig ator
non sup
ver y
qu indec
ap l
ap at
ap ot
ant ile
ir al
sh ab
sh red
sh ots
sh aken
lo ut
lo op
lo be
lo ved
lo ads
lo ading
if ug
if uge
con str
co o
co qu
co her
co inc
co ugh
co vet
ell id
ell os
ell ular
ell iform
sp ent
sp ill
sp ind
sp inning
pro bos
ex eg
ex tingu
ep y
ep ine
ep ib
und ed
ast hen
pre vis
pre conf
pre ponder
ud in
ib eral
pl ated
ill ions
se af
ob en
ob liqu
tr unc
ak h
ard i
ard y
ard ly
sc ree
sc ore
sc ald
de fe
de ject
de aling
de grad
de hydrogen
man ly
yl ind
yl amine
ff e
end ent
end ow
ay ers
cl itor
ug ly
bl a
bl end
bl ier
bl iest
bl ink
bl ike
com plac
com fort
ost ent
ost osis
ost emon
ost yle
ind el
ang ing
ang lic
sub ordin
bo ast
bo ugh
bo ught
bo iled
dis pleas
fl op
be witch
art ist
ub s
int ram
cy r
mon gol
inter ior
tra umat
ta u
sy r
sel ess
mo oth
mo idal
ary ten
to ast
we aving
ber n
ber ing
ran ces
mat ern
act ively
red el
red ep
red uct
red uction
rop ism
cor oll
cor rod
eg a
eg er
col lo
car box
pt ive
di ather
sl at
pe w
wh in
wh ist
rat us
bar ge
ox yt
ox ime
ret s
ret y
br istle
her m
sk ept
of rontal
ey eb
ger m
ty pes
mic rot
gu ide
ann ul
ich s
orn ed
fer vent
tw ink
ser ved
fe el
fe ast
ash ip
str en
aut od
uns atis
ile e
ung ent
An ast
An te
me eting
ater ally
ign s
ign er
coun ten
med iat
ik h
post s
inn ers
rit es
do odle
ble ach
pos itive
sw in
sw ash
ster cor
cent en
cur t
hem ian
des ic
rel s
pseud ot
por k
ren n
ren ov
the osoph
ven en
go es
go of
rot t
zo an
enn ate
pet s
pet rol
pet iol
eth ical
eth moid
Al c
dem ip
iss ing
ele br
cont em
pres ident
omet ab
ou k
cap tain
fish ing
sol v
sol iloqu
ari as
ari aceous
ari etal
ull a
rh exis
cat s
eli qu
sch olar
har p
har ness
syn cop
syn dic
bal m
vol um
vol ley
ward ness
ca uc
pat hy
sm itten
ient s
ref riger
pred ist
pred etermin
pri zed
uff y
dep lor
hum ored
hum bug
dom ic
pra ec
oy a
hol y
vers ive
cle ist
cle ver
dy ing
yg raph
ext ro
cri p
read er
lect omy
bes p
sec und
emb os
tet ram
she er
unk ing
unk ind
Mar gar
vit re
wind ed
St ock
osph aer
na ught
uncon tra
rod ont
enter itis
eff emin
occ i
blo oming
exp ir
hard y
unre ver
heter o
tar n
fil th
fil ament
radi ation
aud ate
mill i
rad ical
aden oma
wa fer
lat in
bell s
bell iger
rub ric
rust ic
yr ate
sor b
sac rif
dip loc
hel met
lab yrinth
rap id
ital ian
pass ing
idi ot
jud g
jud ge
jud ged
tre ated
esc ed
point ing
hex a
anthrop ic
det ach
bac ill
eu ropean
ophag ist
udd led
rab ble
omn iv
fin ch
field s
phys ical
lad der
put ty
prof ic
nut s
sho oting
hist or
play er
dig ital
ophy re
En d
fly ing
law n
sph ere
round ed
plac ement
cyst ic
mann ed
cho ke
ocrat ically
cephal ous
Con st
enth ron
fle et
rix es
pret t
dic ty
fall ing
Col umb
scar ce
leaf ed
sick ness
sept em
hur ry
with er
abol ism
fluor id
blind ness
ophys iology
som ely
utter ing
ifer ously
bank rupt
mam mal
fair y
ien ne
stro bil
conv ict
mart yr
pay ing
guard ed
trop ical
claim ing
ilit ar
const itutional
string ed
meas ured
mix ed
hap py
tele phon
uph e
pect in
stud y
calc ane
possess ed
hang ing
roman ce
fro th
phag ous
care ous
know ing
vine gar
electr onic
ethyl ene
carp ous
rul ed
cere bral
pir it
Sy ro
sod den
fel on
gym nos
exter ior
polym orph
hors ep
assoc iation
fract ion
opro te
exper t
chro matic
throw ing
articul ation
exist ent
somn ambul
stret ch
orb icular
pict orial
fen est
russ et
barrel ed
stalk ed
vass al
scro ful
ophob ic
otax y
spr ung
otherapeut ic
volat il
enthus iast
piec es
okin etic
leth arg
apoph ysis
knowled ge
mead ow
endoth eli
cosmopol itan
bachel or
centrif ug
affor est
oparal ysis
choled och
A N
A f
A re
A il
A my
A mor
B il
B od
B ard
B ath
B ass
B enn
B eck
C res
C ole
C ze
C lad
D R
D id
D ion
D um
D ub
D enn
D ani
E ch
E li
F F
F L
F ed
F ir
G B
G P
G el
G ob
G ru
H ab
H ep
H ud
H oll
I O
I v
I z
J od
K ay
K ass
K ok
K hal
K arl
L iv
L ond
M i
M ang
M arch
M aj
N D
N an
N am
N um
O st
O ce
P i
P ag
P ay
P res
P ark
P arn
R B
R ec
R ex
R och
R hynch
S M
S ag
S ard
S car
S pe
S che
S atur
T T
T V
T r
T ac
T em
T ak
T up
U C
V ic
V inc
V ern
W es
W is
W ak
W illi
Y o
b ous
b age
b ram
b ibl
c s
c ron
c oss
c aster
c ule
c nid
d ated
d ick
d ement
d ele
d uk
d anger
d azz
e bon
e jac
f ess
f od
f ate
f red
f izz
f rench
g iv
g ant
g ies
g out
g ub
g ush
h olog
h enic
h inder
i atively
j os
j ow
j av
j ok
j ett
k ul
k ale
k iller
l us
l ens
l aut
l eless
m ik
m uk
m uzz
n un
n au
n ostic
o or
p n
p ne
p sel
p ust
r ers
r ingly
r iss
r ising
s ale
s aur
s awn
s boro
s unny
t oph
t ik
t enn
t amp
t ilt
t une
u et
u ram
u ve
v ary
v ou
v ouch
w ap
w ich
w aff
w ield
w anton
y x
y our
y cle
z in
Ġ in
Ġ like
Ġ It
Ġ vehicle
er rant
er ror
in x
in ver
in ert
on yl
on idae
es man
an od
an athemat
at ary
at rophy
en ism
en com
en ingly
al tar
ic om
or on
or ot
or ce
or ah
or chi
or dered
un y
un ia
un over
un ta
un aw
un ho
un met
un ins
un pe
un bar
un bra
un hal
un inf
un mod
un spec
un class
un just
un resist
un brut
it ates
it ress
it atively
el ist
el ation
el ated
el iest
ro be
ro ct
ro ach
ro gu
re pos
re commend
le ur
le ague
st ron
st rag
st ilt
ch oc
us pid
il ical
ra ins
ra ught
ol ian
ol la
et ia
et ism
et hy
ess or
om axillary
id ical
ion idae
ac at
ac led
ac ule
ul ac
ul mon
as ch
as ha
as cal
ur esis
ur tic
th ie
th ren
th ouse
th rice
ab ad
ab ort
ab rid
ab omin
ent on
em us
em ically
em bark
os mic
os ilicate
am at
am ps
ot oc
ad in
ad ers
ad hes
og er
um bra
um bon
ist or
ist ered
ri ate
ec es
ec um
ec ond
op ine
op ium
op ros
op posit
iv ered
im pal
im plement
oc e
oc tor
ag ron
iz ement
per eg
per cent
ig on
ig non
non conf
non cred
ver sal
ap py
ap sid
ant ith
ant isc
ir is
ir ish
ir rh
ir rational
su pre
sh aking
sh elled
sh anked
lo ur
lo aded
ip t
ip el
ip os
if iability
con qu
con sequ
con solid
co z
co op
co ven
co urage
ell or
sp ond
sp ons
sp ruc
pro cre
pro ced
pro bri
pro tract
pro mul
and ard
and ibular
ex ed
ex communic
ian ite
ian na
ism a
und iff
ast a
ast ich
ast ring
ast henia
pre cent
pre val
ish ably
over l
over ab
hy et
hy lo
hy por
ib o
pl aster
pl agu
ill ike
se ign
uc an
uc ing
ae um
ob t
ob ey
ob tain
he ating
he ight
tr uss
all is
ak an
ak ia
ard on
sc ant
sc rat
sc ept
sc aff
sc ull
sc ream
ial ities
ial ised
ial ising
de fl
de vit
de aler
de odor
pr ong
ect ing
av o
av ar
man like
man ager
yl ite
ff s
cl uding
oph er
oph ily
for amin
for nic
for cement
ug o
ug her
ug gest
bl am
bl ubber
bl adder
com er
ry man
ry ville
ind s
ang ia
bo ar
bo ks
olog ian
dis bur
dis gu
dis gust
dis illusion
te ur
fl ab
fl oss
be ho
be gu
ie h
up bra
ath s
art a
art y
out fl
out sw
ub t
ub ic
int ri
ass um
ick et
ator iness
inter cal
inter cess
tra ined
ful fill
par ish
par amet
par chment
mis ed
mis ch
sel s
ach ian
mo x
mo unted
aw an
ary ship
we ars
res up
res ident
ric in
gl ess
ho id
sem an
sem ia
super st
super vis
cor s
cor ne
car rier
car riage
ure ted
ha ut
po ik
po uch
po lem
wo ve
well ed
sl ab
sl ot
sl and
wh ig
wh iff
ise e
bar a
ret riev
her maph
ger ed
bur glar
ped al
ling er
ax e
ann in
ied ly
mar e
dec as
dec ap
asi atic
head ing
ple i
aut och
uns ign
unc ul
unc iv
unc lo
unc red
unc ular
ile ment
ung ar
Ch in
An dre
me zz
ogen ies
ign y
med ioc
inc ter
inc and
men str
gr id
rit ch
rit ical
do om
py el
ther i
ther n
ther mot
son ant
son ite
cur ly
hem er
che ese
tur g
tur tle
att or
att ack
the ater
bre v
bre ach
bro th
roph ile
pet aled
ix ation
Al b
dem agnet
ele af
cont um
cont empt
pres pec
ify ingly
lin en
cul min
cap ill
cap ric
ail er
ari ant
poly gon
poly gam
rh et
off er
ank y
rep ent
rep ort
ste ward
den se
kn otted
inf est
les hip
syn thes
val er
val or
can vas
bal s
vol unt
trans mig
unf ur
ole y
form ity
Ar m
Ar n
pat ent
pat ched
sm el
by r
comm itt
but cher
phot op
pur pur
squ el
squ ire
ern s
port ent
war med
war ming
dom estic
mes os
mel s
rum p
yll ous
add ling
pra y
la unch
equ is
del ight
bit umin
way ed
pen ic
sur vey
cle ans
gre ase
clo ver
ek s
pot ential
spl inter
she ad
dist ill
dist ort
ris on
vit ell
wind s
wind y
bu y
gro om
far ing
phil op
oper ative
eff lu
ball er
prec ip
light ing
cos met
sym bi
pic tur
tem pl
bat ter
band er
aud itor
mot ion
rad ial
imp ec
dog mat
dog ger
anal ytic
ded uct
ench ant
chlor ophyll
acet one
quad ris
bet ween
whe eler
loc omot
urn al
ophor ia
phy te
ras ia
hex ap
otrop ous
prov oc
iod o
gast rop
fa un
fol ly
fol low
ode a
mist rust
rab bin
cr ink
cr unch
iment s
oder mal
bil ly
fib ered
mas k
play ed
meg as
gly ph
gly pt
gly cos
horn s
dim er
aver n
dig ress
usc ult
lav a
law yer
vul ner
lay s
fast ness
emp lo
cas es
je alous
ucle ate
osp ec
osp ong
suff icient
stock ing
antip ar
actyl ous
uter ine
bot ry
hypo thes
past oral
iro stral
tab ular
olith iasis
buck et
sman ship
obi osis
tox in
bron chi
script ive
bus iness
nor theast
fri ed
ocer vical
glut in
gri ef
trich in
aps ular
saw ed
pled ge
aco ustic
oxid ation
enz a
uncom pl
dest roy
unl ust
ogon ium
AC S
prer ec
neu ros
anat omic
ophys ical
ozo on
ozo an
ozo oid
pleas ing
rupt ion
fam il
fav ored
tress ed
bid den
ether e
leuc ocyt
Mac ro
ipar ity
diff ract
pac ific
hier arch
techn ical
sight edness
junct ive
gard e
iloqu ent
bum ble
rophy te
resol v
haz el
direct ed
valu ing
valu ation
apost roph
gastro enter
mob il
otom ous
electr ical
tut or
patri ot
hat ted
Nor man
fix ed
infer ior
sect ional
scap ular
thread ed
pend icular
aust ral
epist ol
plag ue
rhin ocer
nig gard
eryth rin
dipl omat
myst ic
hound s
Sab bat
atric es
colour ed
orig inal
oglo bul
plas mod
odi agnosis
ront gen
spac ed
Sil ver
quart z
bless ed
ochrom ic
compass ion
Eu ropean
Ital o
product ive
wrap ped
control led
instruct ion
Ple uro
speck le
ropter yg
caut er
vacc in
scient ific
convent ional
othec al
tranqu il
princip led
sciss or
emas cul
maint ain
frequ ency
glaz ed
Act in
goss ip
epil og
laur el
zig z
fec und
burden ed
accust om
conson ant
nab ob
oscler osis
hammed an
shepher d
hend ec
souther n
lamy de
Pyth ag
pecul iar
ocarcin oma
sull en
illeg itim
ocycl ic
kitch en
rhyn ch
bureauc rat
A L
A mo
A ram
B i
B ess
B om
B ran
B ush
B att
B ru
B elle
B urg
C ic
C ra
C est
C uc
C ost
C ann
D a
D ag
D ay
D ou
E b
E c
E up
E ust
F our
F ord
G I
G O
G ay
G rat
G org
H ut
H ec
H ex
H ier
H eg
H omer
H ymen
I M
I b
I x
I th
I sh
I ber
J a
K it
K oh
L il
L ec
L ov
L az
L inn
L eb
M ut
M ap
M ack
M ull
N el
N ev
N ich
N ash
N icol
O m
O re
P re
P ac
R i
R es
R ick
R uth
R oz
R aj
S on
S ic
S ant
S col
S ym
S ou
S phen
S cript
S imon
T R
T ad
T op
T ir
T ry
T ric
T yn
T enn
T yr
U I
U P
W ind
W yn
X iph
Z er
Z an
Z ar
a it
a emic
a esth
a uscult
b ost
b acc
b oll
c aff
c ue
c iform
d l
d ut
d ud
d ill
d ang
d ren
d oss
d unn
d ura
d izz
d rear
e h
e ed
e art
e aster
f rom
f att
f iction
g ism
g ive
g ins
g uns
g ates
g ane
g ings
g emin
h ec
h over
h ans
i u
i atic
j em
j ad
j est
j ured
j azz
j apan
k ept
k hed
l ind
l are
m m
m ae
m ated
m ure
m age
m ugg
m ember
n iv
n ant
n ast
n az
n omen
o ism
p out
p ace
p ence
p unn
r ens
r ily
r icalness
s ia
s est
s end
s art
s mar
s acc
s lob
s uscept
t ia
t ite
t ost
t abl
t inn
t asting
u ar
u be
u rot
v on
v ant
v ian
v ial
v ens
v ious
v ised
v omit
w at
w hy
w ite
w au
w rig
w agg
w illed
w hoop
y as
y ow
y ards
z im
Ġ is
Ġ car
in el
in ally
in aceae
in hab
on ion
on av
on ization
on na
an an
an ate
an ine
at izing
en h
en in
en cer
en burg
en igmat
al ion
al ley
al istically
al tic
is ance
is ochron
ic ine
ic ting
ar os
or l
or id
or ius
un us
un off
un char
un hom
un rid
un lab
un human
un author
un trust
it ite
it ization
el ion
el ey
el cosis
el ucid
ro o
ro u
ro dis
ro omed
re ev
re ted
re but
re gress
re aching
re compens
re hear
le er
le is
le ak
st aph
st uck
st atic
st ucco
ch iff
ch uk
ch anal
ch ool
ch rism
us ser
il us
il ator
il io
il ateral
ra ined
ol le
ol ism
ol aryng
ph ol
ph lor
ph oria
ess ing
om im
om ically
om idae
id ers
id yll
ion t
ac al
ac up
ac umin
as ka
ur ge
th ig
th rum
th rown
ab ar
ab us
ab ric
ab elle
ab outs
ent i
ent ary
em ate
em end
em blaz
os ch
os ine
os ier
os ym
os chisis
ot i
ot is
ot id
ot yl
ad ro
ut eness
ut ional
ut ral
og ging
um ped
ri ke
ri bon
ri ved
op ur
op idae
op ore
op sid
op ening
iv o
im i
im age
im ping
im ps
im mor
im prec
im prison
oc ton
oc ene
ag ne
ag ium
ag ru
ag glomer
od ical
od rome
per ib
per ies
per ce
per miss
per spic
non un
non ent
non for
non cur
non termin
non determin
qu el
qu ely
qu ets
ap ath
ap oth
ap lan
ant ation
ir ic
ir ate
ir ref
sh ill
sh ank
sh atter
sh amm
lo up
lo of
lo af
lo fty
ip l
if iably
if iableness
con jur
con gest
con gru
co ats
co oked
ell en
ell ips
sp are
sp right
pro x
pro tr
pro gen
pro pos
pro cra
pro ved
ex al
ex oc
ex post
ex port
ex hum
ex clus
ex hilar
ian e
und s
und il
und ece
ast ra
ast ragal
ine er
pre ins
pre comp
over w
over st
hy ph
pl os
pl under
pl uvi
ill os
se ar
uc u
ob es
ob at
he bet
tr encher
sc ru
ial ise
de bil
ow a
ce al
ce eding
av id
av ant
av ia
yl ated
yl li
cl on
cl iqu
oph leb
for ew
ug s
ug er
bl astic
com mis
ind ing
ind iffer
ang io
bo le
dis quis
dis quiet
dis cern
te bral
fl ot
fl ut
fl agg
be k
be ech
ath an
ub ert
int ox
int emper
ack le
ator ia
ator ian
mon ost
mon ster
inter pre
tra chy
ens ory
ta vern
par ro
par all
ment ation
mo ose
mo uch
mo ved
ron d
ron ch
to ot
to urn
ge us
ge ared
res em
res yn
res usc
mat ril
gl au
act yle
act yly
cor ym
cor ded
met s
ins an
eg on
col t
car bo
ha ught
po ul
sl ander
sl iding
der y
so iled
wh en
wh ack
ram e
rom al
rat ern
oth y
min er
min isc
bar row
ym al
ym ic
ret ali
br itish
her bar
her ald
sk ate
sk yl
sk unk
mer cer
mer chand
arch es
bra d
mic ron
mic rophot
ped ant
cop ro
gu ill
gu ild
gu ided
ax ing
mar vel
mar sup
mar gin
orn amental
tw ine
dec al
dec ont
dec lin
dec entral
fe eling
fe ature
led om
ple ur
str ung
ve hem
uns in
unc re
unc ulus
Ch el
Ch arl
ker n
cal m
cal um
omy ces
coun ting
inc red
inc rimin
gen ous
hyd ron
hyd rom
gr ist
och er
och es
sn or
sn ipe
ont ine
ane an
do z
do od
py th
ther ed
sw el
sw ag
ster nal
son ian
mal ic
mal ap
bed s
bed lam
hem p
hem orrh
des per
des cens
des ulphur
our ce
anc ement
tur bo
tur ban
tur bid
aff lu
por cel
the art
the ologic
unt im
ven ing
bre athe
pal s
pal is
wood ed
rot al
zo oid
enn ia
sal low
pet ros
yt ically
dem ic
dem ig
dem oral
enc ia
ord inated
ord ained
iss ant
orph y
ft s
hand le
ou rous
ual ist
ari at
rag es
rh ine
cat aly
cat ching
rep ut
rep ud
rep ugn
sch er
acc ru
ring ton
den it
den ud
inf at
inf lex
sul fo
val ve
can vass
bal an
trans form
trans gress
form ul
Ar k
Ar t
vent ral
last ing
sm ir
elect ed
ee k
pred el
aur i
phot omic
pur pose
squ al
squ ab
squ ad
anti phon
ett os
ett led
dom est
mes oth
ere al
mult it
rest rict
proof ing
la und
uch i
ze alous
tim ed
sur v
icul i
hous ew
rem itt
uk s
fac ult
oscop es
oscop ical
chi ro
ext ended
lect ic
def init
aer on
ili us
spl ay
spl itting
sid ered
cin er
ert own
ject ive
ris es
wind owed
Sh akespe
amin ate
lar g
lar cen
St ro
div ision
scri ber
prot ection
omorph osis
fur row
no ught
pers ian
da emon
eff ort
erg at
odont ic
log ical
tro ugh
board ing
sup ple
sup plic
tar get
El k
El l
fil tr
conc ession
bul k
sim ilar
emat ically
rac es
dog s
sing ular
extra d
las is
oe uv
cock ney
bow s
bow dler
lam ell
ba um
dev ast
dev oted
cond yl
quad ril
ban ker
apt ist
loc ated
ident ate
ophor an
pass age
jud gment
opod an
opod ia
key ed
circum spect
resp ir
det ox
Th es
Th ur
Th orn
ios o
ophag a
omer ism
spect rophot
eman ship
phys ician
omb s
ament s
cr ud
look er
lad ies
put ter
ubl eness
suc cor
sho oter
free zing
hist ori
En g
unm ort
ogenic ity
tin ker
vo ice
ynam ic
sph ac
prop elled
va unt
dia zo
dia phan
mast ig
cover ing
aqu a
cephal y
fron tal
vag inal
gall ant
aly pt
stick s
six th
coc ain
fle ec
blow er
uv ian
chron ic
open ia
gest icul
cit ron
sar cos
sap ph
aus pic
neph el
unper son
asp is
conn ex
spin ster
kee pers
hur t
abol ition
anes thet
step ped
nic ot
fold s
scop ic
nec roph
enz yme
eph emer
hold s
ogon ous
prer em
chal c
chal az
good y
ophys ics
iant ness
fam ed
rack s
ospor ic
cac od
angle ment
Ste in
itter ing
oec ious
rud der
rud dy
produc ed
olat rous
wig ged
oge ographical
doc trin
eps ia
wick ed
wil der
ilic ic
kil n
paras itic
sco ff
pract ical
pract iced
oster ior
orship s
adv ised
real m
object ion
dor so
ody ne
weight s
pist ol
west ward
itud inous
phag ocyt
pinn ate
consc ient
posit ively
electr on
electr ically
exec ution
patri arch
pest il
rever ber
resist ing
anter ior
rogen ic
cogn iz
pher ical
hipp oc
osm otic
cool ed
cic er
bene f
invol uc
milit ary
fellow ship
nur se
tha um
indig o
acco ut
Gall ic
wag gon
append ic
Phy s
stret ched
desp ond
ympan ic
syl van
anil ide
tour ist
inspir ed
bree ze
kit ten
cou pled
ende av
glac ial
acad emic
ogyn ous
supr al
omycet ous
belie ving
stam ped
neigh bour
appoint ment
Fred er
strum ental
oxyl on
lach rym
bism uth
camph or
depart mental
Brah man
shap en
ellip tic
Ori ental
treat ment
ostra ca
ofib roma
schol astic
otherap ist
otherap ies
Gab ri
remon str
sno oz
penc il
trunk ed
Rus so
garn ish
transcend ental
cly pe
phantas mag
rache al
kelet on
chos en
indoc tr
omyc ete
cathed ral
enchy matous
pess im
gip sy
zir con
unsus pect
oplank ton
anec dot
absin th
blas phem
eun uch
sovi et
hermaph rod
ribon ucle
' re
A G
A O
A bra
B W
B ad
B ang
B rom
B ord
B yr
B ala
C et
C um
C art
C ym
C ler
D L
D re
D ib
D ick
D ix
D asy
E L
E R
E ar
E ul
E pic
F D
F ox
G an
G em
G ad
G ig
G lo
G ill
G ram
G ale
G ren
H L
H i
H at
H od
H ok
H ann
H orn
J av
J ord
L us
L as
L og
L od
L oph
L ub
L eg
L ister
M R
M og
M ae
M inn
M att
M agn
M oll
M ira
M oz
N in
N as
N im
O sc
O ry
P ir
P ine
P lut
R ing
R ev
R oth
R ose
R af
S N
S oc
S ie
S ah
S af
S ik
S tur
S pen
S ek
S axon
T ut
T ig
T ang
T rev
V it
V and
V aler
a um
a inted
a esthesia
b ally
b au
b inder
b ambo
b airn
c ion
c ay
c ith
c age
c rom
c unn
c add
c ade
c aco
d ap
d one
d ott
d uch
f d
f th
f tw
f ail
f awn
f ighting
g it
g ep
g ated
g ass
g ira
g otten
h ac
h ick
h ust
h ene
i ors
i ola
j el
j ul
j act
k od
k ip
k ingly
k ash
k idd
k ettle
l al
l ah
l ans
l orn
l anth
l ame
l aryn
l uster
m eli
m ime
n ian
n ock
n ou
p ax
p ily
p att
p uss
p uk
p astic
r ity
r ung
r unk
s out
s ier
s age
t ous
t ec
t sk
t unic
t asted
t aste
u as
u ver
u ism
u ator
u ela
u plicate
v ect
v ort
v ain
v illa
w og
w af
w allow
y ers
z al
z em
z os
er d
in is
in ish
in ce
in ve
in formed
in formal
es car
es omeness
an ad
an ies
at z
at en
at ized
at ile
at ics
en ar
en ist
en cl
en ium
en thes
en berg
en compass
al ar
ed a
ed ema
is ost
is ively
is son
ic in
ar sal
ar oo
or ie
or ge
un z
un ian
un to
un ger
un bur
un hand
un reg
un lim
un harmon
it os
it ist
it ine
it ides
it rix
el ater
re et
re man
re fl
re por
re plic
re concili
le ap
le ep
le can
le vit
st od
st enc
st aped
st ove
ch ite
ch all
ch ay
ch ou
ch ili
ch urn
us i
us ic
us ae
us pic
il ium
il ight
ra se
ra ys
ra zz
ol ist
ol ium
ol fact
ph ial
ph eas
ess er
om inal
id one
id io
ac ous
ac ine
ac ula
ac rost
ac clim
ul ing
ul se
ul osity
as ht
ur u
th aw
th ings
ab y
ab neg
ent es
em ed
em aster
em outh
os hes
am iliar
am elior
ot ro
ot ra
ot ical
ot ta
ot ron
ot rip
ot omic
ot onia
ad equ
og onic
ri ped
ec ious
op lat
op pil
op lan
op arietal
ter e
ter g
iv able
im itation
oc le
oc aine
ag ian
ag ency
ag itation
od ically
od eg
per spir
per spect
per mous
per secut
ig able
ig matic
ig inous
non dep
non mut
ver ts
qu od
qu ip
qu ix
qu illa
ap ophysial
ant ship
ant eced
ia vell
su its
su stent
sh an
sh av
sh ops
sh ower
ip es
ip ara
if ed
con ting
con val
est ive
est ruct
co uth
ell ess
ell ous
sp rig
sp ars
pro ach
pro ven
pro sper
pro xim
and r
and um
ex ult
ex cer
ex pat
ex alt
ex plain
ep im
ep au
ep ich
ep ress
ism atic
und ig
pre mon
pre judic
ish ableness
ib el
pl us
ill ine
ill iter
se es
se aw
se aled
ob vi
ob fusc
he ard
tr und
all op
ak able
ard er
sc ious
sc ene
sc rum
sc abb
de k
pr at
pr ore
pr iced
ne an
ne gro
av y
av ent
av ior
man um
yl ating
end i
end ale
cl iv
for en
for el
ug es
bl at
bl ith
com min
ost re
ind ed
ind us
ind ers
ind irect
ang ling
sub tri
sub ser
sub jug
bo ob
bo urg
dis s
dis un
dis eng
dis soc
dis cord
dis posed
te k
te es
te ch
te ph
fl in
fl ip
fl anked
be v
up tu
ath let
ath artic
ct ic
out e
out ing
out sc
wor e
ass on
mon ogram
mon ochlor
inter l
ens ing
ens nar
ta ic
ta uro
par o
par aly
par ameter
mis cell
mis represent
mis understand
ach lor
ment ioned
mo od
aw ful
ge o
ge od
ok o
ber d
ber ed
one iro
gl ab
gl ide
act ine
super natur
cor es
cor rig
met a
met an
met ers
met ath
ins al
ins ky
col o
col ly
col laps
car ia
car amel
under stood
ev es
ev as
ha ver
pol ite
di at
di as
di oc
di ke
ille gal
po ec
sl aver
pe an
pe at
wh am
wh izz
wh iles
wh isk
wh ims
ton g
ans ville
ram id
rom ous
ov ic
bar bit
ym phal
ros in
let ta
let ree
br un
br itt
az on
her etic
bur ner
bra h
hal e
ty rant
gu inea
ied ness
mar in
fer oc
tw isted
dec ret
dec ker
dec ept
str eng
aut obi
aut onom
unc es
unc an
ting ness
ung ain
An at
An tip
me e
ker chief
ogen ist
cal es
omy oma
inc ogn
gen eth
gen ital
gen ces
hyd r
hyd rot
gr ant
gr unt
gr anger
och or
ik eness
sn apper
ont ane
ane a
ane ph
ane ur
inn ab
do ors
py ros
py rit
ster il
cent ered
cur ve
hem it
hem ipter
des ider
rel uct
rel eas
ush es
che w
tur kish
pseud ov
ren ounc
the a
enn ob
pet ition
yt own
Al ph
Al ber
dem ol
dem ib
dem yth
iss ed
ele e
ele uther
cont ented
pres ign
lin a
omet rist
omet eor
ou rable
ari ate
oman ic
rag s
eli us
ten se
acc a
acc ultur
ict ic
ict ive
ste en
ste alth
har ass
ring er
den ot
kn ick
inf in
inf irm
syn thet
val ence
bal a
ory ct
unf av
ole m
ca ust
ca ustic
Ar d
Ar gent
vent ional
unn atur
ee ing
cra zy
char lat
aur icul
phot osyn
hom o
hom in
hom os
pur vey
squ ash
rid es
dep olar
ett ist
hum our
mes enter
ura e
press ive
dra ch
gar ment
gar land
add uc
add ie
rest or
pra ised
vel ed
la ic
equ in
tim et
way man
pi qu
cir rh
sur geon
icul ous
cle id
hous ed
top az
itch ed
sil ent
fac edly
fac ient
micro spor
gre ens
amp ull
comp end
comp elling
hor mon
orth ogon
bes et
bes prink
def lect
sid edness
cin ch
cre te
tet ras
she athed
unk ed
umb a
vit amin
ified ness
Sh an
Sh aw
unch es
unch ing
ocy anic
pul se
mus e
div ided
far thing
unct ion
prot oc
prot ected
fur fur
oper ating
rod uct
ball ed
cross ed
occ ult
odont id
jo ining
sym pos
ogn osis
phon y
phon ia
phon etic
sum pt
sup ram
sup pos
radi ol
radi os
radi ate
amph is
Ph as
Ph ill
las mic
rub bed
unp unct
sor cer
opt ion
opt ical
pent ad
sac red
sac rament
chlor ide
dip s
acet ophen
bet ray
glo be
rap ping
sulph ure
arg ill
loc ust
loc ution
smo k
cro up
pass er
tre aty
vir ate
chem ist
det ri
det ect
cam is
cam ou
gast ron
ophag ic
ga ins
fol iate
cha per
omn i
omn ip
Mc Cl
lock ing
lit z
ament a
ament e
put ref
sle eve
cu pro
cast e
cast s
oder mia
oder matous
iat ry
lib ert
hist orical
empt ion
new sp
ophy seal
bec om
cel tic
fre ight
best ow
va ulted
dia phrag
plac ental
encephal ous
nar co
mast ed
fast id
amm ine
preh ended
vag ue
test imon
oblast oma
Gu ar
Qu int
tax ed
bot ch
past e
dish armon
Re in
bron t
ateness es
ye h
spirit edness
vas cul
disc ret
disc rep
pick er
pick ed
recon no
ophyll ite
sav ag
viv is
peri odont
osaur idae
Bl ue
neu roph
educ ational
uber cular
ospor a
ospor ium
whip ping
tum ble
rograph er
bank ed
vac ant
vac ill
oec ism
appe aring
nas al
incl in
ulph ate
ulph ide
rach ial
oge ography
fet ish
zyg omatic
lymph angi
grow er
mam mon
mam mill
pup il
diff icult
pay ment
xy lo
myth opo
lob by
Pol yg
tick le
found ed
pract ice
hall ucin
mix ing
Cl ark
flav or
muc ron
offic er
embry onic
pall id
rhe um
roman cy
repro b
cept ive
jer ry
pinn at
fool ish
Phil ipp
bour ne
As sy
uret te
uret ted
dich lor
touch ed
Mic ro
Mic ha
child ren
perit on
gaz e
issu ed
scap ul
sleep y
phren ic
nig ger
cool ing
incom prehens
stal act
ogloss us
slo uch
mum m
rene w
econ omic
typh l
phth alein
igraph ic
crop ped
indul gent
relig ious
Arch ae
button ed
transp os
elig ible
start ing
estim ate
plast y
articul ated
compan ion
puls ion
funct ional
sque ak
extens ion
Jud ae
sympath etic
crit ical
phle bot
establ ished
ropod ous
gos pel
priv ile
ectom izing
strate g
panc re
energ etic
opex ia
bree ch
influ ence
opsych ic
unci atory
control ling
inqu ir
supr an
stad t
canon ical
episcop al
deter ior
laz y
stub born
season ed
contin ental
craw l
decol or
decol our
scrut in
oglyph ic
bloss omed
hospit al
Do ug
roscop y
roscop ic
shri ek
blank et
Dic ty
jub il
omast oid
ultr ar
periph er
egy ptian
hydra ul
agre ement
sou theast
Teut on
baron et
dext ro
contro vers
lil ac
cush ion
acrom ial
lix iv
electroph or
encycl opaed
agglutin in
shag gy
epi ece
Hil de
develop ment
gather ing
protest ant
wrink le
portra y
dimens ional
Fil ip
might y
wr ith
amate ur
curr ence
analyt ical
pruss ian
guil ty
salic yl
ophyce ae
rifer ous
counc il
obj urg
encir cled
infil tr
holid ay
Sabb ath
gorm and
stry chn
mongr el
ugos lav
pereg rin
poik il
otrip sy
A W
A tal
A cha
A don
A fro
B L
B end
B oth
C it
C od
C ov
D V
D ed
D od
D ig
D ard
D aph
D aed
D utch
E h
E re
E ck
F P
F o
F en
F ron
F itz
G C
G es
G os
G and
G ord
G rec
G rim
G allo
G riff
H C
H ug
H ort
H ugh
H elic
I st
I ran
J em
J ag
J ug
J enn
J ean
J ones
J aqu
J apan
K om
K ill
K ho
K ey
L er
L ic
L et
L ig
L ah
L oth
L ee
L oy
L uther
M U
M all
M arian
N L
N il
N ep
N AS
O v
O ut
P eg
P eter
P ris
P rud
P lum
R id
R ous
R iv
R ig
R aw
S ang
S ty
S eb
S ham
S ever
T I
T M
T ul
T ip
T ex
T ow
T rit
T urn
T rent
U T
U ral
V I
V P
W ed
W ay
W ool
Y am
Z el
a ite
a use
a igu
a eti
b k
b ial
b ille
b az
b ival
b icon
b imet
c ah
c uff
c attle
d t
d ex
d well
d row
d ros
d au
d elect
d rup
d lers
d usk
e in
e ous
e per
e osin
f ie
f itt
f add
f uch
f use
f rib
f ogy
f iscal
g is
g ash
g rec
g rem
g eman
h ach
h ok
h att
h ana
h anger
h aven
i rous
i ography
i ately
k az
k irk
l eng
l agg
l uv
l ouse
l ighter
m ian
m ys
m au
m orn
m ung
m ired
n il
n ac
n og
n iz
n ies
n ite
n aw
n ict
p og
p iv
p ae
p so
p ice
p ene
p ash
p ign
p ons
p itt
p ester
p udd
p izz
p amper
r iness
r istic
r ors
r udd
r illa
r illed
s ach
s aut
s che
s ark
s ame
s welling
t od
t ins
t old
t les
t omat
t ory
t atter
t ables
u ations
u ities
u roph
u oden
v og
v age
v ement
v ars
v ote
v ector
v ortic
v ulture
w ale
w old
w ren
w ines
w amp
w rang
w illing
w alt
x ial
y i
y ap
y man
y ah
y awn
z ap
z ee
Ġ it
Ġ how
er og
er ian
er adic
in und
in age
in ogen
in vis
in exp
in vert
in cho
in feud
in carcer
on ad
on ical
on ers
on ine
on ial
on ta
on to
on oid
on ema
es mith
es ophageal
an um
an onym
an aphyl
an aerob
at oc
at to
at ability
at osis
at iously
at iousness
at rab
en is
en us
en ical
en ize
en act
en ville
en counter
en zo
en rich
en oidal
en list
en franch
al us
al pin
al bin
al arm
al tru
ed al
is os
is iveness
is ons
ic ness
ic ers
ar ro
ar et
ar ie
ar ized
ar izing
ar bal
ar oon
or ama
or adi
ing o
ing rat
un o
un ide
un cer
un ser
un bed
un ven
un bi
un kn
un hum
un vis
un imp
un prof
un beg
un suff
un stead
un even
it in
it ator
it ty
it ied
it rate
el ot
el oc
el ium
el ton
el ines
el bow
el atin
el loid
ro e
ro x
re inc
re inv
le ave
st abl
st henia
ch ac
ch ug
ch ock
ch ich
ch af
ch anger
ch inese
us is
il ers
il ative
ra ise
ra ve
ol k
ol an
ol ae
ol ling
ol abial
ol ymer
et ist
et ae
ph ine
om is
om ph
om ite
om mat
om ental
om inate
id yl
id ically
ly c
ion ine
ion ite
ion ists
ac ul
ac os
ac ite
ac ute
ac erv
ac ryl
ul an
as er
as cul
as sever
ur l
ur ize
ur gery
th ed
th ite
th res
th ey
th ene
th ole
th emia
ab str
ab dic
ent ally
em ol
em od
em ics
em onic
em eral
em path
os hed
am it
am ian
am mer
am eral
ot ib
ot eric
ot emporal
ad n
ad is
ad ri
ad op
ad ay
ad ult
ad judic
ut in
ut an
ut ical
ut ting
ut ory
ut ilized
og ran
og ger
og aster
og aean
og aea
ec s
ec ters
ec umen
op ap
op ias
op position
op probri
ter ingly
im ate
im ine
oc co
oc ub
oc lin
oc lad
oc aul
ag os
ag ri
ag reed
iz ened
ation er
per er
per ich
per iss
per jur
per sever
ig ating
ig ue
non e
non ver
non part
non tax
non substant
non depend
non deprec
ver me
ver mil
qu ay
qu ired
qu idd
qu ality
qu antit
ap se
ap prov
ap olis
ant en
ant el
ant as
ant ity
sh rin
sh illing
sh rill
ip lex
if ugal
con g
con oid
con not
con voc
con quer
con cern
est ra
est rang
co er
co ating
co uns
co ordin
co adjut
ell in
ell an
sp ined
sp ew
sp ool
sp raw
pro ble
pro miss
and ed
and ing
ex ia
ex oner
ex asper
ex uality
ex hort
ex purg
ep ul
ep ot
ep sy
ian ne
ers e
ers ey
ast es
ast om
ast rolog
ast igmat
ine y
ine ar
pre all
ish a
over h
over dist
over prov
pl aus
se ek
uc cin
ob it
ob us
ob liter
tr uc
ak ines
sc r
sc roll
sc ience
ial ia
ial istic
de a
de hydro
de bas
de zinc
pr ur
ect ional
ect opia
av oc
man g
man ed
man ism
yl or
yl onian
ke es
end om
end ant
cl ot
cl ient
cl inic
cl apper
cl ubb
cl aust
for ge
for ged
ug l
bl ings
bl uff
com a
com pat
com promis
com miser
ind ian
ind ors
ind uction
ang ry
ang ust
ang ularly
sub mer
sub class
bo og
bo ating
bo oth
bo oz
olog ism
olog ise
olog ised
olog ising
dis gra
dis loc
dis satis
dis integr
dis sert
te eter
te az
fl ust
fl aming
fl annel
ie ae
up ward
ct omy
art on
ub ly
ub ility
ub bed
int rac
wor ry
ass id
cy te
cy ath
cy ano
cy tot
mon y
mon th
mon oton
mon umental
ier a
inter st
inter ven
inter val
inter communic
ful gent
ens ville
ens burg
ens ibly
par aff
mis ing
mis ce
ach iev
ment ion
ide ae
li king
li ked
mo u
mo und
aw ood
ust y
we ig
we ave
ge omet
ge ometric
ge ois
res pl
ber ried
ran ked
ric an
one e
one er
mat ology
gl ingly
gl immer
act us
ho ught
sem iph
sem iac
super intend
cor rug
ock et
met e
met hy
met ron
met allo
met tled
ins ville
ins ign
ins ki
eg ener
col a
car a
car o
car ri
car ap
ev oc
ev ident
pol es
di all
di lett
sl u
sl ant
sl ink
so ught
so aked
pe al
pe bble
fo ils
wh al
ton ville
ally ing
rat ioc
row dy
oth ere
ov aginal
min ed
bar ks
ox ym
ox anth
ret ta
br ine
her it
sk at
sk il
sk et
sk ul
sk irt
of acial
yn ne
tri fl
tri bes
tri bun
arch i
bra sh
bra ced
ty ran
cop roph
ling ton
gu est
ann ie
mar row
mar ker
ich en
ich thys
cer ule
orm y
fer red
fer rug
fer tile
tw ilight
dec uss
dec lass
asi as
ser ies
ser rat
ser vit
fe aring
head er
ple ad
ash ion
str ings
str uth
aut s
ve e
ve iled
uns oc
unc ing
unc ritic
unc lean
ale a
ile an
my o
my co
ung ed
Ch and
Ch ang
An ax
me aly
ogen es
ogen ically
ign omin
cal car
cal cin
cal cit
coun table
med ian
med ium
gen it
gen uf
gen cies
hyd rol
gr ill
ik es
ik ite
sn ig
ont es
ont ology
inn i
inn ies
do er
do le
do ubl
ble ar
py rol
ther ia
sw ind
sw omen
ma ud
ma ff
ler ies
cur b
cur ved
hem atin
des oxy
rel a
rel ic
rel iqu
aph id
che quer
air d
air es
pseud oper
aff er
aff right
ren ot
unt or
unt um
unt rem
bro ught
hyper tens
pal in
pal an
pal mat
pal mit
go u
rot ome
enn ially
pet it
dem is
dem agog
ition er
enc apsul
ord s
amb id
cont ort
cul l
cul es
cul ver
cul ott
cap e
land ish
igh ters
sol ution
ail ment
reg ent
reg ulating
ual s
ari oid
poly prag
ank a
ank le
cat a
rep ell
sch mo
acc idental
work ers
ict s
rec id
har row
bi oc
kn uck
omat idae
syn ov
syn cret
vol ume
unf il
unf ast
unf emin
pa inter
ca ught
vent ed
sm ud
sm ock
sm ash
unn ot
ref ined
cra dle
pred iv
pred omin
aur ate
pri me
squ ib
squ int
dep th
dep red
ational istic
war ned
agn ostic
gar th
gar net
rest rain
proof s
proof ed
pra e
la ver
bel s
bel oved
uch en
bit s
foot er
iff le
pen ed
hyp on
hyp ob
mac ul
mac rog
mac adam
rem ot
rem ia
sil ico
sil ken
fac et
fac edness
micro bi
rin ae
gre w
chi at
amp ut
tran substanti
eb us
gy p
flu vi
bes eem
emb ly
ley ville
conf ab
conf isc
cre ating
burg her
tet rad
she en
unk ers
hydro x
spir ing
dist ur
dist rust
dist emper
oh ex
world ly
Sh ak
bu x
amin ated
unch rist
ts ar
mus ical
St ar
na um
zz y
scri bes
exc ell
unct ional
no umen
atch ed
bas il
tel ety
tel emet
ball ast
other ium
other my
blo b
exp ector
hard t
cos mo
ogn ostic
sum mon
sup plement
heter os
tem ple
fil ed
fil ic
fil ib
kin emat
conc ess
miss ions
gon ad
psych op
psych opath
aden ia
Car ib
Car bon
rif ies
anal ys
wa iting
bell ies
cock s
unp ass
lam ine
sa id
ded uc
pent a
ench ed
ench ond
sac ral
lac un
chlor id
aria e
itor ship
hel m
quad rig
quad rang
organ ism
organ ize
rap ped
ophil us
cro ck
cro ft
cro uch
van qu
cour s
vert ical
hed ra
gn om
plan es
plan ed
rock s
ras es
circum amb
opter idae
anthrop us
ening itis
gast r
ga unt
imper fect
contra st
spec ter
inst itut
hab il
arter itis
lit ter
ament ous
look ed
put ting
sle eved
urg ent
urg ically
suc cul
soc iety
lib r
lib idin
vic er
mas on
horn y
rost omy
fir ing
sat y
sign al
oil ed
sph ing
sph eric
sph incter
arm ace
plac es
encephal ons
ano ic
star red
spe aker
unex press
mast urb
ocephal ism
mann ite
magn ific
tit ill
antim ed
cab in
gall ed
stock s
antip ath
coc on
fle eced
ales cent
mol ly
wash es
ogam ies
Her ac
iro strate
imet rical
struct ure
appro val
appro ved
scar ab
obi ologist
subst itut
neph ew
monger y
mos a
spirit edly
ocer ite
ocer cal
cad uc
conn ection
mand ib
ophthal mic
with in
anes thesia
pled ged
oes ophag
Cal vin
recon struct
oxid ize
gener ation
dil ly
Mel an
sav our
oco elic
nec rot
slip pery
cath eter
eph e
prer eg
blind ed
dro op
gh etto
neu rom
gran ite
fra il
educ ate
Co el
cet es
som ers
rack et
whip per
rhy thmic
loy al
incon sist
cloth ed
sus ur
sus pect
sep ulch
school master
viol in
cult ural
pack ing
vill age
aro und
hil ted
demon strat
pound ed
oplas ma
abb ers
Mo or
walk s
stom ached
sulf on
myth ic
lob ster
dict ion
sco ut
sco und
kind led
oster one
ornith es
branch ial
sab er
liqu or
prim rose
muc os
Hol ly
immun ity
iloqu ence
calc iph
fan atic
weight ed
emph asis
hob by
clam ation
cept ion
apost ol
clav ic
ognath ism
Pet rarch
iel der
arsen ite
crow d
patri otic
mant le
mant led
coff e
coff in
gaz ing
struc ting
profess or
aper t
pow ered
upl ing
rogen ous
hack ney
epit aph
intellect ually
occup ied
lick er
osm osis
ople ural
Is ma
fier ce
ogloss a
othe ist
ocard iac
mah ar
tz ar
stitch ed
stip end
physi ogn
shel f
cid ental
elig ious
suck ing
estim ation
ultur ally
import un
import ant
sig ill
sig moid
ococc ic
shut tle
sangu ine
chim ney
proto zo
weigh ing
forg otten
illet te
ureth ral
lub ber
verte bral
indis crimin
cym bal
dan cer
wrap ping
opsych ology
opsych ological
unci ative
otyp ically
otechn ics
Neg rit
ende ar
stup id
stup ef
embra ce
support ed
tob ac
guar ante
cylind ric
By ron
sult an
itution ally
aggress ive
prost h
Tet ra
male fic
Cath olic
obst in
obst etric
gradu ate
editor ial
iaz ine
sla ugh
emphas ized
Scot ch
enthus iastic
Oph i
dies el
treas urer
wrist ed
tint innab
oves ical
marg inal
succin ct
gene alog
reve al
oneu rosis
lud ic
sine w
shro ud
hyg ien
metrop olitan
colleg iate
shrew d
redist ribut
condem n
skelet on
kelet al
trium ph
affirm ation
Oc cidental
eigh th
Dend ro
bisc uit
prol ific
pty al
provinc ial
ecclesiast ical
Pyr rh
ophth isis
pedest rian
Egy pt
accep ted
epithel ial
Mith ra
Pho enic
foun tain
maneu ver
serge ant
lieuten ant
virt ue
gub ern
newsp aper
A B
A ber
A pol
B R
B V
B ot
B ib
B ov
B ore
B ond
B ren
B land
B eng
B lan
B ald
C e
C ub
C ary
C ah
C ari
C ana
C ris
C lement
D im
D uc
D ak
D ana
D AS
E z
F a
F u
F id
F av
F let
F elic
F aust
G ent
G lor
G la
G las
G rand
H D
H I
H P
H yl
H off
H eb
H omo
I ph
I gn
J ol
J as
K S
K ub
K ah
K ash
K ara
K night
L ay
L ach
L ox
L au
L af
L omb
L amar
M F
M is
M ot
M ec
M iss
M usc
N O
N Y
N ed
N ak
N ect
N eu
O b
O u
O le
O ne
O stra
P L
P us
P am
P ut
P ang
P yg
P hor
P iet
R og
S W
S un
S ul
S qu
S ip
S ay
S cand
S umer
S uz
S lov
T i
T at
T il
T av
T rem
T arg
U ran
V R
V in
V or
W C
W er
W an
W ap
W ester
Y a
Y ur
a es
a et
a ik
b ets
c ian
c und
c ating
d if
d ating
d ont
d aph
d uff
d idd
d init
d awn
d inner
e is
e ic
e ach
e ust
e igen
f able
f ille
f ence
f au
f enc
f ett
f ura
f itch
f lect
f uro
g ation
g ug
g ry
g ens
g edly
g ett
g imm
g ety
g iver
g awk
h ose
h orm
h ave
h ops
h udd
h uckle
i iform
i otic
i ope
i amine
i ria
i ologically
j ure
j ean
j agg
j olt
k ia
k ob
k hal
k ings
k lept
l itis
l uk
l ister
l ots
m ex
m ick
m athemat
n us
n ach
n oy
n ature
n ames
n amby
o ath
o ire
p eter
p idae
p ane
p app
p ander
p ugg
p ucker
r ely
r ence
r ending
r uction
s as
s ous
s ik
s mal
s unn
s ets
s izz
s inking
t ian
t ically
t ore
t idd
t actic
t anned
t issue
u il
u pre
u aries
u vul
u plication
v od
v ation
v ish
v ied
v ign
v ase
v itic
v amp
w aw
w ings
w ined
w ana
w idd
w omb
w ives
w aving
w izard
y ang
y ew
z am
z iz
er ted
er rat
in ker
in ement
in val
in tran
in eral
in conc
in viol
in commod
in corpore
in strumental
on ies
on asal
es a
es an
an ically
an ov
at an
at ro
at im
at ation
at ted
at ization
at ting
at roph
at ura
en est
en able
en rol
en liv
en omen
en roll
al an
al as
al mon
al isation
ed es
is at
is burg
ic ly
ic ola
ic ultural
ar an
ar ion
ar ization
ar ck
ar iously
ar bon
ar ray
un tr
un mo
un pres
un val
un add
un pen
un bow
un ident
un key
un rip
un acqu
un iqu
un sport
un viol
un lik
un collect
un rul
un respect
un expect
un recogn
un precipit
it ics
el m
el se
el ets
el minth
ro i
ro ic
ro te
ro ve
re ent
re pr
re aw
re ign
re comm
re tail
re mark
re claim
re eve
re plen
re curv
re capit
re hears
re minisc
le ek
le pto
le opard
st if
st ake
st ander
st aves
st agger
st ilet
ch ard
ch up
ch ort
ch io
ch ette
ch ester
us p
us ian
us age
il k
ra sc
ra matic
ol act
ol ence
ol ateral
et ous
et op
et ters
et ime
ph ly
ph ob
ph ile
ph ore
om p
om ar
om ers
om ena
om agnetic
id or
id able
id ingly
id uct
id aceous
ion a
ac if
ac ient
ac ulate
ul ize
ul ency
ul ums
as id
as co
as ite
as exual
ur d
ur ial
ur ative
th yl
th ug
th ely
th igh
th ias
th ioc
th raw
th rush
th rone
ab it
ab ash
ab rog
ab ella
ab bot
ent en
ent or
ent ive
em be
em ony
os an
os id
os oc
os uria
os arcom
am min
am plex
am nes
ot um
ot ist
ot ide
ot idae
ot ics
ad ier
ad min
ad ject
ad sor
ad ero
ut u
ut ics
ut ilit
og h
og ne
og gan
um ps
ist i
ri or
ri ac
ri ble
ri zing
ri zation
ec ar
ec und
ec ology
op i
op at
op end
op aqu
op neust
ter rit
iv an
iv as
iv ia
im ing
im pot
oc ur
oc ap
oc yn
oc erous
oc clus
oc clusion
oc eptor
oc ranial
ag or
ag ain
ag ons
ag rost
ag han
iz ate
od ite
od orsal
ation ists
per chlor
per ister
ig ent
ig os
ig uous
non ser
non sal
non fact
non viol
non rational
non secret
ver ting
qu id
qu as
qu ag
qu ies
qu ery
qu ote
qu aver
ap in
ap portion
ant ar
ant ler
ir radi
ir resol
su k
su et
su av
su ct
sh og
sh ant
lo vel
lo ves
ip at
ip ing
ip id
if ts
con tain
con glomer
con tainer
est ion
est ant
co wh
co ura
co equ
co umar
ell ian
sp il
sp av
sp ang
sp art
sp ont
sp unk
sp atter
sp asm
pro fl
pro sec
pro sa
pro bab
pro secut
and re
ex y
ex quis
ex uber
ex posed
ep r
ian us
und eb
pre form
pre empt
pre acher
over se
over pop
ud ic
hy a
ib ranchiata
pl ush
ill ian
ill iform
se is
se wer
ae al
ob ronch
he aling
all on
all ine
all ied
all uv
ak u
ard en
ard ic
sc arc
ial e
de but
de vis
de bon
pr one
ow ered
ce iving
ne ure
ne au
man e
ff ed
ke eps
oph ene
oph yma
for f
for z
for ese
for bear
for cing
ug a
ug hy
com po
com men
ost a
ost ere
ost ylic
ost ernal
ind icate
ind ication
ind igen
ind ifferent
ang ial
ang itis
sub mers
bo unt
dis color
dis rupt
dis syllab
te ak
te gum
te aching
fl ak
fl aw
fl ann
fl att
fl uk
fl occ
be b
be que
be ats
be aming
ath en
art istic
out bl
out law
int it
ass y
ass ured
ass embl
ass embly
ator es
mon st
mon ad
ier y
inter line
inter locut
tra bec
ens is
ta i
ta ph
par od
par able
par alog
par oxys
mis class
sel ection
ach s
ach ia
ach rom
li o
mo hammedan
aw i
ace y
ace ously
ron ia
we es
we an
we al
we eping
ort on
ort able
res o
res cu
ok et
ok ous
ber lin
ran spl
ric a
ric s
gl iss
act ions
ho ul
ho os
sem imon
super ior
super sed
super erog
rop ical
rop athy
ock y
met op
ins ec
ins ens
ins omn
eg s
col p
col loc
col lap
car ving
ure tic
ha h
ha j
ha ff
pol i
di os
di ox
di phy
po ise
ograph ed
well s
sl ud
sl ash
der e
der mo
so ak
pe el
fo e
fo et
wh ither
ton es
oth al
oth rix
min ut
bar ber
ym y
ym ia
let ting
br el
br uc
br isk
az i
az es
her ent
ship ping
sk irm
sk ulled
ey ew
mer cant
bur ger
bur ied
tri ed
tri pl
tri ang
tri pod
arch ing
bra e
bra ins
hal ter
hal lo
hal ogen
ty ing
ty pic
mic ror
ling ness
gu y
gu ed
gu iding
ax le
au roid
ich neum
cer aun
orm a
fer t
tw add
dec ent
dec rep
dec eler
dec apod
ser f
ser o
fe atur
fe bri
ple c
ple on
anth y
anth rene
str ug
str ated
ve ys
uns n
uns ing
uns ac
uns um
uns im
unc ial
unc ross
unc apt
ile m
Ch es
Ch an
Ch en
Ch or
Ch urch
me ant
ker atin
ogen etical
ogen eses
cal ath
omy x
omy el
omy elitis
ain a
med iast
med ieval
af rican
inc is
gr inder
och us
och ia
ik en
post p
sn ar
sn iv
sn out
sn ub
sn ick
sn app
py thon
pos ure
ther mod
sw im
sw ain
ma ids
ink y
ster ile
son or
cur ing
osis es
hem id
des ec
rel iev
our t
ific ant
aph obia
che an
air ing
tur t
tur al
att ic
att itudin
ren cy
the us
unt am
bro g
hyper sensit
pal sy
roph e
are a
are es
rot ism
rot ted
enn ium
enn ials
sal am
io ec
yt ter
eth ers
Al t
dem arc
ord ed
ord om
pres uper
ou ra
cul us
cul ated
ru be
ual ize
poly gl
poly gyn
rh en
ten or
ten ement
rep uls
lor ic
acc ret
rec it
rec us
rec ir
rec rimin
bi odeg
den ing
den ig
kn ap
kn if
inf ant
inf ected
syn desm
sul fam
val ues
ars is
bal ancing
vol ition
vol unte
trans fus
ole cular
pa ul
ca ec
ines que
last y
pat ter
pat ril
sm il
sm ack
sm iling
elect or
elect rot
ient ial
unn ecess
ref lo
cra ss
cra zed
but ler
char ming
pred et
aur ia
pri zing
itt ac
pur itan
pur chase
rid a
anti que
ett as
ational ize
port ed
ott i
mel ic
mel ted
yll og
dra matic
mult id
rest rial
la ure
la ughter
oy e
oy er
ze bra
equ i
equ iv
ress ed
bit er
bit ch
foot edness
vers able
iff y
cir cling
pen ing
icul ae
icul ose
cle aring
mac rom
sil ky
alk yl
fac sim
chi ropter
amp el
eb ird
ek a
comp on
comp onent
cum ul
cum ber
flu ous
flu ence
bes ie
def ib
pot ass
sid el
sid est
lim p
part s
part ur
part ite
ert z
tet art
tet rag
eng ird
ject ed
ana esth
she af
umb ell
umb ers
umb ilical
hydro dynam
els ville
dist urb
ris k
mor bid
antic re
Sh ir
bu ying
ocy cle
gro cer
gro uch
mus cle
hood ed
St alin
div erg
osph res
osph enoid
arp ous
zz i
scri bble
gal ley
exc ret
exc eption
prot ector
prot ocol
fur an
no ea
oper ated
oper iton
bol ster
bol shev
rod actyl
enter ostomy
bas in
bas al
bas ed
eff ul
eff icient
cross ing
prec aut
exp on
exp onent
iac ally
tor toise
log ged
sym phy
tro th
tro op
ogn ost
phon es
sup per
sup pur
heter ot
conc ub
gon i
aud al
not ch
rac ed
Ph oc
sing ing
Car ly
rif le
oz a
ka olin
unp ict
bow er
lam yd
sa ucer
opt ically
mil ks
ba iting
lac ental
ti ers
acet on
organ ically
glo ve
ara j
ophil osoph
swe ar
In g
smo king
smo ky
pass ed
unst at
opod s
tre k
hed on
electro cut
Am mon
inv oc
ras ed
iner vate
ract ic
prov ost
anthrop ophag
Th ess
unw ith
tric es
gast rod
ison ant
imper tin
spec ies
inst all
iet ies
mist y
mist ran
oste o
oste al
liv es
pel let
ament ary
cr ushing
nos es
bush el
ubl ican
lif es
lif ting
beg ot
iment ary
iment ally
sho uld
pale ont
iat ure
oon ed
hist rion
cord ate
dr ud
dr illing
sat ell
ero om
ration ally
vo ic
unh on
encephal itis
gle am
unex haust
mast oid
cyst o
preh ending
ocephal i
ocephal ia
cover able
aqu at
cas u
cas ed
ado ed
bull dog
cab bage
stick er
suff l
net her
sand y
Gu ay
enth rall
fle a
fle ab
fle ece
just ice
cell ulose
rolog ies
don key
romat a
snow y
cran ial
mol ar
gress ively
bos om
get ting
imet rically
scar red
big er
big am
obi ologic
pip es
tap est
opath ia
opath ological
hib ition
undis put
hair s
palae ont
ses qui
wed ge
aux e
mur mur
bus hy
try pt
benz al
phosph ate
clim b
fri e
gri zz
conn iv
pick ing
aps is
cost um
worth ily
angi oma
step s
therm ost
acid ity
Be au
fold ing
vest ib
gor ge
scop y
blast ed
rein carn
rug ged
tot em
dro ught
gh ast
ril ie
Sal v
ophys iological
hon ored
vie wed
scler ot
pleas ed
position ally
cup s
som ber
Par ad
rack ed
dent ate
onom ist
incon ven
Ste ff
multip lex
ground ed
styl ed
compl ain
compl aint
check ed
hes per
mort gage
rach m
ether eal
nom ad
esp ond
pyro ly
mul ct
Cam pan
jac ob
strat ag
lob ular
kil ogram
paras yn
We in
quarter ed
cub it
extr ater
techn ic
ornith ic
pec ker
tow ered
fum ar
amo unt
qual ifying
object ive
immun o
ingu inal
amy lo
bad ger
stop ped
indic ated
AR C
author ized
ordin ary
pep sin
apost olic
impro b
impro pri
At tic
print s
Bal an
corpor ation
corpor ate
acanth ous
Ly cop
cann ab
antit he
seven th
ammon ium
quar ters
uncont ro
shad owed
pitch ed
inex haust
pow ers
upl es
chas er
chas ing
lyn n
gab bro
consum pt
plag ioc
mechan ical
occup ation
cog it
wal nut
Is rael
incom pet
stal ag
emper or
epid idym
ogloss ate
whit ish
dactyl i
mn emon
stim ul
hid rosis
curs ive
hatch et
agraph ic
bip inn
exper imental
whis ker
whis kered
relig ion
orient al
shel tered
beh avi
beh avior
elig ibility
chro mo
Ha em
mock ing
mov able
effect ive
cros sh
pus sy
ione er
prote in
sangu in
thorac ic
employ ed
fif th
joc key
odactyl ous
cox comb
ocyan in
ocyan ide
unle arn
reim bur
ophon ous
job ber
mira cul
spher oid
Ba al
haul ed
bub ble
mund ane
lepid opter
sud den
observ ation
ycl ic
gird led
system atic
narc iss
apprec iation
accept ance
alve ol
osal ping
insur ance
administ ration
pror og
blaz ing
Tal mud
baw d
unhe alth
chry sal
cyclo hex
gland ular
analy zed
grac ious
irrig ation
examin ation
ochlor ide
caud al
frequ ent
eud aemon
noct il
umbr ella
exhib ition
pris al
sooth ing
emphas ize
emphas izing
Scot o
champ ion
ellip tical
ophosph ate
enthus iasm
ococ cy
collar ed
dacry ocyst
pump kin
commerc ial
achie ved
glos sal
expand ing
Ele uther
gown ed
ophot ography
rane ous
evel op
wher es
ineff ect
Goth ic
reconf ig
brac te
suffic iency
het aer
aband on
odent ate
acquaint ance
Asc le
trep on
thys an
structur al
rystall ine
curr ently
analyt ically
opoe ia
sprink led
epile pt
funn el
phlog istic
ocl ase
oclas is
oclas ia
trinit ro
fors aken
yach t
anast om
proport ioned
brill iant
daint y
feu ille
sympt omat
appear ance
omechan ical
epiglott ic
Nap ole
Pant agru
Yor k
pamph let
orcin ol
progn ostic
colle ge
romant ically
clow n
math ematic
ospondyl i
goth ic
rho ea
jung le
jux tap
theg n
ophren ic
teut onic
quater n
trell is
plebe ian
Ary an
Parth en
absur d
heb dom
extir p
aguer re
recipro cal
ulmon ary
attor ney
oglobul in
lamyde ous
japan ese
nomen cl
ophleb itis
calum ni
thaum atur
pheas ant
poec il
otib ial
operiton itis
A j
A er
A us
A et
A ul
A stra
A fri
A kh
B P
B T
B is
B ent
B ig
B ast
B ash
B ik
B ird
B rod
B ranch
B ech
B rock
B ranchi
B abb
C es
C un
C ac
C off
C ten
C ress
C lem
C auc
C ircum
D ing
D us
D ill
D ug
D ich
D ew
E A
E k
E ly
E lo
E ct
E pi
E uro
E pis
E isen
F an
F ish
F ont
F iss
F ou
F ris
G ly
G ot
G ros
G rant
G nostic
H us
H ul
H and
H ak
H ond
H arp
I sid
I ss
I sa
I cel
I sab
J ed
J ames
K ed
K is
K ul
K ad
K um
K od
K ip
K ell
K ow
K af
L U
L W
L om
L id
L und
L ak
L ug
L ash
L aud
L aver
L iber
M om
M em
M im
M iz
M ex
M ob
M au
M ale
M ain
M ond
M ord
M itch
M eph
N ad
N ip
O en
O ld
O xy
P u
P un
P ind
P aw
P ah
P eck
P ern
P oll
P erg
R ut
R ap
R ip
R hy
R ah
S es
S ing
S per
S lo
S ov
S cop
S hand
S ten
S cut
S arc
S chn
S ino
S now
T D
T ok
T ran
T ox
T ung
T rot
T ru
T ek
T ert
T rist
T hel
T ai
T rip
T ril
T aen
U p
U t
U ro
V il
V lad
W ag
W ell
W inter
W agn
X yl
Z ach
Z eb
b h
b av
b ens
b ins
b iness
b ich
b amb
b ons
b ratt
c c
c ers
c ae
c ak
c ium
c idae
c ring
c ura
c ame
c udd
c akes
c resc
d g
d j
d iz
d red
d under
d har
d add
d rub
d agger
d lingly
d uty
d airy
e aves
f and
f ak
f let
f eck
f ined
f ili
f usion
f inder
f used
f itted
f angled
g and
g art
g ond
g ase
g eck
g ai
g ained
h ate
h one
h ight
h ence
h ash
h eck
h ortic
i end
i arch
i hood
i ators
j n
j il
j ost
j ock
j ura
j agu
j asper
j abber
k us
k ent
k ith
k rit
k eck
k lip
l ice
l ists
l ons
l ull
l ather
l unch
l isted
m able
m asc
m iri
m uco
n att
n unn
n ets
n otic
n app
n ode
o op
o ust
o oz
o ared
p ab
p ib
p inal
p idd
p ector
p seph
r und
r ists
r ero
s v
s ot
s ok
s under
s ash
s iest
s aph
s aff
s enn
s iss
s ored
t ad
t ock
t amb
t ict
t rog
t elling
t rophy
t odd
t usk
t iring
t rodden
u id
u ant
u ine
u ze
u ette
u va
v ang
v ise
v elled
w ic
w ath
w int
w ron
w ond
w asted
w inning
y at
y um
z h
z il
z ol
z od
z ant
z est
z iness
Ġ on
er es
er us
er ud
er ne
er ingly
er min
er uct
er eth
in iform
in script
in human
in communic
in corrupt
in structed
on ese
on iaceae
es k
an et
an ath
an aer
an amorph
an vil
at ite
at tr
at av
at te
at ty
at onic
en an
en ically
en ment
en rapt
al f
al et
al id
al ac
al ec
al ow
al ie
al oid
al ists
ed y
ed on
ed ent
ed uct
ed eral
is el
is im
is ville
is ome
is ogon
ic ous
ic ides
ar u
ar um
ar ry
ar red
ar ane
ar son
ar gon
ar iums
ar gue
or ied
or etin
ing ham
ing ener
un ne
un cy
un mis
un the
un amb
un pat
un comp
un read
un pit
un mit
un bet
un mist
un law
un thought
un sound
un offic
un habit
un touch
un quiet
un sympath
un barbar
un corrupt
un hypnot
un question
un warrant
un vulgar
it izen
el ry
el ating
el ene
el ench
ro ost
ro ze
ro ads
ro asted
ro stral
re ak
re ated
re ta
re cap
re acc
re organ
re prov
re prehens
re colon
re orient
le al
le ach
st ov
st ree
st ater
st ome
st amin
st ench
st agg
st ays
st ront
ch ig
ch ub
ch int
ch rest
ch ante
ch imer
us co
il id
il de
il ment
il iform
ra pe
ra ged
ra da
ra king
ra scal
ol en
ol or
ol ome
ol can
ol uth
ol ites
ol ike
et an
ph ell
ph ill
ph ry
ph rat
ph armace
ess o
ess en
ess entially
om ics
om andibular
id ar
id den
id ences
ly cop
ion id
ac um
ac yl
ac ium
ac ids
ul aceous
ul tran
as u
as cript
as yllabic
ur ating
ur istic
th im
th ence
th mia
th iaz
ab at
ab ed
ab re
ab ile
ent ion
ent ious
em is
em ul
em ical
em ers
em ann
em ert
os ic
os os
os che
os itive
os iderite
am ins
am ah
am bar
am py
am ina
am oe
ot ian
ot ize
ot aph
ot ele
ad jur
ous er
ut or
ut ra
ut ri
ut rit
ut ters
og rav
um as
um bo
ist es
ist ance
ri us
ri as
ri ans
ri leg
ri ka
ec rop
ec lect
op is
op id
op ies
op ini
op etal
op osterior
ter re
iv ering
im ar
im bu
im ony
im itate
im material
oc am
oc ut
oc ia
oc ide
oc aut
oc les
oc ulate
oc olic
ag ath
ag ging
ag aric
iz o
iz in
od an
od el
od idae
od iast
per ian
per col
per mic
per tur
per vas
per oxid
per ceiv
ig ia
ig ma
non st
non the
non del
non fat
non communic
non sanct
non extens
non corrupt
non success
non toler
ver ben
qu and
qu ins
qu ire
qu inc
qu iver
qu oted
ap u
ap en
ap om
ap as
ap art
ap ron
ap othe
ap pointed
ap othec
ap prent
ant em
ant ite
ant ef
ir th
ir red
ir reg
ir ides
ir enic
su e
su ch
su pin
sh al
sh ing
sh ib
sh ov
sh ave
sh illy
sh eds
lo chi
lo ader
ip artite
ip ennate
if ice
if orn
con ge
con tri
con cur
con stra
con flag
con clud
est own
est rian
co um
co ined
co hes
ell aria
sp ro
sp le
sp ae
sp ite
sp inn
sp inner
pro m
pro o
pro per
pro leg
pro pin
pro phyl
pro lifer
and rin
ex o
ex change
ex propri
ep o
ep ed
ep enny
ep ulch
und ism
und emon
und etermin
ast ral
ast rog
ast yle
ine ae
ine vit
pre mill
pre tern
pre possess
pre calcul
over p
over re
over he
over joy
over capital
over divers
ud ded
hy alin
hy thm
hy thmic
hy stric
ib e
ib und
ib ert
pl od
pl ates
ill ic
ill able
se ac
se ys
se aman
uc al
uc ous
ob ol
ob arbit
he g
he ater
he wn
tr ill
tr idi
tr ump
all an
all us
all iance
ard om
sc up
sc orn
sc uff
sc iol
sc ruff
sc irrh
ial gia
de bar
de flag
de glut
de human
pr ic
pr att
ce e
ce ous
ce iling
ce ived
ne oc
ne oter
av age
man age
yl us
yl ine
ff ul
cl an
cl it
cl um
cl ine
cl eric
cl astic
cl awed
oph iliac
for tu
for cip
com an
com at
com it
com bed
com posed
ry men
ind es
ind issol
sub tract
bo es
bo ist
bo od
bo ond
dis emb
dis organ
dis adv
dis oblig
dis orient
dis regard
dis proportion
dis courag
dis dain
te h
te at
te ous
be in
ie ux
up p
ath et
art aric
out b
out ro
ub al
ub ation
int ang
int agli
ass i
ass ort
cy tol
cy bern
mon omet
mon ogam
ier ce
inter min
inter rup
inter ced
inter rupt
inter depend
tra w
tra y
tra ps
tra ding
ful gur
ens lav
par c
par e
par l
par is
par agon
par enth
par trid
mis al
mis de
mis cre
mis lab
mis cu
mis ogyn
ach an
mo y
mo ons
ace able
ron es
ust ered
to ken
we in
we ens
we gian
ort ical
ge an
ge ful
ge omorph
ge odes
ge ochron
res or
res um
res ounding
ok u
ok able
one g
mat ure
mat ched
mat ernal
low ering
gl od
gl ier
gl are
gl ancing
act ical
act iveness
act inal
ho on
ho es
ho or
ho ol
red ient
red issol
sem ant
sem ial
sem bl
sem ira
super ann
super sensu
rop es
rop ous
rop ia
cor ps
cor yph
met ic
met ho
ins ul
ins ult
ys in
ys ville
ium ia
ith a
car ot
ev idence
ha ird
pol led
pol ishing
di ag
di rig
di atom
wo of
der eg
so ar
so ir
fo oth
wh ence
wh ites
wh ipp
ular ian
ans w
ram b
ram in
rat a
rat able
ov an
ov at
ov ich
ov acc
ov irus
min or
bar ren
ox es
ox azine
ym n
ym us
ym bol
ret ched
ret ribut
let ion
br ation
br ides
az im
az yg
ice a
ice able
her ring
ey ville
ger und
abl er
abl ely
yn es
mer ed
mer id
mer ist
mer cen
bur ne
bur les
bur dens
tri er
tri al
tri bal
tri plic
arch s
hal ide
ty ped
ped icul
cop al
gu ards
gu itar
ann ah
mar c
mar ian
mar quis
mar ried
ich ous
cer v
fer ence
tw i
tw ir
tw ang
tw itter
dec o
dec on
ser y
ser ic
ser ve
ple te
ple ase
ple ural
anth aceae
str ide
aut ec
aut ost
uns ch
uns atur
uns ensu
uns epar
unc ult
unc iable
unc anon
unc atholic
my ring
my cel
ung y
ung od
ung rat
ung ulate
ung ener
ung stic
Ch u
Ch ic
old ers
An tar
ker aun
cal ce
ept ically
ore a
med all
inc og
inc end
inc iner
hyd rog
men th
gr uff
och romy
ik ed
ik ary
post ed
post pon
sn er
sn aff
sn ubb
sn aky
ont own
inn ie
py c
py x
ther ing
ther mic
ther mor
sw er
sw ill
sw ank
sw imm
ma i
cent ur
cent red
cur l
cur led
cur sor
cur tain
bed e
bed ew
hem med
hem ipar
des k
des ol
des po
des ire
rel oc
rel ated
rel inqu
anc a
anc ient
aph us
aph ia
aph thal
aph rodis
air craft
back er
tur ing
tur bul
tur pent
tur quo
att ie
pseud og
pseud ocon
aff ix
por phyr
ren g
the w
the ft
the ory
unt ro
unt ang
unt empt
unt emper
phal an
pal pit
counter s
counter fe
roph ore
go on
zo o
enn ie
pet ro
pet alous
io u
ix is
Al g
Al leg
Al gon
dem er
dem ark
ord inal
orph yrin
amb ulate
amb ulation
hand er
ele ch
ele em
cont ag
omet rograph
omet ritis
land ers
land ite
que an
ru it
ail able
reg ional
poly phon
poly chrom
ull us
rh am
ten ont
work man
rec ess
har bor
bi us
bi ology
den ounc
kn ur
inf am
inf ir
inf ram
inf ract
syn ec
val le
val ency
ars ight
vol uptu
eld om
trans mitt
unf lo
unf air
ole ic
pa i
pa is
pa us
pa unch
ca en
ca vern
Ar tem
ient ific
ref ut
ref oc
cra y
but ted
char med
char ges
pred ece
phot ost
hom ogen
squ in
squ ill
squ att
rid s
rid ium
dep op
dep rav
port able
war k
war mer
mes on
mes at
mes hed
press es
press ible
agn ath
gar rul
add ers
add ish
add ition
rest ric
pra et
pra ising
vel s
la under
bel ted
stra bism
ze k
arian ize
del le
del imit
vers at
iff ed
sur rog
hyp ophys
hyp oge
icul itis
cle ft
mac r
rem ig
uk ed
sil ly
fac ial
micro seism
ner ite
chi rop
tran script
clo ister
clo uded
cum ulus
hor de
hor sel
ham s
ham mad
def ra
def ens
cut s
ley an
pot ency
lim b
part i
tet r
unk enn
rown ed
hydro xyl
flow ers
water ed
Mar x
Mar ie
wind er
antic oag
right s
Sh ep
amin ation
lar v
pul v
pul vin
mus ket
div ing
div ag
div iding
scri bable
gal le
exc ess
exc ite
exc iting
exc itation
mod ic
uncon st
uncon dition
oper itone
atch es
bol a
da im
da yl
bas is
eff ig
erg art
oty ped
oty pist
oty phoid
phen et
iter ranean
prec oc
prec ogn
imm ob
hard ening
log istic
cos mic
unre ason
tro chil
cher ub
heter oc
tar tr
tem p
El aph
El izabeth
fil ig
conc il
conc av
bat s
miss ibility
radi us
amph or
amph id
asc iv
asc etic
aud it
pit s
pit uit
mill er
rad ium
imp ly
not es
king dom
Ph ry
Car ol
Car mel
extra pol
las ia
anal ges
anal yst
oe a
oe ver
ka i
lex ion
cock le
unp ut
sa uce
opt ics
pent ap
card iac
lac ial
dip le
itor ies
itor ious
ti us
hel le
quad rate
bet a
glo bal
ban jo
whe ed
ophil a
Le ver
mut in
urn s
ophor idae
cro c
phy co
wit ty
opod ite
hed er
hed rons
Am az
Am bly
Am bros
inv as
inv inc
ester ed
gn aw
gn awn
plan ing
plan ter
circum navig
vir al
vir us
opter oid
orr heal
prov oking
chn ic
anthrop y
chem os
chem ically
icular ly
eu hemer
idd ing
ga ited
imper me
ky an
rev ie
rev ict
rev ival
rev iew
oplast ies
inst ant
Ne ph
hab itation
omn is
Mc N
cot yl
pil fer
ino idea
ament um
ament ally
cr ush
day dream
path etic
sle uth
cu be
dam as
pod a
pod ded
beg ird
cast ed
suc cum
lap aro
fib romy
iat iveness
oly ze
meg aph
rang ing
lem ma
rost res
sens ed
sens ib
gent eel
pop ul
anim ous
anim ate
iol atry
usc ule
corn et
dr ugg
bec lo
Or ph
ald ol
cel ib
fre y
ynam ics
Hy po
unh ur
prop yl
round ish
arm ament
chor i
chor io
plac ing
encephal ia
gle aming
ener v
star ved
ket one
unb ene
cho ic
cho ice
noncon form
noncon tribut
cas ing
fron d
fron ts
vag u
vag rant
test ed
ucle us
Con n
bag ger
cab bal
bri er
bri be
enth r
cess ion
town s
cell ular
lith ot
uv ium
rolog ists
Mon te
hu a
hu zz
hypo chondri
ards ville
opol ar
cycl op
mag ister
acqu ired
dish er
dish eart
sar cop
sap ro
chol er
gram mat
gram matic
allo x
allo th
bos h
tab ern
olith s
boat man
struct ion
aul d
buck s
stat ement
opath ies
opath ologic
neph rect
fat igu
dol or
unper fect
mos quit
nor man
ye ast
ye oman
sept u
disc red
grand father
mand ar
Mal ac
ophthal mus
onym s
Mer c
saw s
unpro pit
unpro portion
AS S
god dam
omin ated
gener ating
gener ative
vest ed
cler gy
sav or
sav age
present ation
uncom mon
gyn and
writ es
rer eg
escent ly
chond ros
odon to
prer es
call ed
scler otic
position ed
fam ous
fam ily
uber culate
neg at
whip ped
Cy clo
Pal m
itut ing
dial ys
unad apt
incon sider
brom ide
bank s
nov em
ocyst is
Ste ph
Ste phan
ja unt
Bo ul
oec iously
mont ane
pack s
cus pid
incl ination
ulph onic
ulph uric
break fast
irre ver
hes it
oge ographic
fet ch
fet ich
cyan ide
wick et
bacter ium
Mo hammed
eas ed
icol ine
judic ially
drag gle
xanth in
guard ian
civ ilized
civ ilization
owl s
iri e
kind ergart
vari ation
extr at
thir teen
collect iv
ocyt es
Te hu
ocar pal
real istic
rail road
prim ogen
termin al
Del ph
junct ively
pref ix
Ser pent
colon ial
witted ly
phant om
phant asm
iped al
stop per
emph raxis
indic ating
fro ze
hob bled
pron ounce
direct ion
apost le
phag a
deb t
bud ger
dar win
general ship
Phil ist
otom ize
nonper cept
consc iously
carbon ate
mant el
urous ly
asper gill
dich ro
rul er
fix ing
emot ionally
coff er
tang ent
isth m
issu re
buff oon
pon ent
norm ally
transl uc
unpre vent
dors al
opar esis
trad uc
secret ing
sag itt
Val ent
stream ing
ochem ically
philosoph ic
cic at
wro te
ondyl ar
acetyl ene
correct ion
Sol en
hors ed
roc ele
thorn y
assoc iated
typ ical
alph a
conce it
conce ived
travel ed
travel ing
typh oid
grad ation
invest ment
Mus lim
Plat on
omon as
opp ugn
crystall ine
stitch ing
rax ia
agen esis
promis ed
activ ation
bip art
opo etic
bomb ard
stor ied
ocean ic
cens or
prick ly
reflect ion
oen anth
estim ated
substant ial
arab ic
unap prec
exist ence
respons ible
aty pe
elin qu
absor pt
absor ption
mov ement
For est
Mag yar
agglut ination
cob web
spac es
expl or
crit ically
orac oid
fant astic
stret ching
abdom in
proph etic
fertil ization
capt iv
Eu char
jum per
blu est
priv ate
cru el
cook ing
embran ous
bif ur
girl s
panc rat
Bab el
engra ving
verte bro
clus ively
expect ation
mira cle
tons ill
otechn ic
pian o
trim med
desc ending
obed ience
obranch ial
Lyn n
undel iber
prem ier
incre asing
gird ed
chord al
prepar ation
stuff ed
span ish
guar ant
guar antee
cylind ro
hung ry
opal atine
qua est
scra pe
hypn otic
reck on
reck oning
tach ygraph
strap ped
forec ast
induc ed
poster ior
element ary
adapt ation
prud ential
Russ ian
kines is
mold ed
otri be
Cel tic
ostat ics
furn ish
furn ished
Lin col
east ern
atm ospher
legis lat
depos it
occip ito
lach ry
intellig ent
regist ration
Fre ud
psal m
antil og
pett if
depart ment
Laur ent
Wol f
anag ly
pyr rol
pyr rh
kiss ing
escap e
opa use
agree ing
agree able
ophosph or
fr ith
wav y
ococ cal
ventric ular
treas ure
empir ical
acknowled ged
chanc ell
induct ive
decar bur
gav el
troubl ed
peritone al
Vir g
sett led
wand ering
prolog u
dart ing
fem oral
fren z
wir y
threat ening
ineff ic
correspond ent
unsec ret
suffic iently
combust ion
gorg on
spo of
ibranch ia
corac oid
horiz on
immort al
His panic
Sum mer
sme ar
itu ent
osse ous
expos ure
accust omed
embod ied
sarco phag
find ing
wrink led
steg an
mez zo
Frank lin
thyre o
neurop sych
pater nal
leagu er
opoly p
intu ition
haus en
axi omat
latt ice
pyg my
righte ous
Sat an
subdu ing
esteem ed
incul p
Egy ptian
bidd ing
stap le
whar f
strad dle
labi ovel
Op isth
fide icom
recal cit
otyled onous
indist inct
pulmon ary
acoust ics
omeg aly
epiz o
unfri end
caval ier
rhaps od
lobul in
quadrup ed
fath om
gne iss
opithec us
excre ment
weas el
Sund ay
fim bri
syne ch
ifl uous
discre et
parathy roid
huck ster
Willi am
choc olate
misch iev
acup unct
procra stin
scound rel
Flet cher
' m
' ve
A cra
A bel
A rian
A gri
A then
B le
B ug
B ub
B ev
B ram
B uk
B oz
B apt
B ever
B ea
C z
C ain
C ont
C ull
C ross
C atal
D ant
D ep
D ian
D ie
D aw
D own
D uk
D ios
D rus
D emi
E F
E M
E U
E ra
E ut
E ber
E mel
E mil
E sper
F ree
F asc
F arn
F lem
F lag
G amb
G ery
G aster
H F
H ag
H ig
H ah
H ung
H unt
H ern
H eng
H els
H oh
H ew
H emer
H aute
I g
I ra
J ob
J ans
J oy
K l
K et
K yl
K ron
K au
K ik
K ings
K ee
L al
L ed
L un
L ur
L ot
L ill
L up
L anc
L iss
L uk
L oll
L oh
L ux
M V
M ab
M are
M ered
M AS
M iller
M OS
N F
N ol
N ag
N av
N ath
N orm
N ere
N ek
N emat
N arc
O z
O ro
O ch
O th
O ver
O ber
P R
P f
P s
P up
P li
P rat
P her
P ict
P ars
P sych
P rim
P elec
P lot
P atri
P RO
R D
R L
R im
R ep
R ost
R ach
R aff
S L
S ug
S up
S art
S ho
S cor
S eg
S ev
S hem
S por
S ele
S ear
S pat
S equ
S erg
S CA
S corp
S tah
T L
T u
T ec
T est
T yl
T ay
T ha
T ash
T own
T rig
T our
T ere
T iff
T roch
U D
U gro
V o
V ent
V ish
V all
V iet
W it
W ur
W ad
W ard
W ick
W au
W eb
W ild
Y e
Y er
Y on
Y uc
Y uk
Z in
a una
b ium
b ings
b iform
b yt
b ett
b uch
b aud
c ingly
c ans
c ative
c ogen
c unct
c rup
c nem
d ast
d ier
d ans
d ice
d ome
d eth
d reg
d ross
d rew
d uction
d aguerre
e ker
f ot
f ud
f ies
f ard
f ins
f uth
f ade
f ters
f ries
f agg
f ray
f ication
f iller
f ickle
g ud
g ong
g inn
g har
g ishness
g elike
g aged
g urg
g abb
h ent
h ers
h ive
h ire
h ond
h app
h ither
i ens
i ose
i ata
i ometry
j ink
j uss
j asp
j itter
k ri
k ud
k ym
k ain
k ik
k ou
k ina
k har
k ets
k irt
k illed
k han
k rypt
l el
l om
l ul
l ative
l ush
l itic
l ana
l aved
m t
m av
m out
m iness
m yn
m uth
m ili
m agg
m uring
m imet
m econ
m uddle
n and
n yl
n ah
n ix
n upt
o yl
o ide
o idei
p amp
p unic
p oker
r unt
r uses
r elled
r une
s if
s ell
s ung
s own
s itter
t und
t ingly
t ure
t osis
t ined
t uch
t aker
t aken
t osh
t ires
u is
u um
u able
u ose
u its
u lectomy
v iously
v ette
v aud
v elling
w t
w ent
w ins
w age
w ont
w ail
w ring
w aster
w ame
w ether
w ipe
w retch
x x
y re
y pe
y aff
y oh
y ea
z ab
z ip
z antine
Ġ or
Ġ for
Ġ bra
Ġ speed
Ġ you
er ys
er emon
er ected
in ar
in am
in ose
in ates
in ities
in itis
in vers
in ject
in tric
in quiet
in advert
on us
on et
on as
on ary
on ius
es chal
es omely
an ion
an ie
an one
an ox
an che
an eth
an agog
an za
at itis
at lant
en i
en gl
en orm
en etic
en the
en amel
en forc
en courag
al on
al ess
al od
al ip
al ta
al ger
al yn
al do
al eth
al gar
al oes
is ability
ic i
ic ole
ar ri
ar ec
ar te
ar ge
ar ied
ar men
ar but
ar iousness
ar bore
or ally
or istic
or hom
ing ual
un su
un me
un rig
un mal
un bro
un pet
un work
un ste
un comm
un pred
un right
un enter
un aud
un hel
un loc
un inst
un bound
un ival
un tract
un pleas
un sever
un communic
un oblig
un correct
un penet
un subject
un feud
un effect
un irrit
un suggest
un method
un predic
un neutral
un predict
it eral
it ters
it urn
el is
el min
el ily
el son
ro od
ro ke
ro bin
ro ister
ro cess
re z
re for
re be
re mo
re to
re mic
re gr
re bu
re bound
re quest
re touch
re buff
re forest
re formation
le k
le av
le thal
le vul
st as
st rop
st ram
st ane
st unt
st ave
st omatous
st ook
ch ad
ch ut
ch ate
ch ier
ch ely
ch ik
ch unk
us uc
us edly
il ot
il ton
il age
il yn
il atory
ra j
ra id
ra des
ra ps
ra ining
ol oph
ol ins
ol oid
ol alia
ol ingu
et is
et as
et ers
et ry
et idae
ph lo
ph aged
ess ence
om ad
om ian
om ery
om agnetism
id os
id ated
id ency
ly tic
ion i
ion ia
ac ent
ac ros
ac inth
ul n
ul ism
ul ity
ul ites
ul ata
as ar
as us
as ine
as emic
ur ely
ur ium
ur ance
th ic
th ers
th iol
th etical
th eca
th rall
th istle
ab bat
ab ilia
ab ound
ab eced
ab stin
ent ism
ent reat
em o
em ont
em bed
em esis
em ark
em pered
os el
os il
os om
os able
os itis
os ition
os arc
os cit
os iphon
os epsis
os capular
am end
am be
am nest
ot re
ot ers
ad ul
ad illa
ut os
og i
og ra
og ist
og ee
og eton
um i
um ont
ist ering
ist icalness
ri fl
ri ment
ri med
ri edly
ri ps
ec ot
ec ap
ec ia
ec rosis
ec loth
op an
op all
op ale
op ened
op ener
ter ra
ter ian
ter ville
ter yg
ter mit
ter race
iv ally
iv ora
im br
im pan
im pres
im bec
im posed
im mater
im penet
im penit
oc s
oc ted
oc lysis
oc ostal
ag ite
ag ery
od o
od il
od os
od ate
od ern
od isc
od elph
per iv
per sec
ig nee
ig moid
non es
non ed
non ge
non sk
non sol
non ten
non psych
non prov
non imper
non sent
non class
non voc
non vac
non continu
non commun
non resist
non subject
non caus
non observ
non monarch
non prefer
non separ
non ascend
qu eness
qu aff
qu are
qu ito
ap al
ap is
ap ol
ap ur
ap ital
ap plication
ap oneu
ant le
ir er
ir an
ir ons
ir resist
ir regular
su ds
sh u
sh it
sh as
sh ep
sh orn
sh uck
sh eld
sh aring
sh iver
sh aws
lo od
ate ur
ip us
ip innate
if ers
if aun
con ia
con ico
con vic
con script
con quest
con sidered
est il
est ate
co e
co es
co ass
co ax
co ste
co ars
co empt
co phant
co hob
ell ic
ell ist
sp a
sp ut
sp iss
sp ott
sp rang
sp orous
sp oric
sp iel
sp oli
sp ittle
sp angled
sp rout
sp okes
pro g
pro ver
pro men
pro ss
pro claim
pro verb
pro blem
and es
ex cor
ex anth
ex ert
ex tric
ex amine
ex patri
ex sangu
ex sic
ex clusion
ex culp
ep an
ep ort
ep late
ian cies
ism at
und oc
und ub
und eter
ast ry
ast ery
ast atic
pre car
pre ven
pre mod
pre tor
over b
over reg
over tim
over flow
over spec
over magn
over dil
over brut
over compens
over intens
over tebral
ud ers
ud inous
pl ent
pl ight
pl ash
pl ants
pl ump
ill iberal
se q
se wing
uc ci
ae ger
ae aceae
ob so
ob sol
ite e
he v
he ch
he aring
he gum
tr ion
tr est
tr ith
tr uff
all erg
ak ist
ard ism
ard ize
sc a
sc l
sc ent
sc rog
sc aled
sc aven
sc oli
de y
de vol
de form
de person
de oxygen
de phleg
pr y
ce y
ce au
ect rop
ne es
ne ustic
av ouch
man us
man ge
man hood
man aged
yl ing
ke b
ke v
end ra
end ron
end ingly
end uring
cl ans
cl ink
cl amm
cl aus
cl uster
cl arin
cl ipping
cl upe
oph is
oph rag
oph any
oph anic
ug ing
bl itz
bl ues
com for
com orph
ost o
ost ann
ind ag
ind ub
ang lion
sub gen
sub miss
sub aud
sub script
sub sequ
sub clav
sub altern
bo a
bo e
bo v
bo ff
bo ater
bo uff
bo ots
dis inter
dis card
dis cover
dis allow
dis commod
dis sect
dis joint
dis respect
dis ulf
dis content
dis order
dis connect
dis appoint
dis patch
dis franch
dis embow
dis ease
te em
te au
te gr
te ase
fl a
fl ur
fl im
fl and
fl ute
fl oric
fl uster
fl apper
fl icker
fl unkey
be j
be ans
be acon
be ams
up ing
up let
ath etic
art ilaginous
out g
out y
out rage
ub ric
int uit
ass o
ass ar
ass ault
cy ph
cy cad
cy anic
cy prin
cy psel
ick ness
mon ochrom
ier i
inter p
inter loc
inter commun
inter penet
tra ject
tra ded
tra vest
tra iler
ens k
ens itive
ta ur
sy zyg
sy cophant
par g
par ch
par ric
par ah
par ental
mis calcul
mis demean
sel ed
ach ite
ide alistic
mo ol
mo vie
ron a
ust ers
ust ering
to on
we aved
ge ys
ge org
res il
res ter
res ource
ok an
ok ers
ber ber
ran a
ran cid
ric hous
one ura
low ers
gl ib
gl adi
gl aze
ho ff
ho ary
ho ars
ho oped
red em
red esign
sem en
sem per
sem ich
sem itic
super fin
super sens
super sensit
super abund
rop al
rop ed
cor b
cor set
cor usc
met em
met am
met han
met amer
ins ured
ys k
ys on
ys ical
eg ress
eg rass
col loid
car et
car ve
car pos
car pal
car bin
ev inc
ha emia
ha uls
pol t
pol icy
ight en
pt ious
di opt
di amet
di agonal
po ach
po ult
po of
po ign
po ons
wo uld
sl og
sl ain
sl atter
sl itting
sl edge
sl ubber
der a
der er
pe ev
pe aked
pe jor
fo oz
fo iled
wh il
wh ang
wh ich
wh itt
wh ats
wh iffl
ton n
ton ite
ah i
ans er
oth i
oth ic
oth el
oth oracic
ov ar
ov ular
ov arian
ov ipos
min ip
min ib
bar b
bar ic
ox ine
ox ides
ox ylic
ret to
ret rop
ret rom
ret reat
let own
br it
az ar
az one
her on
her es
her ing
ship ped
sk re
sk im
sk ep
sk ipper
of ar
of il
ey ing
ey est
ey ard
ey edness
ger an
ger ing
yn a
mer i
mer ing
mer cap
tri pt
arch ety
bra ct
bra inst
hal o
hal id
ty ch
gra di
gra des
gra ved
ped ig
cop es
cop art
cop ied
cop rod
cop ying
gu ing
gu ay
ax ic
ax ia
ann ers
ann ock
ann ivers
au per
mar as
cer am
orn ate
fer ous
dec ong
dec la
dec lam
ser ious
ple thor
ple bisc
anth a
anth ran
aut ograph
aut ark
ve al
uns mo
uns ight
uns angu
unc iate
ile ct
ung es
ung ing
ung ram
ung overn
Ch ad
Ch lamy
An ac
An ab
An ne
An sel
ree f
ree ing
cal care
coun tri
coun ty
med ial
af s
gen erous
hyd ri
hyd ride
men a
men stru
gr in
gr udge
ik an
post ing
post hum
sn itch
sn arl
ond o
ond ra
ont idae
rit a
rit ically
do o
do ur
ble ed
ble ment
py rom
py ret
py ru
py ral
py rog
ther mos
sw ed
sw iss
sw arth
sw arm
sw izz
sw agger
sw immer
ma ins
ma iled
ster ol
ster tor
cent es
cent re
cent ration
ableness es
cur ry
mal ax
hem ad
hem ist
hem imet
des alin
des ensit
des quam
des ilver
rel ate
rel ief
our er
anc el
back sl
tur ric
tur ret
tur vy
att led
att emper
pseud ogen
pseud omon
aff lic
ue h
ue blo
por al
the aded
ven ere
bre wed
bro ck
bro aden
pal pe
roph agous
go o
zo ospor
zo ophyt
sal a
sal ted
eth ing
eth anol
eth moidal
Al v
dem il
dem iv
dem od
dem ob
dem ater
dem ocratic
dem ilitar
dem ascul
itis ing
iss ible
iss ory
amb is
amb ush
amb usc
hand ling
pan or
ele phone
cont act
cont ext
cont roll
pres h
pres ur
pres ym
pres ence
ou le
ou che
ou rably
cap ri
land ular
sol an
reg urg
ear n
ear ned
rag ged
poly gen
poly the
rh abdom
off end
off ering
off ensive
oss a
cat ach
leg ia
rep ul
rep and
rep art
rep air
rep rim
rep atri
sch mal
acc ab
ste aling
rec rud
rec rystall
har le
bi osis
bi ological
bi ologist
den ic
den umer
kn itted
inf idel
syn od
syn ax
syn ops
syn agog
syn chro
syn thetic
val ley
ars us
can a
bal lo
bal con
vol ta
eld s
trans it
trans mit
unf requ
unf aith
ole ate
ole uc
form ist
pa pers
Ar gy
vent ro
vent ri
vent ilated
ias es
pat rol
ional ness
sm irk
elect s
elect ing
ient ness
ref il
ee ism
cra cy
cra pul
but s
char ter
char ger
pred esign
aur al
hom ozyg
itt ingly
itt ance
pur s
pur in
pur pl
squ id
rid ent
rid ia
dep ur
dep ort
dep riv
ett able
port ing
port ioned
dom ine
mes hug
onic ity
agn ost
agn etically
mult ist
mult ig
mult ib
mult ira
vis or
vis it
rest ed
pra ep
vel t
vel op
la us
stra ined
uch es
oy al
hol o
hol lo
equ id
del ivery
bit es
bit ted
pi et
pi ri
inal es
cir cled
sur g
sur fac
sur render
icul o
hous ing
hous ec
mac y
mac ros
uk es
top ping
alk ed
dy sc
fac ilit
micro meteor
micro program
rin o
ught on
gre as
ext ort
eb a
ek in
ek ed
atur ia
hor ri
read just
iph one
orth op
orth oped
def ic
def ec
def emin
cut um
cut aneous
ging iv
sec ure
ley ed
pot am
spl int
lim ber
part ition
part ner
part icle
part isan
conf ection
conf ront
tet ract
Pro te
eng in
eng age
eng agement
als is
pin x
els en
dist ress
dist rict
water y
water ing
Mar ne
mor row
antic or
antic ycl
amin ic
unch ast
unch ange
pul ling
pul ler
mus c
mus es
St yl
div ed
na ire
ving ness
rect or
rect angular
rect iline
gal lo
exc og
exc ip
exc ruc
prot om
uncon sc
uncon sider
uncon vinc
fur t
no un
no ise
oper ate
oper ator
oper culum
bol iv
rod s
bas ement
bas idi
erg ot
erg ate
ball ist
phen oid
prec ision
exp ose
imm une
odont ist
jo ins
jo inder
sym phys
sym metry
sym metrical
ira s
phon ate
board ed
sup ped
esh ot
heter ost
heter ogene
tar ry
tar sal
tem er
fil es
conc uss
conc eption
bat o
bat he
bat rach
bat tery
miss ibly
band ing
amph i
amph im
gon y
sim ul
ened iamine
mot ive
arth ritic
rad ed
imp ud
imp air
not ice
not ioned
mit ten
Ph ot
Ph ae
Car r
rif iable
wa ite
oz inc
ves ico
rup ted
cock ed
unp un
unp ubl
lam ented
sor ter
rew s
opt icon
pent ec
ench es
ench ain
card ia
sac rileg
lac in
lac es
lac qu
itor ily
acet in
quad rif
quad rant
glo ch
Le ib
isc i
isc ence
sulph uric
arg a
arg in
arg inal
In di
urn ing
thes es
full ness
smo ther
cro cod
pass es
ony x
sin ec
sin cer
idi oid
idi aceae
idi osyn
jud ication
wit z
opod e
vert ive
vert ibility
vert ibly
hed ged
agg i
electro encephal
ech an
inv ariant
esc es
esc ences
gn ar
rock ed
ras is
circum c
circum vent
neum atic
resp on
det est
gam mon
icular ia
box ing
Th i
cam ar
cam pa
unw el
unw il
unw ield
tric on
tric lin
ios es
ming le
ming led
ison ous
ogram matic
spec tr
fol iaceous
fol lowing
hab er
mist ry
oste ochond
liv ered
fin ick
pel vi
cr ut
path ologic
dam aged
ux ur
urg ist
bush es
suc cuss
lap ped
sho al
nit z
lib el
mas quer
flo ored
meg ad
sed uc
sens or
pop lar
pop ulation
anim ation
dig ging
iol ite
sat iri
En gl
bec ur
alg esia
unm ol
cel et
cel lo
fre ed
fre el
vo od
pig ment
round ing
chor eg
encephal us
ener gy
star ry
chrom ic
unex ped
ket on
lay ers
fast ly
fast ig
tu fted
emp est
ocephal a
noncon vers
cas ual
tit ude
ucle ated
osp ect
plat yr
unsh ame
bab ylonian
gall in
bri ar
antip ro
antip atri
fle ur
cod es
cod irect
tax ider
uv ia
romat ous
berg ia
ni ece
hypo chlor
cycl ic
mag az
vin yl
var ious
var ied
var ieg
aim ed
mad repor
cit rin
mol ysis
allo y
ogam ete
pneum atic
unin fer
buck le
buck ler
subst rat
opath ically
undis cern
bron cho
ses quis
unper cept
loid ic
jug al
jug ular
cand y
mos lem
mos aic
asp ect
vas o
cad aver
fing ers
stere ois
conn ub
grand mother
De ut
pick le
penn at
with out
anes thes
therm ometer
Be aver
nic otin
neck s
spor ang
oxid ized
gener ate
human ity
human istic
vest ry
any a
cler ical
blast ing
drop per
drop ped
ko i
ko um
ko ok
nec ro
nec rop
antis eptic
Bra chy
rein fl
color ing
unl uck
writ ers
irl s
gang ren
orch is
prer og
gas ol
stre per
stre aked
omal ar
retro spect
retro gress
unim agin
neu ropter
earth ly
anat omical
uls ion
call ing
pros od
Ed ward
educ ative
Co ok
ju ic
rack ing
perf unct
neg ative
Ber k
Cy pr
iot rich
rhy med
tam bour
unad v
unad ulter
nonex ped
ja und
multip lying
school boy
compl ais
angel ical
craft sman
vill ian
incl ined
incl usive
glass es
produc ible
aro os
person ally
demon et
demon stra
fet tered
Wh igg
lu ther
oplas ia
lymph aden
pup ill
esp ous
wick er
itz a
stro b
stro kes
pac if
ocent ral
crimin al
Se ab
Se ine
Pol yn
aug ust
civ ic
trop ic
found ation
We is
hier oglyph
ilit eral
gut s
vari ant
vari ety
watch er
const ant
extr al
hyster ectomy
sever al
oster ol
techn ically
branch ing
hell enic
lum e
collect ion
carn ate
string ing
meas urement
acon itine
fum ig
qual ify
flav in
flav ine
Bur k
dor f
intr at
intr al
chap el
Ma ure
graph ic
pect oral
dew y
sail ing
odes m
colon el
iped e
cons ort
My z
zon al
raz ine
eship s
cen su
cen ob
ocal careous
Ag ath
west wardly
pron unci
bibli op
luc ub
itud inal
amorph ic
mob ile
pun ishment
inte gum
phag ia
deb ted
deb au
care er
Phil ip
orrh exis
osper mum
consc ience
ambul atory
continu ed
As iatic
honey moon
lon ge
prest idig
ubb ly
tram pol
tram mel
gul f
acanth ine
wear iness
butter fly
mith rid
vict ual
mother apy
carb uret
pie z
infer red
osh ing
epith alam
sect arian
issu ing
inex press
inex plic
metall ic
bind s
pir al
Sy bar
secret ary
oni osis
appl ied
epist em
lick ing
ostom idae
pole mic
ochem ist
philosoph ical
mig ration
unth ink
eland s
imit ating
ogloss ia
slo ven
atta ch
sty lo
raft s
ogly cer
brachy cephal
flex ion
pu bo
osyn thesis
ocol ostomy
typh lo
hammer ed
hir ud
vell um
stim ulation
omon ad
crop ping
agen etic
activ ate
activ ated
activ ating
activ ities
tempor al
bast in
univers al
thing um
indul ged
indul gence
whis ky
relig io
stor k
shel ter
indig est
orrha ph
bun ker
elig ibly
thym e
moun te
moun ting
Gra ec
optim istic
gluc ose
methyl ene
maj est
smith ing
German ic
gob lin
arab ian
iflor al
iflor ae
exist ential
compan y
brach ist
brach ial
copy right
puls ive
funct ions
absor bing
colum nar
For mic
jew ish
talk ing
ococc i
spac ing
express ive
Bas il
reb apt
chis el
opl ane
establ ish
scor pion
paint ing
Aust ro
advent ure
advent urer
fertil ized
equip onder
joc und
desp air
affect ing
trip ud
feas ible
product ively
fung us
pont ific
syl ph
unrep ent
oton us
appar ent
suggest ion
New man
pachy der
verte br
verte brate
process or
scot ch
expect ant
trot ting
influ x
shar ecrop
commend ation
omel us
shed ding
conserv ative
otechn y
condens ed
condens ing
condens ation
fid get
poison ed
desc ended
alkal ine
rast ic
embra ced
obed iently
foret hought
parap sych
ratt les
Dem et
assert ion
hered it
incre as
Ot t
caut ion
hul lo
rar gy
onn ie
prepar ed
conduct or
unint ellig
belie ver
belie ved
appropri ation
appropri ate
Gil bert
unequ al
ipot ence
accum ulation
accum ulated
orthod oxy
Str ong
ilib eral
undist ingu
trench ed
ophyl lin
antimon arch
laz ar
syll able
syll abled
accent ed
glott ic
moll usc
chry so
prost atic
elabor ate
endor f
endor sement
metap sych
pard on
uvi ate
acar pal
zeal ously
Hen ri
Hen ry
tess er
compet ition
flam boy
flagell ata
lance olate
obst et
scatter ed
onych ia
eud emon
inoc ulation
reper cuss
econom ical
bail iff
sop or
anag lyph
spr ings
combin ation
minister ial
mend ic
tunn el
oling ual
adren al
Dol ich
iamb ic
pla it
Mach iavell
viz ard
admir al
adelph ous
shear ing
ostra can
glos sol
expand ed
drunk en
ocoel ous
pericard ial
Bry n
Pur itan
lug ubri
wink le
apprehens ion
reduc ing
marg ined
Angl ic
deser ted
cultiv ated
Vir gin
gover ned
nath ous
alder man
remon et
odial ysis
diagn osis
peop ling
undep rec
aval ent
architect ural
prag mat
acchar ide
thron ed
decor ated
acron ym
disp elling
dece it
Hes per
Joh ann
number ed
nons uscept
shod dy
astron aut
cla use
affili ation
embod iment
dup lex
vow el
asym pt
allot ment
ceiv able
okines ia
anthrac ene
Arist ot
impass ion
Pri ap
wr ung
agric ultural
persu aded
slug gard
reneg ot
ohed ral
preced ent
neurop ath
adia phor
etern ity
amoeb a
Camp bell
Naz ar
Um bro
deli qu
toss ed
idym us
tereb inth
coch le
prolet arian
illum ined
pariet al
distingu ish
righte ously
Que en
epider m
paroch ial
wi ret
orec eptor
shif ting
convol vul
undem ocrat
therap ist
ospher es
advantage ous
lew d
circumst anti
Raph ael
sustain ing
cobal t
androg yn
endors ed
immig ration
fleck ed
drown ed
varn ish
ripen ing
exerc ise
hydraz ine
venge ance
oparas ite
oparas itic
insurrect ion
inad equ
adap ted
explan ation
uncal cul
vitri ol
euph u
chanter ic
puer per
ogal van
glam our
photos ensit
odermat itis
approb ation
album ose
mixt ure
environ ment
Boe h
Budd h
Finn o
Meth od
alab ast
orhynch us
thr illing
gua iac
cryst allo
orrhe ic
ocarb onic
cree per
oben zoic
ostemon ous
anglic an
bough ed
aryten oid
enthusiast ically
Dion ys
Yo ung
seign ior
malap rop
porcel ain
oeuv re
inve ig
terg ivers
quod lib
geneth li
infin ites
olem ma
besprink led
amphis ba
Hilde brand
verme il
vermil ion
maud lin
Ascle pi
aphthal ene
turquo ise
phalan ster
A ar
A sk
A cer
A gen
A den
A gn
A sper
A zer
A uber
A sher
B B
B un
B id
B ok
B ox
B ret
B au
B amb
B rag
B ee
B ett
B rum
B org
B rant
B aj
B eller
B iel
B ruc
B rend
C H
C N
C i
C ri
C ell
C ron
C rom
C ros
C ond
C att
C yt
C ott
C oy
C occ
C aul
C eph
C aper
D z
D il
D all
D up
D ah
D ru
D actyl
D rav
D AR
E D
E I
E O
E tr
E cu
E arl
F est
F rit
F enn
F rid
F ries
F uj
G le
G ast
G raph
G ott
G ross
G ris
G iac
G aud
G rub
G ray
G aul
G enes
G lyn
G lass
G nath
G wyn
H ot
H og
H im
H ass
H ock
H enn
H ank
H itt
H ux
H amm
H aus
H omal
H ook
I F
I li
I ron
I ric
I sle
J ab
J oc
J ak
K em
K ot
K ut
K op
K ap
K ob
K av
K ry
K ie
K ier
K ew
K oz
K now
K elly
K rish
L i
L och
L amb
L ern
L ean
L ittle
M und
M ind
M ore
M organ
M use
M idd
M anic
M osa
N W
N it
N est
N ell
N ass
N oth
O ed
O ff
O cy
O PS
P H
P M
P T
P rop
P au
P ett
P hol
P sil
P las
P neum
P rion
P tole
P orphy
R at
R as
R oc
R est
R ie
R ain
R ush
R ons
R ham
R hab
R iver
R hip
S B
S D
S Y
S n
S z
S it
S et
S as
S ut
S uc
S aw
S ok
S tri
S aff
S char
S uk
S pin
S alt
S uf
S truth
S piro
S adduc
T U
T s
T is
T ing
T it
T as
T os
T uc
T ier
T ort
T ah
T ann
T rag
T rach
T amar
U G
U s
U z
U ri
U bi
V C
V y
V ac
V est
V erg
V ander
W H
W M
W R
W W
W o
W en
W ey
W ash
W itt
W ern
W ashing
W ycl
X I
Y ar
Y ak
Z on
Z ab
Z ap
a eth
a uction
a uster
b op
b ong
b ire
b anc
b ors
b enn
b eld
b ella
b occ
b ishly
b rank
b uster
b ranchiate
b ashing
c ack
c au
c ich
c iph
c rist
c ited
d ite
d ure
d orn
d unc
d ong
d ink
d ue
d are
d ank
d ame
d ogn
d roll
d aco
d ared
d apper
d ancing
d aft
d utch
e os
e am
e ard
e gl
e ys
e au
e uro
f j
f iv
f end
f uck
f rem
f iable
f ald
f ading
f itter
f ief
f emor
g ess
g if
g und
g ha
g rom
g her
g ore
g ible
g ars
g unf
g not
g idd
g ape
g illed
g aging
g oli
g athered
g ifted
h ens
h ari
h ank
h eld
h ild
h itting
h aste
h olograph
i are
i els
i wa
i inae
i ece
i hu
i ometric
i atingly
i enced
j ic
j unc
j enn
j ama
k ut
k ant
k yl
k ry
k art
k inn
k ined
k uk
k ara
k ilo
l ir
l und
l ated
l one
l ific
l oment
l olly
m af
m unt
m ometer
m unch
m iter
m ural
m ante
m uster
m uz
n en
n ier
n ice
n ann
n omy
n ept
n osis
n ord
n els
n atch
n arg
n agg
n aps
n uzz
n odd
n imb
n inny
o ys
o ise
o of
o ily
o etic
o unt
o lette
p f
p k
p ely
p oid
p ong
p ates
p ome
p ail
p omat
p anther
r ille
r hem
r ella
r ula
r aria
r ils
s q
s ak
s ost
s ith
s ire
s ond
s inn
s arg
s agg
s eller
s worn
s malt
s affron
t ism
t av
t ura
t enter
t eller
t inder
t ween
t wee
u or
u que
v us
v ae
v ular
v ire
v ings
v ix
v iousness
v ets
v ying
w ary
w ha
w ept
w erg
w ining
w ires
w asting
w auch
y c
y u
y uck
y loid
z ac
z ak
z ink
z aff
z zo
z ai
z ada
Ġ Is
Ġ control
Ġ dash
er uc
er ve
in id
in um
in im
in ne
in cer
in fe
in ept
in ition
in jection
in complet
on os
on ce
on ier
on di
es ch
es burg
an ar
an ut
an ise
an idae
an other
an arth
at rous
at ella
at ival
at aly
at rophic
at roc
en os
en ant
en ine
en ial
en ings
en ance
en gar
en vis
en thal
en ko
en amor
en feoff
al man
al mo
al oe
al ector
al bert
al mond
ed aph
ed onian
ed iction
is i
is other
is rael
ic ro
ic ans
ic ose
ar ric
ar eg
ar idae
ar my
ar iform
ar ists
ar ina
ar riv
or p
or ad
or ter
or ect
or ide
or ative
or ableness
ing e
ing ed
ing ale
ing lor
un an
un ra
un ity
un mon
un ful
un act
un so
un tri
un att
un ren
un ru
un leg
un elect
un rum
un spl
un mus
un use
un liv
un plac
un init
un pret
un flag
un brid
un viv
un spar
un rav
un joy
un meas
un termin
un colon
un possess
un resol
un know
un merc
un melod
un ingen
un paint
un solemn
un success
un attract
un peace
un systemat
un protect
un spiritual
un ivoc
un antagon
un redeem
un regret
un ravel
un allevi
it le
it ium
it ized
it led
it ime
el k
el u
el an
el ar
el os
el ap
el ie
el ith
el ix
el bowed
ro qu
ro ast
ro so
ro str
ro ute
ro zen
re k
re em
re ag
re ate
re ment
re ating
re mer
re ich
re add
re bel
re vit
re cond
re class
re ared
re cert
re oblig
re curs
re mov
re format
re germin
re appra
le in
le es
le cy
le ger
le vi
le ural
le ading
le vig
le ased
st ated
st ung
st our
st ately
st aring
st ops
st hen
st rophy
st olon
ch l
ch u
ch re
ch ab
ch ans
ch ink
ch ipp
ch oked
us in
us ers
us se
us oid
us ible
us ory
il um
il ig
il ingly
il oid
il ah
il idae
il loid
ra i
ra uc
ra ker
ra do
ra ved
ra wing
ra ying
ra iser
ra ils
ol ph
ol yl
ol idae
ol ym
ol ina
et icalness
ph es
ph ing
ph ora
ph asia
ess ler
om ath
om ens
om onic
om imic
id ion
id ad
id est
id ism
id ins
id iously
ly re
ly ophil
ion ian
ac i
ac ier
ac rop
ac col
ac idae
ac ale
ac rot
ac ons
ac rin
ul ability
ul itis
ul aceae
ul itic
ul ativeness
ul cate
as hy
as her
as ma
as parag
ur is
ur ce
ur ush
ur edly
ur itis
th ul
th ist
th ong
th ios
th rong
th eme
th rash
ab ble
ab bed
ab use
ab iet
ab jur
ent r
ent ic
ent oc
ent ran
ent ery
ent iously
ent iousness
ent ozo
ent enary
em men
em etic
em oral
em akers
os em
os up
os ols
os yst
os quam
os auroid
am is
am ot
am ell
am ish
am ass
am mo
am med
am ping
ot ac
ot ous
ot ia
ot ie
ot rag
ot olu
ad ist
ad ae
ad ite
ad ept
ad ore
ad ors
ad mit
ad actyl
ad mira
ad umbr
ut ically
ut ility
ut ile
ut ably
og ol
og ia
og ies
og onia
og raft
um es
um bel
um brous
ist y
ist en
ist ery
ri able
ri fe
ri ety
ec y
ec z
ec ium
ec cent
ec dys
ec centric
op on
op ian
op old
op yg
op thal
op posed
op etalous
op agus
ter t
ter ies
iv i
iv ine
iv ize
iv ore
im ia
im ber
im min
im bal
im pur
im pound
im peach
oc ob
oc rin
oc oll
oc idal
oc aly
oc era
oc ortic
ag ap
ag yn
ag eless
ag rest
ag gy
iz or
iz ia
od id
per se
per one
per enn
per form
per vers
per empt
per til
per pendicular
ig al
non em
non pre
non mon
non her
non ven
non rec
non elect
non pur
non flu
non eff
non flag
non spirit
non sequ
non natur
non diff
non habit
non luc
non irrit
non sensu
non support
non sensit
non synchron
non analog
non neglig
non divis
ver ber
qu ing
qu ia
qu inal
qu iring
ap po
ap ode
ap ophys
ap ocry
ant ical
ant ik
ant iven
ia ev
su ed
su ad
su ade
sh t
sh ard
sh ang
sh ally
sh uff
sh orth
sh odd
sh uffle
sh akespe
lo u
lo in
lo zen
lo stom
ate a
ip et
ip end
ip ulate
ip etal
ip enser
if ter
if ex
if act
if rag
if acient
con es
con ical
con no
con viv
con caten
est ine
co vers
co vert
co uld
co inher
co chair
co uple
ell ant
ell ville
ell aceae
sp ed
sp rat
sp ots
sp ani
sp iri
sp oke
pro pan
pro ving
pro vision
pro thall
pro consul
and el
and om
and ine
and ie
and ric
and ered
ex ig
ex ud
ex otic
ex pound
ex ually
ex clam
ep ical
ep ico
ep ses
ism uth
und u
und ia
und ulate
ast oid
ast rol
ast ound
ast ylos
pre ap
pre init
pre mort
pre oblig
pre pub
pre varic
pre medit
ish op
ish man
ish edness
over def
over sweet
over tight
over infl
over throw
over represent
over intellectual
over impress
over whel
over simpl
over presumpt
ud i
ud y
ud ite
hy pol
hy br
hy gi
hy oidean
ib s
ib il
ib li
pl ers
pl ang
pl ater
pl ott
pl asia
pl uric
pl ains
pl anned
ill ae
ill ie
ill idae
ill ery
se b
se ab
se ep
se au
se bor
se ats
ob tur
ob reg
ob ase
he it
he ap
he ism
he be
tr ident
all od
all ia
all ies
all otri
ak ian
ak ite
ard ness
ard ian
ard iac
sc ans
sc rot
sc ross
sc rab
sc aly
sc aling
sc orch
sc rob
sc imit
de h
de en
de od
de bit
de gre
de oxy
de wed
de program
de humid
pr ing
pr ist
pr iss
pr iser
ow an
ow el
ow ers
ow att
ect oc
ect ions
ne k
ne on
ne as
ne ot
ne ying
av is
man ent
man iac
man iacal
ff ers
ke g
ke yn
ke eled
end en
end am
end oste
ay as
cl ack
cl ank
cl inal
cl atter
cl ipper
cl iffe
oph ist
oph ry
oph thor
oph ysis
oph armac
for b
for ging
for ked
for mance
bl in
bl ad
bl ous
bl est
bl iness
bl izz
bl ende
bl udge
bl otch
ost s
ost elic
ost rich
ost ratus
ry e
ind om
ind isc
ang ler
sub ur
sub mar
sub vent
sub sum
sub tot
sub compens
sub optim
sub infeud
bo under
bo ils
bo oted
bo unte
bo oby
olog istic
dis son
dis possess
dis curs
dis lod
dis infect
dis arrang
dis avow
te z
fl er
fl ier
fl ung
fl ore
fl are
fl ipp
fl ask
fl ims
fl aunt
fl unky
be ch
be gl
be ars
be amed
be foul
up ed
up ness
ath ing
ath am
art yr
out bra
out put
ub as
int ub
int rom
int rag
int ars
ht on
ass ic
ass us
ass et
ass ia
ass age
ass umed
cy tic
cy cloth
ator ious
ator rhea
mon om
mon te
mon ach
mon ds
mon ument
mon thly
ier o
inter reg
inter dict
inter ested
inter cept
inter sect
tra c
tra der
ens en
ens ign
ens ibility
ens ky
ely tro
ely trop
ta ir
ta inted
sy enite
par ot
par ast
par onom
par amy
mis es
mis gu
mis beg
sel ing
sel et
sel ement
sel ike
ach o
ach in
ment a
li able
li oma
ating s
ary a
ron ted
ust ed
ust ion
to ilet
we ir
ge ot
ge ons
res ili
res hip
res idence
ok i
ber th
ber ies
ran o
ran y
ran ia
ran king
ran cies
ric er
mat ured
mat ching
gl as
gl ute
act ino
ho ax
ho ugh
sem on
sem ine
sem ish
sem aph
sem antic
super flu
cor rid
cor pul
cor nut
met re
met ach
ins ip
ins ide
ins ert
ins epar
eg ar
col y
col let
col lim
col lig
ith ers
oid ae
ev id
ev ening
ev iew
ha ph
ha unch
ha zz
ha ute
pol is
pol ice
pol tro
pol ished
di x
di ate
di agon
di ethyl
po o
po ised
po ols
ograph ize
wo ad
wo oz
sl er
sl ush
sl ime
der el
der ived
pe b
pe es
pe en
pe ed
wh et
wh om
wh ill
wh ore
wh imper
ton y
ton us
ah aw
ans i
rom es
ult iplex
row d
ov iv
ov oid
min al
min str
min now
bar ry
ox yn
ym ite
ym aker
ret ri
ret ir
ret inal
ros ity
let es
let ive
let ted
br ute
br ittle
br inger
az en
az ing
az ia
her esi
ship ment
sk o
sk ib
sk ite
sk itt
sk illed
sk inny
of emoral
ey n
ey elet
yn ite
mer er
bur t
tri mes
tri quet
tri angular
tri phenyl
arch er
arch ip
arch ib
arch deacon
bra b
hal berd
gra ff
gra vi
ped er
ped dler
cop a
ling ual
gu ff
ax ies
ax ially
ene e
ene z
ene us
ann u
ann ish
au ks
mar l
mar s
mar qu
mar ia
mar mor
mar rying
cer y
cer amic
orm en
orm ality
fer d
fer m
fer ri
fer ry
fer ric
dec oy
dec oll
dec ks
dec liv
dec imal
dec rypt
ser ial
ser pul
ser rate
fe ign
fe eder
ash im
anth ium
anth aceous
str ation
aut op
aut ographic
aut omatic
aut umn
uns an
uns il
uns ad
uns af
uns olic
uns educ
uns ensit
unc as
unc ir
unc and
my z
my ing
my os
my cor
my til
ting ed
ung ird
ung state
Ch av
Ch ick
Ch ris
Ch ester
old a
An is
An ch
An dri
An dro
me i
ater ality
ign it
omy arian
omy aria
ept al
ept ical
coun ts
ain ic
ain able
inc ess
inc est
gen ial
gen eric
hyd ror
hyd rargy
gr idd
gr ump
gr ubb
och oer
och oan
ik ai
post lim
post master
sn eck
sn ook
sn oot
sn outed
ond ylic
inn umer
inn erv
rit ies
do ers
rig an
rig ger
rig mar
py ri
py ran
py rex
pos er
pos is
pos ite
ther ian
sw ir
sw ish
sw art
ma us
ma ul
cent ri
cent aur
cent rated
ler ite
cur i
cur ring
cur tail
cur sed
cur rant
etic ian
bed ly
bed ding
des al
des is
des erv
rel o
rel le
rel ent
rel and
rel eg
rol ine
our n
aph one
aph orism
che f
che at
che il
che ver
che ater
pseud onym
por a
por ic
por te
por cell
ren ces
the anthrop
the arted
ors ion
unt id
unt ort
unt une
ven es
ven ed
bre vet
bro ch
bro ke
bro ach
bro ugh
hyper sensu
pal ed
pal ing
pal let
pal aver
pal atal
pal aest
counter v
counter mand
roph yl
roph ytic
roph ilous
go it
go ers
rot ation
zo oge
sal in
sal iv
iform ity
pet ty
eth m
Al ar
Al am
Al der
Al ban
Al len
Al bert
dem es
dem it
enc ro
enc rypt
iss us
iss ie
orph an
amb ition
amb itious
pan op
pan sy
cont ested
cont igu
lin ch
ou ched
cap illar
fish ery
land au
land lord
que z
igh ing
sol der
reg re
reg ulation
reg ulated
ual istic
ari id
ari ot
ear l
poly par
poly zo
poly pod
poly chromat
ons ec
ull ian
ull ary
rh amn
off ensively
oss ed
cat o
cat ast
cat astroph
sch o
sch ia
sch me
acc io
acc ura
acc used
ict ical
ict ure
ste w
ste ers
ste ering
ste aler
har ps
har bing
bor rowing
bi ke
bi ophys
den ational
inf und
inf rat
inf ring
inf ield
inf inite
half penny
val ved
ars ine
can adian
bal k
bal ing
vol ute
trans miss
trans mog
unf at
unf all
unf act
unf ree
ole e
ole fin
ole cran
Ar men
Ar thur
vent ures
vent ilation
pat ro
sm id
sm elt
elect ros
elect rog
ient e
unn ed
ref u
comm ander
comm itted
cra yon
ping u
char ity
pred e
pred es
pri ap
pri mat
pri zes
phot olith
phot ochrom
hom es
hom ec
hom oi
squ all
squ irm
ett ish
ett ie
war st
war ning
war rior
hum p
ott ish
mes e
mes o
mes ot
mes oc
mes orrh
mes orh
press ing
press ur
onic ism
agn a
dra ff
gar go
vis c
vis cos
add it
add led
rest s
rest aur
rest oring
rest oration
rest riction
pra es
pra se
la isse
bel ab
bel ow
uch a
uch y
uch al
ze ug
ze phyr
uss i
hol ed
hol ly
vi rag
del ph
del ta
del to
del icate
del ighting
bit ters
tim bro
tim pan
foot ing
vers ing
vers ively
heart s
iff ing
pi ra
cir c
sur faced
sur feit
sur rounded
cle pt
hous em
mac rop
ored uction
uk ul
top sail
itch es
sil t
sil iqu
alk y
dy eing
micro b
rin ce
chi rog
chi ropod
tran selement
clo y
clo aked
ext ent
ext oll
ext reme
gy rost
comp unct
comp acted
ham per
ham ite
read s
read apt
read vert
iph ther
ather ing
bes mir
def lex
def ray
def oli
def ault
cut in
cut tle
aer a
aer ial
sec ration
emb ers
ili ated
spl atter
spl itter
ben umb
ben cher
ben edict
cin em
cin qu
cin ate
cin ae
cre et
cre ate
cre ative
cre atur
tet raph
tet ral
tet rac
eng es
eng ag
eng endered
ana i
umb ilic
rown s
rown ing
ss a
ris is
Mar cell
uro idea
antic lass
antic eremon
world liness
bu le
amin ase
ocy themia
gro ut
St re
St il
St one
St rom
St anis
div or
div est
div ine
div orce
osph enoidal
na iv
thy r
arp egg
far er
far in
far es
far ce
far ious
rect ion
zz ling
exc ited
exc use
mod i
mod el
mod ular
uncon cer
uncon sum
uncon sent
down y
fur ther
fur rowed
no od
no eic
oper cul
atch ing
bol ted
pers ed
enter on
da i
tel et
tel em
eff ac
eff lor
eff luv
oty ping
ball ing
blo omed
iter ate
prec anc
light ning
tor p
tor ref
tor rid
log ically
log omach
unre ck
unre present
unre proach
thal er
sym ph
sym pathy
du pl
ira sc
ira ss
ira bility
ogn osy
cher ies
pic nick
pic tured
pic tures
heter ozyg
El is
El ae
dri er
fil ing
fil ms
kin in
kin ase
conc ave
miss ile
band y
bul bar
bul gar
radi ated
amph ist
tal ism
mill ing
rad ically
rad ition
rad dle
emat ical
imp over
imp onder
rac ing
dog ged
dog gon
rif ier
extra vas
wa yl
lat ter
unp op
rew ed
opt ional
opt osia
mil es
pent as
ench yme
card iop
ba ul
lac ing
lac ert
chlor al
itor ium
iser ie
dev our
ranch ial
book ish
ese ed
arn ed
cond on
ops in
bet roth
glo bos
ban es
whe e
whe ez
arc otic
ophil ite
Le uco
ital ic
arg le
apt ic
ident ified
ident ification
ophor i
ophor aceae
cro ton
bill a
van cy
sin ap
jud a
wit s
wit ter
opod al
opod ial
vert ibleness
key es
agg a
agg io
electro de
electro cardi
hex agon
hex amet
hex apod
app ly
vir il
vir id
otrop in
iner ies
serv ic
serv ative
prov able
prov ided
gam es
unw ill
unw oman
bac chanal
eu x
eu char
eu phor
ios ities
ophag ism
ga ul
fact ive
fact ions
fa uc
ogram matical
emon ous
contra band
inst ig
inst anti
fol der
fol iation
hab ited
oct ap
iet ta
root ing
cha eta
omn isc
cot empor
woman ly
lock er
jack ing
phys ically
cr ushed
cr icket
cu bo
dam age
beg ging
cast ell
iment o
suc cub
suc ceeding
soc io
nit rog
bil ge
bil low
fib rous
iat o
iat ro
ior ite
vic iss
oly te
mas och
oon ing
ultra micro
hist ory
hist orically
meg ab
meg ather
rang er
rang ible
cord ial
dim e
dim orph
sens ation
sens ational
gent ian
anim ated
dig am
sper on
sat yr
En tom
oil ing
alg or
unm agn
turn s
fre es
lav ender
Hy ps
Hy dra
best owed
ini qu
unh es
unh ide
unh appy
round s
vul us
chor oid
chor ioid
ano idei
jur or
pap ist
unex plic
tu ft
unb us
cyst itis
angu age
emp ire
cho o
cho os
ocrat s
cephal us
test ud
sent ry
plat form
Con nell
Con fuc
omed ical
antim et
antim odern
unsh ar
gall on
lic ate
six teen
Gu er
class ical
Qu art
blow s
tax es
tax ation
vet ch
tract or
opol ist
opol itical
cycl oped
wall s
ange al
mad am
mad rig
acqu ainted
bic ol
bic ycl
dic yan
chol astic
nonre present
gram in
mol est
pneum o
Cor all
Cor inth
Her cul
Her acle
bos ch
iro c
oo ke
imet ers
aul ted
rent ed
agu an
appro ving
scar f
big ot
subst itution
Re ed
Re ich
hot el
ocarp aceae
stat ically
stat istic
fat al
hib it
sick ly
undis crimin
hip pur
unper suas
stem atic
bear ers
jug ous
phosph oric
asp iring
clim ax
clim acter
He in
He id
Har ri
Har mon
stri fe
stri ker
sept ic
lym phot
fort uned
De h
De uter
emin ent
Mal ay
semic ol
hur l
hur ric
tip s
with draw
Mer ri
anes ian
unpro sper
AS P
chin ch
Be h
Be z
pter yl
Cal am
oxid izing
fluor escence
ophyll aceae
dil ut
dil ap
gor ged
enz y
uncom bin
uncom prehens
cath ol
aling u
ogon idium
AC C
gang er
tot ter
orch ard
allow ed
unim ped
neu rog
call igraph
gran ular
educ ationally
Co al
Tur ner
ju ice
ston ed
uber culous
Par ac
tom ent
arist ocratic
plant ation
iot a
mir ror
wool en
cac ophon
rhy th
tam ar
tam bo
raw n
loy ally
loy alty
incon sequ
igen etic
action ary
ki el
nonex tr
ocyst otomy
ican ism
vac ation
oec y
oec iousness
roy alist
brown ed
craft s
Mor mon
cus p
rud iment
break s
hes ive
hop ping
mort ar
wig s
ife ud
yllab ical
cart s
grat uit
lu ke
oplas matic
paper ed
Man ich
hi el
rick s
pyro x
walk ers
icol ored
Cam el
stom ous
quest ioning
CS A
jac ently
unsc rut
tick s
claim s
paras itism
found ing
hier oph
sco op
ilit ated
opy osis
kind le
kind ling
watch es
watch ing
extr ins
hyster otomy
block s
block ade
ornith idae
clean er
Sc aph
branch ia
CA P
hall uc
adi ene
cyt oblast
ocar ps
qual ification
epig ast
flav our
rail way
prim ord
bem ad
offic ially
chap ter
chap lain
brush es
Ma id
agger y
pref oc
pref abric
nin ete
stud ent
immun ized
immun ization
iped s
cons angu
My ri
year n
year s
clin ical
dism ember
ocal cane
ook a
vig es
wax es
roman ia
stop ping
ski agraph
Ag ap
bob bin
pist ill
unab sor
direct or
author ize
did ym
did elph
amorph ism
agin aceae
impro ving
impro ved
deb ate
clav icular
ognath i
ognath ic
ognath ae
iel lo
thin ker
fool ed
fool hard
court ier
Fran cis
osper mia
nonper pet
overs ion
minist ry
exec ute
pread just
bour geois
continu ous
La od
atal ytic
prest ig
tram p
taut omer
commun ity
vib rat
wol fram
acanth us
patri otically
patri otism
cosm ogon
rush es
rush ing
urous ness
asper mous
ethn ological
ethn ologic
parad is
egg s
vict u
antit oxin
Mad ag
quar ant
hero ically
front ier
lun ar
wis ec
uncont empt
scap es
thread ing
ogy ne
profess ed
upl ift
chas ed
transl ated
sto op
odynam ometer
crack ed
crack ing
cred it
max illary
nondis crimin
place able
trad itional
aust rian
nonad apt
nonad just
consum ed
princ ess
brand ed
mechan ic
hipp opot
cool er
ostom i
build s
cic atri
fier c
uco id
wro th
incom pat
unth rift
phor us
epid emi
ogloss um
pill ared
slo e
atta chment
lec ith
correct ed
whit ec
econ omy
indust ry
assoc iate
othe istic
Cha ucer
fract ional
wid th
invol ve
invol ving
invol ved
storm s
ocol itis
conce al
conce ited
conce aled
dactyl ous
gib bet
stim ulating
frost y
trick ed
acro ter
promis ing
kick s
plow ed
tens ion
uousness es
indul ging
ahed ra
relig iously
tha umat
satis fy
satis fying
bronch ial
buc cal
atis ect
arbit r
thym ol
reflect ed
estim ating
plas ma
articul ately
oxal ate
oxal ine
substant ially
spoken ness
respons ive
contract ion
sque ez
noncom pet
Mil ton
determin ed
jew eled
orh iza
rah s
agglut inating
express ed
dens it
spong i
spong y
tru ant
scor but
weigh ed
employ er
employ ee
psy chiat
proph es
forg ive
fertil ize
liter ary
depend ent
Gl oss
cram med
tat too
rept ion
cook s
pren ot
feas ance
feas ibility
feas ibleness
ocyan ine
ocyan ogen
product iveness
tour mal
ungu ent
illust ration
illust rated
clus iveness
indis pens
myr rh
caly p
Ev angel
govern ing
mug w
rend ered
strip ped
corp uscular
recogn ized
otyp ography
veget able
Amer ic
Min ne
saf ety
alle ged
otechn ical
bim ill
fid uc
isse ur
change able
embro ider
pollin ated
ochron ous
Ple as
wester ly
chief tain
embra cing
speck led
observ ance
devel oped
command ing
cip ient
fring e
kid ney
undes ign
assert ive
incre ase
incre ased
flood ed
Slav o
fun ambul
fut ur
narc otic
vacc ination
aber ry
ogyn y
supr ar
belie ve
Gil ber
bach ite
mell iflu
scra per
teleg ram
oic ous
orousness es
adjust ed
adjust ment
spark le
spark ling
hypost as
trid ec
ophyl ly
ferment ation
crib able
antimon ate
RE P
learn ing
aggress ion
forec los
condition ing
integr ation
mun ific
element al
sta unch
chev ron
prud ent
critic ism
elabor ately
perip at
endor se
glor ious
cereb ell
decol on
malle able
depress ed
distribut ion
analy zing
princip al
sciss ors
zeal ousness
chamber ed
dir ty
langu age
chand ler
noncont empt
ianth us
decom pens
Anth rop
pyram idal
Jacob in
Brit t
Sp ong
brim med
fund amental
acus ia
irrig ated
examin er
obacter ium
intellig ence
autos uggest
extract ion
evolution ist
canth ar
olys es
ultr al
econom ically
imag ination
matur ity
matur eness
matur ely
mercur ial
secut ive
catech umen
Je h
Je ho
John son
cili ate
usur p
adam ant
paral ysis
hydra ulic
chloro form
Lab yrinth
kiss ed
pug il
tog ether
elastic ity
champ agn
accommod ating
entre prene
opa que
antep en
ophosph oric
understand ing
polit ically
myri ad
ignor ant
Ori gen
hind u
sort ile
apter ous
viscer al
empir ically
execut or
opinion ated
acknowled gment
Phyl l
hing e
swell ed
admir ing
adelph ia
iang ular
decar box
pericard itis
octa hed
octa hedron
perine ph
lox odrom
ahu at
trig ger
troubl es
gover ness
hect oc
wur st
search ing
diagn ost
diagn ostic
Ah mad
Jes u
Mich el
Ny ct
porphy ry
electroph ys
onit rile
isob ut
phas er
otrich ia
shro uded
assim ilation
weap oned
insist ent
tempt ation
fortun ate
fortun ately
Max im
fang ed
argu ed
dissol ution
crot ch
cortic osterone
fran c
chau ffe
ubst ituted
okin ase
counsel ed
affili ated
handic ap
volution ary
address ed
except ional
Eth el
gour d
nour ished
attent ion
emonger ing
embl ance
ultim ate
laugh ing
acquis ition
hazard ous
Dra con
Sta ff
unfe ign
therapeut ic
therapeut ics
Bir ch
chos lov
igg ins
poetic o
righte ousness
Hind u
map le
anx ious
accompl ished
rivet ed
odrom ous
forem ost
bere ft
teles cop
dus ky
jes uit
phras ed
attend ance
modest ly
Eug en
Ster cor
aque ous
empy re
spik ed
peas ant
incap ac
Raph a
trol ley
vide ot
shr unk
obser ved
deg ree
independ ently
assur ance
traged y
evis cer
mensu rable
valet udin
purchas ed
compart ment
ophyce ous
Olym p
ripen ed
epiz oot
ugu ese
announc ement
encumber ed
restra int
anticom merc
foli aged
tinct ured
ganglion ic
total itarian
Kim ber
tex tured
tung st
atl antic
agr arian
exam ined
obsc ure
obrom ide
interject ional
grasp ing
ochromat ism
Hyd roph
ospondyl ous
journ ment
oplank tonic
duodec im
armo ur
chatt el
asbest os
imens ional
confl ict
clair voy
blan ched
affl ict
entertain ment
arthrod ial
epigram mat
eloqu ent
Ced ar
scy the
prescri bed
telec om
expend iture
Jose ph
Pale o
Yan ke
Yan kee
rha phy
atax ia
chari ot
asphal t
terrest rial
anthem um
ubercul osis
explos ion
Asp id
dru id
fres co
grous e
nunc up
confound ing
boule vard
swiv el
electrod ial
opericard ium
pettico at
phoenic ian
Swed en
suns et
ifug ous
probos c
scree ch
ylind rical
endow ment
cyr t
mongol ian
ometab olic
uncontra dict
Sag itt
bibl ical
fess ional
kale id
fulfill ment
decas ual
avern ous
austral ian
dren ched
smar ag
apoth eg
intox ication
romal acia
housew if
Spen cer
bambo oz
aneur ys
charlat an
Judae o
tomat o
lyc anthrop
ocub ital
akines is
misce gen
genuf lect
ephe be
Gla uc
Lamar ck
mex ican
coura ged
neure ct
biodeg rad
defib rill
unpict orial
Meph ist
Sov iet
ograv ure
odiast asis
hobbled e
Lincol n
Sele uc
Stah l
vood oo
A pr
A ron
A mat
A post
A ther
A por
A bi
A lect
A mid
A gam
A dol
A cad
A BS
A rane
B D
B F
B it
B ly
B am
B ant
B ian
B ism
B ost
B az
B ax
B ale
B ery
B uff
B ott
B la
B del
B als
B arc
B ux
B rent
B elt
B rus
B IS
B hut
B otry
C F
C in
C is
C ous
C ib
C ind
C up
C ock
C row
C au
C ash
C rot
C oman
C ather
C lav
C oral
C raw
C OS
C ruc
C aen
D h
D ac
D as
D og
D ir
D ud
D ust
D rom
D ros
D ane
D unn
D oll
D iph
D iat
D oral
D omin
D ruc
E W
E X
E y
E un
E us
E um
E sp
E mer
E my
E vel
E rin
E aster
E van
E pig
E lys
F r
F at
F os
F ad
F ag
F ow
F aw
F orm
F ield
F lam
G at
G ul
G ut
G ag
G az
G rig
G eral
G rad
G rap
H G
H in
H ous
H ers
H ath
H ick
H ach
H of
H att
H ek
H ild
H yr
H agg
H iro
H oney
H utch
I G
I X
I do
I van
I MS
J C
J ur
J ut
J ude
J ez
J ersey
K w
K id
K all
K ost
K aw
K we
K ans
K itt
K rem
K rug
L F
L G
L R
L iz
L ia
L ex
L ily
L uth
L ipp
L uper
M yl
M ust
M ort
M ok
M ans
M ix
M yt
M oss
M eli
M aud
M ai
M elic
M aul
N T
N al
N is
N ant
N ach
N oct
N atal
O ra
O ron
O ster
O ste
O del
O rang
O len
O sman
P es
P os
P ec
P ig
P ast
P ud
P ak
P ard
P ry
P ack
P rom
P are
P rest
P omer
P ubl
P til
P elt
P atric
P russ
R F
R ag
R ae
R ust
R ho
R ha
R ome
R ou
R uff
R ena
R aim
R aven
R icard
R idge
S Q
S og
S co
S ep
S hal
S cal
S cul
S unn
S uff
S cri
S pit
S yr
S idd
S cha
S ocrat
S inic
S tern
S qual
S amar
S wan
S wart
S weet
T z
T ot
T um
T ant
T ell
T ect
T ax
T ars
T ern
T rum
T oy
T iph
T arn
T rap
T iber
T rud
T imon
T wel
U sk
V ad
V ass
V atic
V iper
W or
W id
W ab
W att
W right
Y en
Y ugoslav
Z en
Z or
Z ul
Z ur
Z ad
Z ola
Z eph
a or
a ide
a fe
a uct
a ortic
b d
b ock
b add
b uss
b umb
b dell
c d
c ier
c aw
c abl
c ates
c ations
c ina
c acc
c ze
c ency
c els
c oty
c ella
c oder
c icon
c reek
c retin
c rater
c ithal
d h
d ical
d und
d ium
d ha
d ates
d air
d imm
d ales
d uring
d ada
d hob
d iddle
d rows
e i
e j
e ol
e ir
e ering
e umer
e eship
f os
f op
f ian
f ated
f ick
f iness
f ice
f istic
f rot
f ias
f rid
f unk
f rap
f elled
f rip
f lem
f uge
f oment
f ights
f athers
g ist
g ine
g end
g ating
g ah
g are
g uss
g urn
g ishly
g izz
g liest
g ips
g lowing
g houl
h d
h ine
h up
h int
h ile
h enn
h amb
h unch
h ats
h itter
h ector
h utch
h adj
h ectic
i om
i ism
i ational
i arian
i rian
i ades
i uret
j is
j ot
j ord
j ade
j aded
j avel
k r
k w
k un
k ro
k ion
k ous
k ist
k est
k ell
k te
k orn
k lut
l ous
l ates
l uct
l ones
l enesses
l izard
l asciv
m le
m oc
m yl
m ary
m ingly
m ice
m itic
m ites
m ured
m ute
m elled
m ended
m nes
m awk
m uffle
n d
n g
n ol
n ion
n ex
n ium
n ative
n aceae
n ere
n ake
n iac
n ipp
n apper
n aming
n ails
o it
o am
o ast
o ine
o ite
o ie
o oth
o af
o ik
o ists
o form
o oms
p ical
p over
p uc
p anth
p iss
p amb
p ina
p uro
p imp
p ony
p ope
p aean
p impl
p awk
p ococ
r ith
r uns
r unc
r ised
r ines
r ently
r era
r ylike
s os
s og
s ated
s inter
s sel
s ars
s org
s ester
s usc
s itting
s ien
s ettle
s anton
t ion
t ish
t ind
t eli
t ref
t uff
t aped
t ittle
t issu
t ucker
u w
u en
u rom
u pled
u rolith
v ess
v im
v ity
v ak
v ingly
v yn
v ane
v arian
v eyed
v iver
v oting
v indict
v avas
w d
w iz
w end
w ong
w ides
w elt
w reat
w inner
w anted
w iper
w rast
w iki
w retched
x in
y al
y ol
y em
y ir
y ack
y go
y ons
y uk
y clo
y phil
z et
z om
z ad
z ec
z ate
z uc
z ily
z ones
Ġ (
Ġ fast
Ġ wheel
Ġ system
Ġ has
Ġ driver
Ġ brake
Ġ that
Ġ wheels
er r
er on
er at
er ad
er ting
er ection
in ac
in ent
in ap
in se
in cal
in ations
in edly
in ousness
in burg
in oper
in ister
in put
in compl
in eleg
in amor
in apprec
in contin
in apprehens
in carnal
on k
on ch
on ated
on te
on ie
on ge
on ets
on uclear
es o
es ium
es men
es oter
an h
an op
an non
an ak
an hal
an ilic
an fract
at u
at ra
at ess
at op
at res
at omy
at ations
at oll
at itious
en ies
en ven
en ix
en esis
en fold
en rav
en fee
en unci
en force
en emy
en carnal
en forcement
al n
al os
al op
al iz
al ant
al ang
al ah
al pen
al gy
al van
al dehyd
al cyon
ed ul
ed ale
ed rine
is n
is ent
is ible
is ions
is ements
is ople
is oche
is otherm
ic ot
ic ia
ic her
ic aul
ic iency
ic ulturist
ar ent
ar am
ar ap
ar yl
ar oid
ar istic
ar ca
ar box
ar ming
ar inate
or f
or ated
or ach
or atory
or ado
or adial
ing a
ing led
ing ress
un un
un iv
un od
un ate
un ind
un wor
un ary
un her
un ple
un ve
un rot
un hol
un oper
un psych
un mot
un iser
un organ
un lib
un oxid
un present
un retro
un educ
un judic
un object
un clam
un cert
un appl
un cles
un medic
un ruff
un access
un employ
un fertil
un compass
un palat
un support
un refract
un symbol
un accept
un ferment
un alien
un alter
un rival
un worship
un cheer
un vener
un analog
un splend
un particular
un anticip
un attribut
un skill
un origin
un benign
un appeas
un mystic
it ra
it ae
it ment
it sch
it ner
it iferous
it sa
el ies
el ial
el ay
el ins
el ight
el age
el inesses
el emet
ro z
ro an
ro ter
ro dom
ro ught
ro bes
ro ids
ro gue
ro strate
re ff
re cy
re ys
re bur
re au
re att
re aff
re use
re tain
re ux
re cycl
re fort
re broad
re produc
re object
re possess
re issu
re calcul
re import
re eval
re trench
re accent
re alloc
re interrog
re investig
re util
re upholster
re minis
le u
le ian
le ath
le ans
le ville
le ve
le por
le ms
le hr
st i
st ac
st ant
st int
st ability
st arn
st arg
st romat
st omata
st ubb
st atured
st henic
ch om
ch ag
ch ib
ch av
ch az
ch ose
ch uff
ch ute
ch ino
ch oly
ch elic
ch olic
ch illed
ch ican
ch asm
ch ubb
ch eval
ch umm
ch utz
ch lamyd
us hy
us ha
us ionist
il ag
il and
il ie
il ide
il ations
il itate
il agin
il obate
ra is
ra ad
ra ze
ra ves
ra iner
ol itis
ol ines
ol ency
ol ently
ol ts
ol iate
ol eric
et id
et ched
et iol
ph ane
ph ered
ph aryngeal
ess ent
om id
om um
om ber
om itic
om eral
om ened
om ba
om ening
om ectomy
om elia
id us
id id
id as
id em
id oid
id edness
id edly
id iousness
id ingness
ly cer
ion ization
ac u
ac en
ac ic
ac ate
ac ock
ac ling
ac cost
ul ly
ul ina
ul oidea
as cer
as cent
as cri
as see
as eptic
ur ess
ur ingly
ur edness
ur ations
ur ons
ur ias
ur bit
ur geon
th el
th ol
th os
th am
th rop
th rew
th iot
th resh
th iev
ab u
ab os
ab ut
ab ia
ab ies
ab ster
ab att
ab by
ab atic
ab ject
ab oo
ab bled
ab iding
ab omas
ab irrit
ab sciss
ab normal
ent op
ent ail
ent rep
ent angled
ent rance
ent ennial
em ac
em bo
em ake
em arg
em inate
em ason
os cent
os mot
os pit
os mol
os hi
os plen
os epalous
os acral
os keleton
am u
am ol
am ad
am ir
am ie
am ble
am our
am erous
am era
am meter
am bling
ot ive
ot ton
ot rache
ot olaryng
ad us
ad ver
ad ism
ad ow
ad miss
ad vice
ad ores
ad verb
ad minister
ad mired
ous ian
ut ure
ut ero
ut ilize
ut ilization
og o
og ie
og reg
og ean
um ia
um bed
um bral
um inescent
ist us
ist ress
ri pt
ri ously
ri mes
ri band
ri ves
ri ums
ri vic
ec u
ec ate
ec ial
ec ologist
ec ake
ec chym
op tr
op rop
op ean
op posing
ter ous
ter ase
im ation
im ah
im ore
im ba
im pled
im ulating
im puls
im mov
im moder
im otor
oc um
oc ative
oc ain
oc rit
oc athartic
oc currence
oc audal
oc avernous
ag at
ag ly
ag ry
ag eness
ag ious
ag io
ag les
ag enic
ag ination
ag itate
ag lia
ag orean
ag ynous
iz an
iz al
iz ant
od yl
od uoden
per n
per ch
per im
per ish
per ith
per ru
per ient
per ipter
per center
ig or
ig el
ig le
ig as
ig ans
ig ged
ig rad
ig ital
non g
non ide
non des
non den
non val
non vol
non sec
non vit
non not
non soc
non sed
non pop
non solid
non tang
non intro
non punct
non tempor
non ponder
non temper
non subt
non expans
non refract
non abstract
non uniform
non prevent
non tyrann
non necess
non benefic
non applic
non nutrit
non digest
non imput
non derog
ver sy
ver son
ver tedly
ver gence
qu en
qu ine
qu ite
qu ak
qu ass
qu ier
qu ah
qu ash
qu ail
qu ina
qu oting
qu irk
ap on
ap ical
ap ric
ap pan
ap pa
ap etal
ap oge
ap roned
ap ophyseal
ant or
ant ically
ant ied
ant ired
ant ifer
ant igen
ant iliberal
ia u
ir ite
ir ror
ir rupt
ir relev
su z
su dor
su sten
su rety
sh un
sh em
sh um
sh ish
sh ins
sh arn
sh aker
sh ading
sh abb
sh ove
sh ouse
sh aman
sh aven
sh rift
sh ingle
ness ler
ical es
lo k
lo is
lo ic
lo ess
lo am
lo bato
ip il
ip od
ip pi
ip uncture
if ty
if eral
con i
con in
con dy
con soc
con vul
con gel
con termin
con geal
con triv
con strain
con taining
est es
est an
est ri
est able
est ial
est ral
est rous
est ival
co ot
co att
co ele
co eli
co hol
co opt
co upl
co quet
co host
ell osis
sp ous
sp od
sp and
sp ry
sp ick
sp ru
sp icul
sp ored
sp awn
pro se
pro cl
pro cer
pro ve
pro pen
pro cell
pro tox
pro script
pro xen
pro gnath
and os
and ite
and ering
and rine
ex ing
ex cl
ex position
ex orbit
ex ampl
ex uvi
ex ulcer
ex pense
ex tenu
ex ertion
ex ceed
ex acerb
ep ut
ep ox
ep sin
ep ots
ep onym
ep iped
ep ipe
ian n
ian ity
ism o
und ul
und am
und iss
und ream
und ifferent
und imin
und issol
und estruct
und egener
ast ics
ast rophot
ast ylar
ine au
pre com
pre test
pre acqu
pre fig
pre ading
pre incl
pre bend
pre arrang
pre insinu
over pr
over bl
over sub
over der
over head
over str
over rig
over cap
over mod
over master
over stud
over emph
over general
over content
over sensit
over fond
over femin
over liberal
over delic
over deliber
over luxur
over thwart
over sentimental
ud g
hy ge
hy pa
hy rac
ib as
ib ia
ib ness
pl u
pl im
pl ied
pl ute
pl enic
pl atter
pl otted
pl aid
ill og
ill ated
ill osis
se iz
se ash
se ater
uc ine
uc cal
uc cess
ae on
ae ic
ae gag
ob is
ob os
ob sid
ob dur
ob nox
ob rachial
ob streper
ob ibli
ite ous
he er
he et
he ur
he ist
he bra
he ft
he els
tr ing
tr el
tr ice
tr unn
tr ude
all ite
all ike
all igator
ak ov
ard a
ard ine
sc yt
sc amp
sc yth
de z
de em
de per
de for
de be
de ft
de fac
de aer
de bug
de gust
de alloc
de hort
de escal
de floccul
de bouch
pr it
pr ion
pr and
pr ises
ow ard
ow itz
ce a
ce as
ce able
ect inate
ect oral
ne z
ne er
ne ic
ne ous
ne od
ne uter
av at
av able
man ud
man ger
man ual
man ently
man gon
man sville
man gab
yl oric
ke it
end al
end ite
end ocard
ay ment
ay ans
ay ana
cl ut
cl ist
cl ath
cl ick
cl aud
cl ump
cl utch
cl abber
oph an
oph aryng
ive y
for n
for ens
for fe
for ere
for bidden
ug ain
ug ged
bl ish
bl anc
bl ott
bl ingness
bl ister
bl elike
bl ended
bl uster
bl abber
com posit
ost em
ost ri
ost ele
ost ear
ost ern
ost yly
ost ylous
ost ernum
ry ph
ind ep
ind elic
ind uce
ang es
ang an
ang ent
ang os
ang ue
ang ered
ang les
ang ulate
sub s
sub cut
sub contract
sub sult
sub administ
sub introd
bo h
bo unc
bo uk
bo urn
bo omer
olog ous
olog ia
dis su
dis ast
dis rep
dis sid
dis bow
dis cour
dis play
dis ulph
dis sever
dis infl
dis semin
dis embar
dis affect
dis suas
dis agree
dis consol
dis concer
dis ambigu
te ac
te ener
te eming
fl es
fl it
fl ir
fl ub
fl ank
fl uff
fl itter
fl abb
fl ipper
fl abber
fl aught
be kn
be vel
be aded
be gler
be wilder
up set
up start
ath ist
ath olithic
ath letic
ath lete
ath arsis
art istically
art isan
out re
out ine
out bar
out ble
out war
out bul
out field
out pop
out spar
out cav
out start
ub ian
ub ular
int um
int ros
int rig
int rad
int rap
int ended
ass ing
ass el
ass ie
ass ass
ass igned
ass assin
cy pr
ick el
ick ered
ator e
ator iums
mon ic
mon ies
mon ob
mon ium
mon ophy
mon tic
mon ophth
ier ite
inter trans
inter vent
inter diff
inter jac
inter nod
inter common
inter mitt
tra it
tra ining
tra wl
ful filling
ens il
ens ation
ens ia
ta che
sy ss
par i
par acy
par sley
mis re
mis ap
mis sp
mis be
mis bi
mis chief
mis arrang
mis constr
sel dom
sel ves
ach ol
ach ine
ach io
ach ord
ide e
ide o
li ker
li hood
raph ic
mo i
mo an
mo ur
mo ust
mo lec
aw ar
aw are
aw ake
aw aken
ace o
ary an
ust om
ust rine
to ir
to var
we aver
ort al
ge w
ge op
ge ost
res al
res is
res ence
res har
res ubst
ok ont
ber a
ber yll
ran cor
ran ium
ran ular
ran spar
ran som
ric ity
ric orn
ric och
one a
one ure
mat t
mat el
mat oid
mat idae
mat ively
mat ics
low n
low ered
gl ist
gl ia
gl ings
gl ump
gl ads
gl enoid
act inic
ho ed
ho ist
ho ard
ho oter
red es
red und
red etermin
red uce
red isse
red irect
sem ite
sem ile
sem pit
sem idi
sem imet
super b
super in
super human
rop ically
cor ing
cor eg
cor pus
met te
met rect
ins at
ins oc
ys s
eg h
col ite
col ub
col oss
col liqu
oid a
oid in
oid ism
oid ally
car f
car i
car at
car ess
car ous
car ib
car min
car ved
car pent
car ried
car cass
under ing
under gradu
ev ing
ev sky
ha f
ha in
ha vers
ha emor
ha fted
ha unting
ha user
pol ly
pol der
ight ness
di el
di urn
di acon
di kary
di arr
ille y
po ch
po ther
po oh
po zz
po uring
po etical
ograph al
ograph ing
ograph ia
wo ols
well er
sl es
sl ut
sl ag
sl ipp
sl ugg
sl opp
sl inging
der mal
so or
so ff
so ub
pe k
pe per
pe ast
fo o
fo u
wh ol
wh id
wh inn
eter ic
[...]
