{"<s>":0,"<pad>":1,"</s>":2,"<unk>":3,"<mask>":4,"!":5,"\"":6,"#":7,"$":8,"%":9,"&":10,"'":11,"(":12,")":13,"*":14,"+":15,",":16,"-":17,".":18,"/":19,"0":20,"1":21,"2":22,"3":23,"4":24,"5":25,"6":26,"7":27,"8":28,"9":29,":":30,";":31,"<":32,"=":33,">":34,"?":35,"@":36,"A":37,"B":38,"C":39,"D":40,"E":41,"F":42,"G":43,"H":44,"I":45,"J":46,"K":47,"L":48,"M":49,"N":50,"O":51,"P":52,"Q":53,"R":54,"S":55,"T":56,"U":57,"V":58,"W":59,"X":60,"Y":61,"Z":62,"[":63,"\\":64,"]":65,"^":66,"_":67,"`":68,"a":69,"b":70,"c":71,"d":72,"e":73,"f":74,"g":75,"h":76,"i":77,"j":78,"k":79,"l":80,"m":81,"n":82,"o":83,"p":84,"q":85,"r":86,"s":87,"t":88,"u":89,"v":90,"w":91,"x":92,"y":93,"z":94,"{":95,"|":96,"}":97,"~":98,"¡":99,"¢":100,"£":101,"¤":102,"¥":103,"¦":104,"§":105,"¨":106,"©":107,"ª":108,"«":109,"¬":110,"®":111,"¯":112,"°":113,"±":114,"²":115,"³":116,"´":117,"µ":118,"¶":119,"·":120,"¸":121,"¹":122,"º":123,"»":124,"¼":125,"½":126,"¾":127,"¿":128,"À":129,"Á":130,"Â":131,"Ã":132,"Ä":133,"Å":134,"Æ":135,"Ç":136,"È":137,"É":138,"Ê":139,"Ë":140,"Ì":141,"Í":142,"Î":143,"Ï":144,"Ð":145,"Ñ":146,"Ò":147,"Ó":148,"Ô":149,"Õ":150,"Ö":151,"×":152,"Ø":153,"Ù":154,"Ú":155,"Û":156,"Ü":157,"Ý":158,"Þ":159,"ß":160,"à":161,"á":162,"â":163,"ã":164,"ä":165,"å":166,"æ":167,"ç":168,"è":169,"é":170,"ê":171,"ë":172,"ì":173,"í":174,"î":175,"ï":176,"ð":177,"ñ":178,"ò":179,"ó":180,"ô":181,"õ":182,"ö":183,"÷":184,"ø":185,"ù":186,"ú":187,"û":188,"ü":189,"ý":190,"þ":191,"ÿ":192,"Ā":193,"ā":194,"Ă":195,"ă":196,"Ą":197,"ą":198,"Ć":199,"ć":200,"Ĉ":201,"ĉ":202,"Ċ":203,"ċ":204,"Č":205,"č":206,"Ď":207,"ď":208,"Đ":209,"đ":210,"Ē":211,"ē":212,"Ĕ":213,"ĕ":214,"Ė":215,"ė":216,"Ę":217,"ę":218,"Ě":219,"ě":220,"Ĝ":221,"ĝ":222,"Ğ":223,"ğ":224,"Ġ":225,"ġ":226,"Ģ":227,"ģ":228,"Ĥ":229,"ĥ":230,"Ħ":231,"ħ":232,"Ĩ":233,"ĩ":234,"Ī":235,"ī":236,"Ĭ":237,"ĭ":238,"Į":239,"į":240,"İ":241,"ı":242,"Ĳ":243,"ĳ":244,"Ĵ":245,"ĵ":246,"Ķ":247,"ķ":248,"ĸ":249,"Ĺ":250,"ĺ":251,"Ļ":252,"ļ":253,"Ľ":254,"ľ":255,"Ŀ":256,"ŀ":257,"Ł":258,"ł":259,"Ń":260,"er":261,"in":262,"on":263,"es":264,"an":265,"at":266,"en":267,"al":268,"ed":269,"is":270,"ic":271,"ar":272,"or":273,"ing":274,"un":275,"it":276,"el":277,"ro":278,"re":279,"le":280,"st":281,"ch":282,"us":283,"il":284,"ra":285,"ol":286,"et":287,"ph":288,"ess":289,"om":290,"id":291,"ly":292,"ion":293,"ac":294,"ul":295,"as":296,"ur":297,"th":298,"ab":299,"ent":300,"em":301,"os":302,"am":303,"ot":304,"ad":305,"ous":306,"ut":307,"og":308,"um":309,"ist":310,"ri":311,"ec":312,"op":313,"ter":314,"iv":315,"im":316,"oc":317,"ag":318,"iz":319,"od":320,"ation":321,"per":322,"ig":323,"non":324,"ver":325,"qu":326,"ap":327,"ant":328,"ia":329,"ir":330,"su":331,"sh":332,"ness":333,"ical":334,"lo":335,"ate":336,"ip":337,"if":338,"con":339,"est":340,"co":341,"ell":342,"sp":343,"pro":344,"and":345,"ex":346,"ep":347,"ian":348,"ism":349,"ers":350,"und":351,"ast":352,"ine":353,"able":354,"pre":355,"ish":356,"over":357,"ud":358,"hy":359,"ib":360,"pl":361,"ies":362,"ill":363,"ity":364,"se":365,"uc":366,"ae":367,"ob":368,"ite":369,"he":370,"tr":371,"all":372,"ak":373,"ard":374,"sc":375,"'s":376,"ial":377,"de":378,"pr":379,"ow":380,"ce":381,"ect":382,"ne":383,"av":384,"man":385,"yl":386,"ff":387,"ke":388,"end":389,"ay":390,"cl":391,"oph":392,"ive":393,"for":394,"ug":395,"bl":396,"com":397,"ost":398,"ated":399,"ry":400,"ind":401,"ang":402,"sub":403,"bo":404,"olog":405,"eness":406,"dis":407,"te":408,"fl":409,"be":410,"ie":411,"up":412,"ath":413,"ct":414,"art":415,"out":416,"ically":417,"ub":418,"int":419,"ize":420,"ht":421,"wor":422,"ass":423,"ack":424,"cy":425,"ick":426,"ator":427,"mon":428,"ier":429,"inter":430,"tra":431,"ful":432,"ens":433,"ely":434,"ta":435,"sy":436,"par":437,"mis":438,"sel":439,"ach":440,"ment":441,"ide":442,"li":443,"ious":444,"raph":445,"mo":446,"aw":447,"ating":448,"ace":449,"ary":450,"ron":451,"ust":452,"to":453,"we":454,"ort":455,"ge":456,"res":457,"ok":458,"ber":459,"ran":460,"ric":461,"one":462,"mat":463,"low":464,"gl":465,"act":466,"ho":467,"red":468,"sem":469,"super":470,"rop":471,"cor":472,"ock":473,"met":474,"ins":475,"self":476,"ys":477,"ingly":478,"ium":479,"eg":480,"col":481,"ith":482,"oid":483,"car":484,"ure":485,"less":486,"ility":487,"under":488,"ev":489,"ha":490,"pol":491,"ight":492,"pt":493,"di":494,"ille":495,"po":496,"ograph":497,"wo":498,"well":499,"sl":500,"der":501,"so":502,"pe":503,"fo":504,"wh":505,"ise":506,"ized":507,"ted":508,"iness":509,"eter":510,"ton":511,"ular":512,"ah":513,"idae":514,"ally":515,"age":516,"ans":517,"ram":518,"rom":519,"rat":520,"ult":521,"row":522,"oth":523,"ov":524,"min":525,"bar":526,"ox":527,"ym":528,"ret":529,"ros":530,"let":531,"br":532,"az":533,"ice":534,"her":535,"ship":536,"ization":537,"sk":538,"of":539,"ey":540,"ger":541,"ence":542,"abl":543,"yn":544,"mer":545,"bur":546,"tri":547,"arch":548,"ative":549,"bra":550,"hal":551,"ty":552,"gra":553,"mic":554,"ose":555,"ped":556,"cop":557,"ling":558,"gu":559,"ax":560,"ene":561,"ville":562,"ann":563,"au":564,"ied":565,"mar":566,"ich":567,"cer":568,"orn":569,"orm":570,"fer":571,"tw":572,"dec":573,"asi":574,"izing":575,"ser":576,"fe":577,"head":578,"led":579,"ple":580,"ash":581,"like":582,"anth":583,"str":584,"aut":585,"ve":586,"uns":587,"unc":588,"ale":589,"ile":590,"my":591,"ting":592,"ung":593,"Ch":594,"old":595,"An":596,"ively":597,"edness":598,"me":599,"ker":600,"ogen":601,"iest":602,"ree":603,"ability":604,"ily":605,"ater":606,"ign":607,"cal":608,"omy":609,"ept":610,"ong":611,"coun":612,"ain":613,"istic":614,"ore":615,"med":616,"own":617,"quasi":618,"ire":619,"af":620,"inc":621,"ates":622,"gen":623,"hyd":624,"men":625,"gr":626,"och":627,"ik":628,"post":629,"ably":630,"sn":631,"ond":632,"ont":633,"ane":634,"inn":635,"seud":636,"rit":637,"do":638,"rig":639,"ble":640,"py":641,"pos":642,"ings":643,"ther":644,"sw":645,"ma":646,"ink":647,"ations":648,"ster":649,"ck":650,"cent":651,"ableness":652,"ler":653,"son":654,"cur":655,"ology":656,"mal":657,"osis":658,"etic":659,"bed":660,"hem":661,"des":662,"rel":663,"ush":664,"rol":665,"ities":666,"our":667,"anc":668,"ance":669,"ific":670,"aph":671,"che":672,"ome":673,"air":674,"back":675,"tur":676,"att":677,"pseud":678,"aff":679,"ue":680,"por":681,"ren":682,"the":683,"ised":684,"ors":685,"unt":686,"ven":687,"bre":688,"bro":689,"hyper":690,"uck":691,"phal":692,"pal":693,"edly":694,"counter":695,"ement":696,"roph":697,"wood":698,"go":699,"are":700,"rot":701,"zo":702,"enn":703,"sal":704,"iform":705,"pet":706,"io":707,"ix":708,"ugh":709,"yt":710,"uct":711,"eth":712,"Al":713,"dem":714,"ously":715,"itis":716,"ition":717,"iveness":718,"enc":719,"ord":720,"iss":721,"orph":722,"ft":723,"amb":724,"ered":725,"hand":726,"pan":727,"ele":728,"cont":729,"pres":730,"ify":731,"lin":732,"ible":733,"omet":734,"ou":735,"cul":736,"cap":737,"ged":738,"fish":739,"land":740,"que":741,"ru":742,"igh":743,"sol":744,"atory":745,"ail":746,"reg":747,"ists":748,"ual":749,"ari":750,"oman":751,"ear":752,"erous":753,"ising":754,"rag":755,"poly":756,"ons":757,"ull":758,"rh":759,"off":760,"oss":761,"ank":762,"cat":763,"ics":764,"ase":765,"eli":766,"leg":767,"ten":768,"rep":769,"lor":770,"sch":771,"ina":772,"acc":773,"ery":774,"work":775,"ict":776,"ste":777,"aceae":778,"rec":779,"har":780,"bor":781,"bi":782,"ring":783,"aceous":784,"den":785,"kn":786,"inf":787,"les":788,"omat":789,"syn":790,"half":791,"sul":792,"ions":793,"val":794,"ars":795,"can":796,"bal":797,"vol":798,"ory":799,"itic":800,"eld":801,"trans":802,"unf":803,"ole":804,"mak":805,"form":806,"ward":807,"pa":808,"ca":809,"ousness":810,"Ar":811,"vent":812,"ines":813,"ias":814,"last":815,"pat":816,"ional":817,"sm":818,"elect":819,"by":820,"ient":821,"unn":822,"eck":823,"ref":824,"ee":825,"comm":826,"cra":827,"ping":828,"but":829,"char":830,"pred":831,"aur":832,"pri":833,"phot":834,"ral":835,"hom":836,"itt":837,"uff":838,"pur":839,"rog":840,"squ":841,"rid":842,"anti":843,"eless":844,"dep":845,"uth":846,"ett":847,"ern":848,"ational":849,"port":850,"ps":851,"war":852,"hum":853,"ott":854,"dom":855,"mes":856,"mel":857,"ura":858,"press":859,"onic":860,"agn":861,"rum":862,"ere":863,"yll":864,"dra":865,"mult":866,"gar":867,"vis":868,"ined":869,"add":870,"rest":871,"proof":872,"pra":873,"vel":874,"la":875,"ird":876,"bel":877,"stra":878,"uch":879,"oy":880,"ze":881,"uss":882,"hol":883,"equ":884,"ress":885,"vi":886,"arian":887,"del":888,"bit":889,"iously":890,"tim":891,"ological":892,"foot":893,"vers":894,"heart":895,"way":896,"iff":897,"bon":898,"pi":899,"inal":900,"cir":901,"twice":902,"pen":903,"sur":904,"hyp":905,"iousness":906,"icul":907,"rous":908,"atic":909,"cle":910,"hous":911,"ency":912,"ade":913,"mac":914,"ored":915,"rem":916,"uk":917,"top":918,"itch":919,"ometer":920,"sil":921,"alk":922,"dy":923,"fac":924,"esis":925,"micro":926,"oscop":927,"ner":928,"rin":929,"ross":930,"ught":931,"gre":932,"yg":933,"chi":934,"amp":935,"tran":936,"clo":937,"oll":938,"ext":939,"eb":940,"ek":941,"gy":942,"atur":943,"cri":944,"comp":945,"cum":946,"aster":947,"flu":948,"org":949,"iferous":950,"hor":951,"ham":952,"read":953,"eral":954,"lect":955,"iph":956,"ather":957,"wise":958,"ark":959,"orth":960,"bes":961,"def":962,"cut":963,"ging":964,"aer":965,"oma":966,"sec":967,"emb":968,"ologist":969,"ley":970,"pot":971,"ially":972,"ild":973,"ld":974,"ili":975,"spl":976,"sid":977,"ets":978,"ben":979,"cin":980,"lim":981,"part":982,"conf":983,"ert":984,"ake":985,"tail":986,"sych":987,"cre":988,"burg":989,"tet":990,"ters":991,"Pro":992,"eng":993,"ject":994,"ana":995,"als":996,"she":997,"rist":998,"ently":999,"pin":1000,"izes":1001,"unk":1002,"umb":1003,"rown":1004,"hydro":1005,"spir":1006,"ote":1007,"weed":1008,"els":1009,"flow":1010,"ss":1011,"dist":1012,"water":1013,"ris":1014,"Mar":1015,"ette":1016,"vit":1017,"uro":1018,"mor":1019,"oh":1020,"otic":1021,"ified":1022,"ography":1023,"wind":1024,"ites":1025,"antic":1026,"nesses":1027,"right":1028,"long":1029,"world":1030,"Sh":1031,"bu":1032,"amin":1033,"unch":1034,"ocy":1035,"plic":1036,"aped":1037,"lar":1038,"pul":1039,"ts":1040,"gro":1041,"mus":1042,"hood":1043,"St":1044,"div":1045,"osph":1046,"na":1047,"ries":1048,"ving":1049,"thy":1050,"arp":1051,"far":1052,"rect":1053,"zz":1054,"scri":1055,"gal":1056,"ule":1057,"exc":1058,"mod":1059,"unct":1060,"prot":1061,"omorph":1062,"phil":1063,"uncon":1064,"down":1065,"ering":1066,"fur":1067,"ield":1068,"ved":1069,"no":1070,"oper":1071,"ification":1072,"atch":1073,"mind":1074,"fully":1075,"bol":1076,"ew":1077,"rod":1078,"pers":1079,"ited":1080,"enter":1081,"da":1082,"mid":1083,"bas":1084,"tel":1085,"ata":1086,"izer":1087,"eff":1088,"erg":1089,"oty":1090,"ball":1091,"cross":1092,"ella":1093,"phen":1094,"ame":1095,"other":1096,"ental":1097,"occ":1098,"blo":1099,"iter":1100,"prec":1101,"exp":1102,"wing":1103,"imm":1104,"iac":1105,"light":1106,"tor":1107,"odont":1108,"hard":1109,"log":1110,"cos":1111,"cry":1112,"jo":1113,"ingness":1114,"unre":1115,"thal":1116,"stone":1117,"sym":1118,"du":1119,"ira":1120,"headed":1121,"tro":1122,"ula":1123,"ogn":1124,"ibility":1125,"cher":1126,"phon":1127,"board":1128,"bird":1129,"sum":1130,"sup":1131,"pic":1132,"esh":1133,"heter":1134,"tar":1135,"tem":1136,"El":1137,"dri":1138,"fil":1139,"kin":1140,"conc":1141,"bat":1142,"miss":1143,"band":1144,"ks":1145,"semi":1146,"bul":1147,"ean":1148,"radi":1149,"amph":1150,"fore":1151,"gon":1152,"sim":1153,"asc":1154,"ural":1155,"psych":1156,"ened":1157,"isms":1158,"aud":1159,"line":1160,"mot":1161,"pit":1162,"atively":1163,"ishness":1164,"tal":1165,"mill":1166,"arth":1167,"rad":1168,"emat":1169,"imp":1170,"ages":1171,"quin":1172,"not":1173,"king":1174,"mit":1175,"rac":1176,"ulate":1177,"shaped":1178,"Ph":1179,"dog":1180,"aden":1181,"sing":1182,"ately":1183,"uses":1184,"ured":1185,"Car":1186,"ides":1187,"ute":1188,"rif":1189,"extra":1190,"las":1191,"anal":1192,"wa":1193,"iate":1194,"ked":1195,"lat":1196,"oe":1197,"oz":1198,"ves":1199,"house":1200,"high":1201,"ka":1202,"obia":1203,"ave":1204,"bell":1205,"rup":1206,"rub":1207,"lex":1208,"rust":1209,"yr":1210,"ying":1211,"black":1212,"cock":1213,"isation":1214,"unp":1215,"bow":1216,"lam":1217,"sor":1218,"fulness":1219,"sa":1220,"ellow":1221,"rew":1222,"opt":1223,"ators":1224,"ded":1225,"mil":1226,"pent":1227,"ench":1228,"bin":1229,"card":1230,"sac":1231,"ba":1232,"lac":1233,"chlor":1234,"ants":1235,"ike":1236,"dip":1237,"aria":1238,"itor":1239,"ef":1240,"ti":1241,"iser":1242,"dev":1243,"ranch":1244,"hel":1245,"acet":1246,"antly":1247,"book":1248,"wort":1249,"lip":1250,"aring":1251,"lab":1252,"ese":1253,"arn":1254,"cond":1255,"ops":1256,"quad":1257,"bet":1258,"white":1259,"organ":1260,"glo":1261,"ats":1262,"ara":1263,"use":1264,"rap":1265,"thor":1266,"ban":1267,"whe":1268,"arc":1269,"ophil":1270,"Le":1271,"ital":1272,"umin":1273,"rate":1274,"isc":1275,"rim":1276,"sulph":1277,"mut":1278,"swe":1279,"arg":1280,"apt":1281,"In":1282,"ius":1283,"loc":1284,"eric":1285,"ident":1286,"urn":1287,"thes":1288,"ister":1289,"ophor":1290,"full":1291,"smo":1292,"cro":1293,"pass":1294,"aved":1295,"ony":1296,"phy":1297,"bill":1298,"van":1299,"unst":1300,"sin":1301,"idi":1302,"cour":1303,"ibl":1304,"jud":1305,"wit":1306,"opod":1307,"uble":1308,"tre":1309,"vert":1310,"key":1311,"hed":1312,"agg":1313,"electro":1314,"ologic":1315,"emia":1316,"aking":1317,"Am":1318,"ech":1319,"inv":1320,"esc":1321,"ester":1322,"ishly":1323,"three":1324,"istically":1325,"aker":1326,"elike":1327,"fire":1328,"gn":1329,"plan":1330,"ender":1331,"ired":1332,"point":1333,"ancy":1334,"ifying":1335,"rock":1336,"ras":1337,"hex":1338,"app":1339,"eyed":1340,"circum":1341,"bod":1342,"tub":1343,"vir":1344,"aries":1345,"otrop":1346,"faced":1347,"ms":1348,"ool":1349,"iner":1350,"opter":1351,"serv":1352,"ai":1353,"bing":1354,"orr":1355,"ract":1356,"prov":1357,"matic":1358,"oxy":1359,"enic":1360,"chn":1361,"ids":1362,"neum":1363,"aryn":1364,"anthrop":1365,"chem":1366,"ipp":1367,"resp":1368,"det":1369,"gam":1370,"icular":1371,"ude":1372,"box":1373,"Th":1374,"cam":1375,"ening":1376,"unw":1377,"astic":1378,"ographic":1379,"bac":1380,"eu":1381,"iod":1382,"idd":1383,"elled":1384,"tric":1385,"gast":1386,"ios":1387,"atter":1388,"ump":1389,"ming":1390,"ality":1391,"ison":1392,"ution":1393,"ophag":1394,"ysis":1395,"ga":1396,"ises":1397,"its":1398,"elling":1399,"berry":1400,"icalness":1401,"fact":1402,"two":1403,"ena":1404,"ola":1405,"imper":1406,"maker":1407,"fa":1408,"ky":1409,"otomy":1410,"ogram":1411,"ians":1412,"atin":1413,"omer":1414,"emon":1415,"contra":1416,"set":1417,"rev":1418,"oplast":1419,"spec":1420,"prod":1421,"inst":1422,"spect":1423,"ments":1424,"fol":1425,"eled":1426,"rough":1427,"ode":1428,"udd":1429,"Ne":1430,"hab":1431,"elle":1432,"oct":1433,"iet":1434,"mist":1435,"root":1436,"cha":1437,"rab":1438,"oste":1439,"blood":1440,"omn":1441,"ums":1442,"aged":1443,"liv":1444,"ioned":1445,"Mc":1446,"cot":1447,"fin":1448,"field":1449,"pil":1450,"woman":1451,"ico":1452,"word":1453,"lock":1454,"ino":1455,"arter":1456,"ched":1457,"eman":1458,"jack":1459,"lit":1460,"pel":1461,"phys":1462,"omb":1463,"mouth":1464,"ope":1465,"ibly":1466,"sen":1467,"ament":1468,"cr":1469,"day":1470,"nos":1471,"look":1472,"tain":1473,"lad":1474,"put":1475,"path":1476,"sle":1477,"ilt":1478,"ete":1479,"hyl":1480,"making":1481,"cu":1482,"dam":1483,"ux":1484,"urg":1485,"prof":1486,"bush":1487,"pod":1488,"ubl":1489,"lif":1490,"nut":1491,"chy":1492,"beg":1493,"cast":1494,"ephal":1495,"iment":1496,"oder":1497,"suc":1498,"lap":1499,"soc":1500,"idal":1501,"rip":1502,"sho":1503,"illa":1504,"colored":1505,"lessness":1506,"free":1507,"nit":1508,"pale":1509,"inae":1510,"flower":1511,"Sch":1512,"bil":1513,"fib":1514,"iat":1515,"agon":1516,"ander":1517,"pseudo":1518,"ior":1519,"lan":1520,"lib":1521,"vic":1522,"oly":1523,"ider":1524,"mas":1525,"oon":1526,"ultra":1527,"hist":1528,"nal":1529,"after":1530,"flo":1531,"play":1532,"meg":1533,"rical":1534,"rang":1535,"yellow":1536,"ones":1537,"lem":1538,"gly":1539,"horn":1540,"rost":1541,"cord":1542,"Un":1543,"sun":1544,"elic":1545,"ream":1546,"empt":1547,"dim":1548,"fir":1549,"sed":1550,"sens":1551,"omen":1552,"ianism":1553,"ced":1554,"gent":1555,"pop":1556,"anim":1557,"orous":1558,"ulation":1559,"short":1560,"new":1561,"aver":1562,"orial":1563,"iron":1564,"double":1565,"dig":1566,"iol":1567,"une":1568,"ential":1569,"ots":1570,"ophy":1571,"usc":1572,"omic":1573,"ophobia":1574,"rich":1575,"green":1576,"gold":1577,"iable":1578,"sper":1579,"corn":1580,"four":1581,"burn":1582,"dr":1583,"sat":1584,"sign":1585,"inate":1586,"ita":1587,"ape":1588,"En":1589,"bec":1590,"oil":1591,"rant":1592,"alg":1593,"unm":1594,"bound":1595,"ogenic":1596,"turn":1597,"fly":1598,"unic":1599,"ibleness":1600,"Or":1601,"stand":1602,"ished":1603,"ney":1604,"tin":1605,"ero":1606,"ald":1607,"ray":1608,"oscope":1609,"cel":1610,"fre":1611,"ration":1612,"vo":1613,"olic":1614,"ynam":1615,"lav":1616,"law":1617,"pig":1618,"oric":1619,"Hy":1620,"best":1621,"sph":1622,"ini":1623,"unh":1624,"emic":1625,"prop":1626,"va":1627,"round":1628,"ection":1629,"ytic":1630,"dia":1631,"len":1632,"night":1633,"vul":1634,"onia":1635,"arm":1636,"chor":1637,"plac":1638,"encephal":1639,"gle":1640,"nar":1641,"ination":1642,"ano":1643,"ener":1644,"star":1645,"chrom":1646,"spe":1647,"jur":1648,"pap":1649,"unex":1650,"oses":1651,"ival":1652,"ower":1653,"ket":1654,"lay":1655,"mast":1656,"fishes":1657,"fast":1658,"tu":1659,"inous":1660,"amm":1661,"unb":1662,"cyst":1663,"init":1664,"aded":1665,"preh":1666,"ford":1667,"angu":1668,"tongu":1669,"oral":1670,"emp":1671,"ocephal":1672,"cover":1673,"mann":1674,"aqu":1675,"magn":1676,"cho":1677,"tho":1678,"ece":1679,"ocrat":1680,"noncon":1681,"cephal":1682,"cas":1683,"fron":1684,"gel":1685,"tit":1686,"vag":1687,"ety":1688,"je":1689,"test":1690,"ining":1691,"ato":1692,"ado":1693,"ucle":1694,"sent":1695,"ives":1696,"ulated":1697,"osp":1698,"plat":1699,"oblast":1700,"Con":1701,"bag":1702,"inic":1703,"omed":1704,"antim":1705,"blue":1706,"ences":1707,"ometry":1708,"ali":1709,"unsh":1710,"bab":1711,"bull":1712,"cab":1713,"gall":1714,"ken":1715,"lic":1716,"lig":1717,"san":1718,"tic":1719,"aly":1720,"ora":1721,"stick":1722,"suff":1723,"draw":1724,"bri":1725,"lers":1726,"liness":1727,"net":1728,"sand":1729,"six":1730,"ads":1731,"worm":1732,"Gu":1733,"elec":1734,"stock":1735,"ilities":1736,"ures":1737,"antip":1738,"sea":1739,"actyl":1740,"coc":1741,"enth":1742,"icon":1743,"leaved":1744,"iled":1745,"class":1746,"amine":1747,"boy":1748,"minded":1749,"fle":1750,"just":1751,"ela":1752,"ilo":1753,"uter":1754,"rix":1755,"ivity":1756,"hearted":1757,"Qu":1758,"blow":1759,"cess":1760,"ionist":1761,"ended":1762,"hole":1763,"cod":1764,"ever":1765,"town":1766,"athy":1767,"ales":1768,"itive":1769,"ria":1770,"tern":1771,"ologically":1772,"tax":1773,"cell":1774,"lith":1775,"uv":1776,"iting":1777,"omies":1778,"inted":1779,"rolog":1780,"Mon":1781,"bot":1782,"don":1783,"ea":1784,"vet":1785,"romat":1786,"chron":1787,"rib":1788,"irt":1789,"pret":1790,"tract":1791,"Per":1792,"eling":1793,"ils":1794,"ida":1795,"cow":1796,"berg":1797,"snow":1798,"hu":1799,"ni":1800,"pant":1801,"hypo":1802,"ards":1803,"ectomy":1804,"tetra":1805,"ason":1806,"open":1807,"opol":1808,"cycl":1809,"soft":1810,"fed":1811,"hen":1812,"mag":1813,"master":1814,"past":1815,"side":1816,"vin":1817,"var":1818,"wall":1819,"thro":1820,"deep":1821,"time":1822,"born":1823,"cran":1824,"gest":1825,"era":1826,"alism":1827,"rian":1828,"ange":1829,"awn":1830,"sky":1831,"aim":1832,"mad":1833,"acqu":1834,"roll":1835,"ometric":1836,"bic":1837,"cit":1838,"dic":1839,"dish":1840,"sar":1841,"sap":1842,"chol":1843,"uring":1844,"iver":1845,"nonre":1846,"iums":1847,"ges":1848,"gram":1849,"mol":1850,"wash":1851,"allo":1852,"alize":1853,"ogam":1854,"iation":1855,"pneum":1856,"room":1857,"stall":1858,"ches":1859,"flag":1860,"idea":1861,"gress":1862,"Cor":1863,"Her":1864,"bos":1865,"bib":1866,"get":1867,"iro":1868,"oo":1869,"tab":1870,"imet":1871,"ante":1872,"sweet":1873,"fall":1874,"ood":1875,"ror":1876,"til":1877,"unin":1878,"olith":1879,"plum":1880,"illing":1881,"boat":1882,"rong":1883,"struct":1884,"Col":1885,"aul":1886,"mous":1887,"rent":1888,"onian":1889,"agu":1890,"izz":1891,"appro":1892,"illed":1893,"scar":1894,"big":1895,"buck":1896,"sman":1897,"voc":1898,"obi":1899,"subst":1900,"tox":1901,"ances":1902,"pip":1903,"tap":1904,"onder":1905,"iling":1906,"ending":1907,"Re":1908,"aus":1909,"hot":1910,"iced":1911,"ocarp":1912,"leaf":1913,"stat":1914,"acy":1915,"istical":1916,"opath":1917,"neph":1918,"inesses":1919,"looking":1920,"fat":1921,"hib":1922,"sick":1923,"tree":1924,"alt":1925,"uria":1926,"osity":1927,"tered":1928,"undis":1929,"hair":1930,"palae":1931,"horse":1932,"bron":1933,"dol":1934,"hip":1935,"ses":1936,"wed":1937,"unper":1938,"elet":1939,"stem":1940,"etically":1941,"bear":1942,"aux":1943,"script":1944,"ces":1945,"ding":1946,"dry":1947,"mur":1948,"ateness":1949,"ativeness":1950,"reen":1951,"loid":1952,"heav":1953,"intra":1954,"bus":1955,"jug":1956,"inu":1957,"aled":1958,"chan":1959,"try":1960,"aked":1961,"ays":1962,"monger":1963,"tooth":1964,"benz":1965,"cand":1966,"mos":1967,"nor":1968,"ye":1969,"itation":1970,"phosph":1971,"asp":1972,"clim":1973,"spirit":1974,"Bar":1975,"Ger":1976,"He":1977,"Har":1978,"fri":1979,"vas":1980,"win":1981,"rain":1982,"ents":1983,"ocer":1984,"flat":1985,"cad":1986,"fing":1987,"ani":1988,"stri":1989,"glut":1990,"stere":1991,"single":1992,"gri":1993,"sept":1994,"ala":1995,"rose":1996,"usion":1997,"lym":1998,"conn":1999,"spin":2000,"trich":2001,"fort":2002,"bled":2003,"disc":2004,"grand":2005,"De":2006,"mand":2007,"pick":2008,"emin":2009,"aps":2010,"cost":2011,"kee":2012,"eye":2013,"Mal":2014,"hep":2015,"penn":2016,"alist":2017,"ophthal":2018,"worth":2019,"semic":2020,"oidal":2021,"fig":2022,"hur":2023,"iers":2024,"tip":2025,"with":2026,"onym":2027,"thick":2028,"abol":2029,"ada":2030,"sequ":2031,"angi":2032,"brid":2033,"boro":2034,"silver":2035,"Mer":2036,"bott":2037,"ny":2038,"tol":2039,"anes":2040,"phar":2041,"izable":2042,"fal":2043,"saw":2044,"unpro":2045,"step":2046,"pled":2047,"lessly":2048,"soul":2049,"therm":2050,"AS":2051,"aj":2052,"cular":2053,"chin":2054,"aco":2055,"acid":2056,"ologies":2057,"Be":2058,"nic":2059,"neck":2060,"oes":2061,"pter":2062,"umber":2063,"spor":2064,"Cal":2065,"bug":2066,"god":2067,"run":2068,"sess":2069,"recon":2070,"omin":2071,"ading":2072,"ager":2073,"oxid":2074,"ogenesis":2075,"gener":2076,"human":2077,"fluor":2078,"fold":2079,"iaceae":2080,"vest":2081,"any":2082,"anis":2083,"icate":2084,"urs":2085,"ema":2086,"cler":2087,"ophyll":2088,"grass":2089,"aint":2090,"dil":2091,"gor":2092,"pens":2093,"ivers":2094,"iast":2095,"Anti":2096,"Mel":2097,"Non":2098,"sav":2099,"phyt":2100,"asis":2101,"oco":2102,"unders":2103,"scop":2104,"blast":2105,"present":2106,"drop":2107,"ko":2108,"nec":2109,"enz":2110,"uncom":2111,"ching":2112,"otted":2113,"antis":2114,"moon":2115,"semip":2116,"slip":2117,"Bra":2118,"cath":2119,"dest":2120,"sville":2121,"viv":2122,"anic":2123,"aling":2124,"rein":2125,"ime":2126,"ift":2127,"precon":2128,"ways":2129,"eph":2130,"gyn":2131,"hold":2132,"rated":2133,"ona":2134,"ama":2135,"peri":2136,"eller":2137,"color":2138,"rug":2139,"unl":2140,"ols":2141,"ogon":2142,"agog":2143,"meter":2144,"AC":2145,"Pan":2146,"ioc":2147,"writ":2148,"elt":2149,"osaur":2150,"umer":2151,"irl":2152,"spar":2153,"iber":2154,"outs":2155,"ographer":2156,"mark":2157,"footed":2158,"aryng":2159,"Bl":2160,"gang":2161,"iated":2162,"rer":2163,"rite":2164,"tot":2165,"escent":2166,"orch":2167,"chond":2168,"oped":2169,"odon":2170,"apy":2171,"ishing":2172,"prer":2173,"blind":2174,"ographical":2175,"ogenous":2176,"dro":2177,"gh":2178,"gas":2179,"ril":2180,"vice":2181,"wide":2182,"zer":2183,"arl":2184,"stre":2185,"chal":2186,"omal":2187,"retro":2188,"wards":2189,"Sal":2190,"allow":2191,"unim":2192,"neu":2193,"rosis":2194,"good":2195,"earth":2196,"cav":2197,"sex":2198,"uous":2199,"anat":2200,"ared":2201,"uls":2202,"ades":2203,"ophys":2204,"call":2205,"gran":2206,"hon":2207,"iant":2208,"natur":2209,"ozo":2210,"rill":2211,"vie":2212,"yle":2213,"reat":2214,"ulating":2215,"quis":2216,"pros":2217,"scler":2218,"coll":2219,"plex":2220,"pleas":2221,"position":2222,"Ed":2223,"cup":2224,"dys":2225,"fra":2226,"iqu":2227,"alb":2228,"educ":2229,"rupt":2230,"Co":2231,"Tur":2232,"cet":2233,"cant":2234,"fam":2235,"gem":2236,"hod":2237,"ju":2238,"som":2239,"ya":2240,"eler":2241,"ston":2242,"ifies":2243,"ected":2244,"inder":2245,"uber":2246,"ranchi":2247,"thought":2248,"Par":2249,"rically":2250,"itan":2251,"itable":2252,"rack":2253,"ospor":2254,"utter":2255,"perf":2256,"apor":2257,"seed":2258,"neuro":2259,"rank":2260,"broad":2261,"fru":2262,"pid":2263,"rut":2264,"tom":2265,"ication":2266,"arist":2267,"used":2268,"quer":2269,"plant":2270,"neg":2271,"clad":2272,"bling":2273,"whip":2274,"hemat":2275,"Ber":2276,"Cy":2277,"Pal":2278,"dent":2279,"iot":2280,"mir":2281,"onom":2282,"itut":2283,"acter":2284,"ifer":2285,"wool":2286,"BS":2287,"cac":2288,"cate":2289,"dial":2290,"home":2291,"rhy":2292,"tam":2293,"tum":2294,"unad":2295,"raw":2296,"olite":2297,"loy":2298,"dead":2299,"resh":2300,"actin":2301,"face":2302,"incon":2303,"alized":2304,"eme":2305,"igen":2306,"angle":2307,"action":2308,"Christ":2309,"rograph":2310,"brom":2311,"bank":2312,"ki":2313,"nov":2314,"some":2315,"yo":2316,"ature":2317,"itting":2318,"nonex":2319,"tear":2320,"lets":2321,"cloth":2322,"ocyst":2323,"crypt":2324,"Ad":2325,"bone":2326,"hog":2327,"haw":2328,"mud":2329,"sam":2330,"tle":2331,"ican":2332,"roid":2333,"etal":2334,"ases":2335,"Ste":2336,"bred":2337,"fav":2338,"ja":2339,"vac":2340,"zing":2341,"itter":2342,"sport":2343,"spring":2344,"tress":2345,"ector":2346,"need":2347,"atingly":2348,"multip":2349,"ground":2350,"Bo":2351,"MS":2352,"bid":2353,"dale":2354,"han":2355,"oec":2356,"sus":2357,"sep":2358,"itate":2359,"roy":2360,"ulous":2361,"ogl":2362,"appe":2363,"bearing":2364,"mont":2365,"ritic":2366,"school":2367,"viol":2368,"brown":2369,"cult":2370,"ience":2371,"mia":2372,"pack":2373,"rus":2374,"zed":2375,"road":2376,"styl":2377,"olar":2378,"ury":2379,"supra":2380,"compl":2381,"angel":2382,"oney":2383,"craft":2384,"oscopy":2385,"Mor":2386,"cus":2387,"mach":2388,"nas":2389,"rine":2390,"rud":2391,"vill":2392,"incl":2393,"icity":2394,"check":2395,"etical":2396,"iding":2397,"ulph":2398,"glass":2399,"break":2400,"small":2401,"tailed":2402,"smooth":2403,"produc":2404,"prehens":2405,"Hal":2406,"esth":2407,"aro":2408,"osoph":2409,"quick":2410,"prel":2411,"ups":2412,"ogenetic":2413,"dle":2414,"zen":2415,"oned":2416,"ito":2417,"cham":2418,"olat":2419,"ask":2420,"irre":2421,"shot":2422,"Ros":2423,"hes":2424,"hil":2425,"hop":2426,"mort":2427,"wig":2428,"chur":2429,"rach":2430,"olig":2431,"idium":2432,"asm":2433,"oge":2434,"person":2435,"ife":2436,"demon":2437,"encies":2438,"yllab":2439,"doc":2440,"fet":2441,"gun":2442,"gum":2443,"lie":2444,"lier":2445,"inated":2446,"ether":2447,"hea":2448,"lik":2449,"hook":2450,"pound":2451,"inned":2452,"omata":2453,"IS":2454,"Wh":2455,"cart":2456,"gan":2457,"grat":2458,"lu":2459,"now":2460,"zyg":2461,"erv":2462,"asia":2463,"emer":2464,"oplas":2465,"shop":2466,"cyan":2467,"paper":2468,"lymph":2469,"Man":2470,"grow":2471,"hi":2472,"iar":2473,"mam":2474,"nom":2475,"pup":2476,"rick":2477,"uzz":2478,"esp":2479,"leuc":2480,"eta":2481,"abb":2482,"eps":2483,"asted":2484,"achy":2485,"izations":2486,"pyro":2487,"macro":2488,"wheel":2489,"Mac":2490,"fair":2491,"lion":2492,"mul":2493,"ned":2494,"pom":2495,"rink":2496,"wick":2497,"eding":2498,"itz":2499,"race":2500,"ipar":2501,"comb":2502,"liest":2503,"rans":2504,"sound":2505,"uction":2506,"bacter":2507,"Ge":2508,"Mo":2509,"eas":2510,"ien":2511,"tight":2512,"walk":2513,"yer":2514,"yard":2515,"icol":2516,"stro":2517,"amid":2518,"conv":2519,"many":2520,"ements":2521,"outh":2522,"omania":2523,"straight":2524,"judic":2525,"Cam":2526,"aed":2527,"diff":2528,"pac":2529,"elia":2530,"stom":2531,"rav":2532,"ocent":2533,"ationist":2534,"quest":2535,"clos":2536,"close":2537,"sulf":2538,"crimin":2539,"crown":2540,"drag":2541,"gig":2542,"hag":2543,"iaceous":2544,"mart":2545,"oi":2546,"pay":2547,"ua":2548,"uit":2549,"ually":2550,"xy":2551,"xanth":2552,"inct":2553,"ided":2554,"ylic":2555,"actic":2556,"myth":2557,"handed":2558,"winged":2559,"CS":2560,"Se":2561,"jac":2562,"joy":2563,"morph":2564,"unsc":2565,"strat":2566,"ionally":2567,"uric":2568,"ocele":2569,"lob":2570,"anger":2571,"etermin":2572,"guard":2573,"solid":2574,"Pol":2575,"cing":2576,"tick":2577,"wil":2578,"ores":2579,"unco":2580,"unsp":2581,"ilic":2582,"ader":2583,"plate":2584,"ief":2585,"rict":2586,"salt":2587,"aug":2588,"civ":2589,"dict":2590,"kil":2591,"trop":2592,"etta":2593,"phyl":2594,"uran":2595,"owl":2596,"claim":2597,"paras":2598,"gloss":2599,"found":2600,"ahs":2601,"auto":2602,"ocyte":2603,"mouthed":2604,"We":2605,"fic":2606,"hier":2607,"iri":2608,"sco":2609,"table":2610,"wer":2611,"alness":2612,"ilit":2613,"oms":2614,"opy":2615,"imeter":2616,"nonf":2617,"quarter":2618,"iffer":2619,"uster":2620,"pract":2621,"Ab":2622,"Post":2623,"cub":2624,"gut":2625,"kind":2626,"ues":2627,"vari":2628,"watch":2629,"enes":2630,"sharp":2631,"const":2632,"extr":2633,"ishment":2634,"hyster":2635,"sever":2636,"block":2637,"oster":2638,"techn":2639,"bert":2640,"evol":2641,"grav":2642,"gray":2643,"ornith":2644,"clean":2645,"built":2646,"Sc":2647,"branch":2648,"hell":2649,"lum":2650,"nob":2651,"pec":2652,"rand":2653,"sab":2654,"sight":2655,"uper":2656,"aler":2657,"una":2658,"thir":2659,"peric":2660,"nonpro":2661,"subl":2662,"ends":2663,"collect":2664,"carn":2665,"string":2666,"meas":2667,"CA":2668,"dod":2669,"hall":2670,"mix":2671,"tow":2672,"orship":2673,"eted":2674,"ionary":2675,"acon":2676,"adi":2677,"adv":2678,"ocyt":2679,"scal":2680,"cyt":2681,"ove":2682,"sider":2683,"Cl":2684,"Te":2685,"fum":2686,"hap":2687,"iidae":2688,"eno":2689,"iles":2690,"thunder":2691,"ented":2692,"amo":2693,"amed":2694,"amic":2695,"ouse":2696,"ocar":2697,"qual":2698,"ested":2699,"epig":2700,"flav":2701,"mental":2702,"lings":2703,"ichthy":2704,"escence":2705,"Er":2706,"TS":2707,"xyl":2708,"eries":2709,"eleg":2710,"real":2711,"rail":2712,"oles":2713,"ulus":2714,"emor":2715,"epis":2716,"aste":2717,"aean":2718,"object":2719,"liqu":2720,"dered":2721,"skin":2722,"brain":2723,"myel":2724,"backed":2725,"lined":2726,"works":2727,"omatic":2728,"prim":2729,"Bur":2730,"bem":2731,"dor":2732,"kh":2733,"muc":2734,"pes":2735,"tele":2736,"uph":2737,"za":2738,"oring":2739,"illo":2740,"amer":2741,"termin":2742,"epic":2743,"aves":2744,"idean":2745,"berries":2746,"ographically":2747,"offic":2748,"cript":2749,"otype":2750,"Del":2751,"Hol":2752,"junct":2753,"winter":2754,"intr":2755,"ica":2756,"reed":2757,"chap":2758,"idia":2759,"idian":2760,"oted":2761,"iving":2762,"aging":2763,"izers":2764,"ody":2765,"pered":2766,"overn":2767,"brush":2768,"Bel":2769,"Em":2770,"Ma":2771,"bis":2772,"fus":2773,"graph":2774,"pect":2775,"icism":2776,"arily":2777,"unfor":2778,"amar":2779,"isted":2780,"agger":2781,"coal":2782,"pref":2783,"dew":2784,"ained":2785,"posed":2786,"magnet":2787,"PS":2788,"Ser":2789,"fram":2790,"gard":2791,"nin":2792,"sail":2793,"wire":2794,"esthes":2795,"alia":2796,"isk":2797,"itious":2798,"roof":2799,"stud":2800,"odes":2801,"akes":2802,"bles":2803,"colon":2804,"omatous":2805,"embry":2806,"immun":2807,"witted":2808,"iloqu":2809,"bir":2810,"jour":2811,"nav":2812,"ware":2813,"ingu":2814,"racy":2815,"phant":2816,"oter":2817,"iger":2818,"iped":2819,"cons":2820,"iality":2821,"enesses":2822,"rome":2823,"calc":2824,"possess":2825,"bread":2826,"melan":2827,"piece":2828,"tuber":2829,"My":2830,"dress":2831,"heli":2832,"lot":2833,"nes":2834,"pall":2835,"wan":2836,"year":2837,"zon":2838,"raz":2839,"empor":2840,"amy":2841,"ried":2842,"apper":2843,"irm":2844,"iller":2845,"clin":2846,"ophore":2847,"flor":2848,"breath":2849,"stead":2850,"harmon":2851,"iasis":2852,"eship":2853,"habit":2854,"life":2855,"Pseud":2856,"bad":2857,"cen":2858,"case":2859,"dism":2860,"fan":2861,"gin":2862,"jaw":2863,"pier":2864,"slow":2865,"tan":2866,"alin":2867,"idly":2868,"ima":2869,"ocal":2870,"shell":2871,"ishes":2872,"aea":2873,"death":2874,"beat":2875,"weight":2876,"semis":2877,"iphon":2878,"Ver":2879,"bum":2880,"brow":2881,"hang":2882,"ook":2883,"rhe":2884,"vig":2885,"wax":2886,"unted":2887,"roman":2888,"repro":2889,"sten":2890,"stop":2891,"olysis":2892,"idine":2893,"emph":2894,"ifier":2895,"see":2896,"indic":2897,"rope":2898,"bark":2899,"ski":2900,"tribut":2901,"rophy":2902,"pression":2903,"omorphic":2904,"AR":2905,"Ag":2906,"bob":2907,"batt":2908,"fro":2909,"hob":2910,"iology":2911,"jar":2912,"pist":2913,"west":2914,"xen":2915,"ati":2916,"oria":2917,"unab":2918,"phyll":2919,"omas":2920,"imon":2921,"pron":2922,"clam":2923,"resol":2924,"haz":2925,"direct":2926,"author":2927,"ordin":2928,"valu":2929,"iculate":2930,"splen":2931,"bibli":2932,"bs":2933,"cept":2934,"did":2935,"luc":2936,"pep":2937,"ruct":2938,"oner":2939,"itud":2940,"lept":2941,"strong":2942,"using":2943,"amorph":2944,"uted":2945,"opathy":2946,"agin":2947,"apost":2948,"alled":2949,"worn":2950,"oken":2951,"stern":2952,"predis":2953,"gastro":2954,"OS":2955,"Py":2956,"bog":2957,"ds":2958,"dark":2959,"mob":2960,"most":2961,"nick":2962,"pun":2963,"uz":2964,"inte":2965,"esque":2966,"icle":2967,"rob":2968,"phag":2969,"osc":2970,"aman":2971,"otox":2972,"ument":2973,"impro":2974,"deb":2975,"nee":2976,"aven":2977,"clav":2978,"formed":2979,"ognath":2980,"Pet":2981,"bud":2982,"dar":2983,"hos":2984,"iel":2985,"jer":2986,"pinn":2987,"rating":2988,"elly":2989,"oli":2990,"ths":2991,"thin":2992,"rial":2993,"show":2994,"trust":2995,"uge":2996,"metal":2997,"care":2998,"fool":2999,"ships":3000,"general":3001,"know":3002,"Phil":3003,"court":3004,"At":3005,"Cer":3006,"Fran":3007,"gers":3008,"kes":3009,"lact":3010,"mass":3011,"oed":3012,"vine":3013,"ices":3014,"orrh":3015,"lee":3016,"usive":3017,"osper":3018,"otom":3019,"nonper":3020,"consc":3021,"ellate":3022,"overs":3023,"arded":3024,"print":3025,"bee":3026,"atorial":3027,"minist":3028,"cert":3029,"posit":3030,"inking":3031,"ambul":3032,"omancy":3033,"arsen":3034,"communic":3035,"oplasty":3036,"electr":3037,"penny":3038,"gate":3039,"how":3040,"wre":3041,"wild":3042,"onite":3043,"then":3044,"emen":3045,"ogene":3046,"agram":3047,"spur":3048,"exec":3049,"pread":3050,"aken":3051,"bler":3052,"bour":3053,"carbon":3054,"dermat":3055,"continu":3056,"belly":3057,"clear":3058,"large":3059,"As":3060,"Bal":3061,"Gal":3062,"La":3063,"bath":3064,"honey":3065,"lon":3066,"mate":3067,"ois":3068,"tut":3069,"tide":3070,"infl":3071,"aton":3072,"atal":3073,"athe":3074,"isable":3075,"arin":3076,"arium":3077,"rear":3078,"lean":3079,"iler":3080,"ethyl":3081,"ams":3082,"eca":3083,"illary":3084,"obe":3085,"prest":3086,"ubb":3087,"tram":3088,"taut":3089,"corpor":3090,"oids":3091,"uret":3092,"axis":3093,"iently":3094,"commun":3095,"otropic":3096,"gentle":3097,"hepat":3098,"crow":3099,"gul":3100,"iary":3101,"ls":3102,"vib":3103,"wol":3104,"zes":3105,"ori":3106,"elo":3107,"eting":3108,"acanth":3109,"imer":3110,"odd":3111,"igu":3112,"owed":3113,"wear":3114,"resc":3115,"haired":3116,"sour":3117,"patri":3118,"addle":3119,"cosm":3120,"Ly":3121,"cann":3122,"dust":3123,"fash":3124,"hay":3125,"mant":3126,"made":3127,"pest":3128,"ruc":3129,"rush":3130,"urous":3131,"rever":3132,"idity":3133,"lys":3134,"asper":3135,"eping":3136,"ostomy":3137,"carp":3138,"evil":3139,"type":3140,"ethn":3141,"eared":3142,"butter":3143,"elessness":3144,"algia":3145,"Can":3146,"Sar":3147,"bright":3148,"dich":3149,"hun":3150,"iop":3151,"lag":3152,"mith":3153,"esses":3154,"adic":3155,"riv":3156,"odor":3157,"loving":3158,"iana":3159,"rys":3160,"parad":3161,"touch":3162,"resist":3163,"egg":3164,"haem":3165,"ittle":3166,"tongue":3167,"Gar":3168,"Ter":3169,"Wil":3170,"hat":3171,"rul":3172,"rational":3173,"vict":3174,"alizing":3175,"iso":3176,"lead":3177,"ilia":3178,"uli":3179,"umen":3180,"antit":3181,"love":3182,"ips":3183,"seven":3184,"oblig":3185,"trit":3186,"allel":3187,"scut":3188,"screw":3189,"manship":3190,"mother":3191,"cold":3192,"carb":3193,"fox":3194,"brick":3195,"cere":3196,"rhiz":3197,"covered":3198,"Ac":3199,"Com":3200,"Mic":3201,"Mad":3202,"Nor":3203,"aid":3204,"fix":3205,"kins":3206,"pie":3207,"zy":3208,"infer":3209,"anch":3210,"eder":3211,"aric":3212,"child":3213,"rable":3214,"phan":3215,"emot":3216,"osh":3217,"ammon":3218,"agan":3219,"perit":3220,"quar":3221,"coff":3222,"epith":3223,"sey":3224,"ologists":3225,"weather":3226,"ymph":3227,"hero":3228,"anced":3229,"commod":3230,"front":3231,"CC":3232,"Ke":3233,"Kar":3234,"gia":3235,"gaz":3236,"lun":3237,"lust":3238,"nest":3239,"pad":3240,"sect":3241,"tang":3242,"uf":3243,"uther":3244,"wis":3245,"isth":3246,"issu":3247,"uncont":3248,"usk":3249,"urer":3250,"enty":3251,"amet":3252,"ires":3253,"shad":3254,"uded":3255,"plain":3256,"scap":3257,"ophile":3258,"intro":3259,"ortic":3260,"poet":3261,"romy":3262,"maid":3263,"mindedness":3264,"ophyte":3265,"tongued":3266,"AM":3267,"Me":3268,"buff":3269,"eor":3270,"eem":3271,"greg":3272,"mi":3273,"ns":3274,"pon":3275,"pitch":3276,"wel":3277,"will":3278,"yst":3279,"inex":3280,"atri":3281,"alization":3282,"uner":3283,"unen":3284,"unce":3285,"itism":3286,"chel":3287,"olate":3288,"acious":3289,"thread":3290,"emi":3291,"ogy":3292,"sher":3293,"proct":3294,"away":3295,"mater":3296,"metall":3297,"struc":3298,"rophic":3299,"holder":3300,"otherapy":3301,"profess":3302,"Hel":3303,"aper":3304,"five":3305,"iency":3306,"kill":3307,"nose":3308,"norm":3309,"pas":3310,"pow":3311,"pend":3312,"upl":3313,"wart":3314,"witch":3315,"anter":3316,"itted":3317,"itude":3318,"rogen":3319,"lement":3320,"chas":3321,"idin":3322,"idness":3323,"lyn":3324,"urb":3325,"oting":3326,"sug":3327,"anda":3328,"undec":3329,"neur":3330,"intel":3331,"worker":3332,"fuls":3333,"semin":3334,"ocks":3335,"archy":3336,"anna":3337,"rench":3338,"legged":3339,"photo":3340,"transl":3341,"sleep":3342,"Dor":3343,"Ul":3344,"bly":3345,"bind":3346,"cogn":3347,"gab":3348,"may":3349,"ning":3350,"ough":3351,"pir":3352,"unpre":3353,"sto":3354,"ila":3355,"odynam":3356,"iae":3357,"trap":3358,"ularly":3359,"ogeny":3360,"crack":3361,"urable":3362,"Sy":3363,"cred":3364,"dors":3365,"hack":3366,"max":3367,"nucle":3368,"sod":3369,"tender":3370,"uate":3371,"inian":3372,"stiff":3373,"uld":3374,"abilities":3375,"rier":3376,"opin":3377,"opar":3378,"ived":3379,"nondis":3380,"apod":3381,"antid":3382,"epit":3383,"place":3384,"uce":3385,"ugg":3386,"iev":3387,"trad":3388,"ache":3389,"weak":3390,"merc":3391,"steel":3392,"secret":3393,"sheep":3394,"nosed":3395,"first":3396,"Bro":3397,"DS":3398,"May":3399,"aust":3400,"cyl":3401,"camp":3402,"iating":3403,"nod":3404,"sag":3405,"inus":3406,"oni":3407,"alth":3408,"ision":3409,"pher":3410,"ulum":3411,"aba":3412,"entness":3413,"aming":3414,"rie":3415,"nonad":3416,"quet":3417,"appl":3418,"icality":3419,"epist":3420,"isher":3421,"icken":3422,"rone":3423,"even":3424,"ables":3425,"ometrical":3426,"mission":3427,"electric":3428,"keeper":3429,"view":3430,"intellect":3431,"God":3432,"Val":3433,"dal":3434,"dot":3435,"los":3436,"lut":3437,"late":3438,"punct":3439,"publ":3440,"uan":3441,"inch":3442,"alous":3443,"state":3444,"stown":3445,"illy":3446,"phren":3447,"abor":3448,"ocracy":3449,"quiet":3450,"shire":3451,"consum":3452,"plag":3453,"princ":3454,"cles":3455,"oked":3456,"brand":3457,"ynia":3458,"mechan":3459,"rhin":3460,"schiz":3461,"square":3462,"occup":3463,"sacchar":3464,"aen":3465,"cog":3466,"cass":3467,"dynam":3468,"fel":3469,"hept":3470,"hipp":3471,"ii":3472,"kal":3473,"lick":3474,"nig":3475,"pink":3476,"tent":3477,"vy":3478,"wal":3479,"women":3480,"atom":3481,"armed":3482,"ories":3483,"itical":3484,"stream":3485,"lying":3486,"asy":3487,"urban":3488,"osm":3489,"ople":3490,"ipit":3491,"coat":3492,"cool":3493,"heat":3494,"tris":3495,"ialist":3496,"aving":3497,"ostom":3498,"indiv":3499,"acher":3500,"pole":3501,"wound":3502,"azz":3503,"gery":3504,"brained":3505,"twin":3506,"Anglo":3507,"ochem":3508,"heartedness":3509,"great":3510,"second":3511,"build":3512,"philosoph":3513,"orrhea":3514,"Don":3515,"Gre":3516,"Is":3517,"Sk":3518,"Trans":3519,"cic":3520,"fier":3521,"gym":3522,"lass":3523,"mig":3524,"nid":3525,"ske":3526,"sburg":3527,"uco":3528,"wro":3529,"incom":3530,"unth":3531,"itarian":3532,"eland":3533,"stal":3534,"olin":3535,"phor":3536,"omot":3537,"acer":3538,"emper":3539,"osa":3540,"amen":3541,"ribut":3542,"tering":3543,"imit":3544,"epid":3545,"aka":3546,"ureter":3547,"eve":3548,"haust":3549,"feather":3550,"ondyl":3551,"eryth":3552,"ettes":3553,"melod":3554,"cardi":3555,"dipl":3556,"acetyl":3557,"ogloss":3558,"Pseudo":3559,"Cap":3560,"bene":3561,"pill":3562,"slo":3563,"atta":3564,"ariness":3565,"lec":3566,"sty":3567,"raft":3568,"empl":3569,"sure":3570,"exter":3571,"ialize":3572,"fores":3573,"forest":3574,"rons":3575,"correct":3576,"polym":3577,"whit":3578,"rates":3579,"door":3580,"portion":3581,"motor":3582,"church":3583,"esthesia":3584,"Poly":3585,"Sol":3586,"US":3587,"aun":3588,"auc":3589,"din":3590,"hors":3591,"list":3592,"mum":3593,"rene":3594,"xer":3595,"roc":3596,"christ":3597,"chromat":3598,"ilian":3599,"rapt":3600,"thorn":3601,"ember":3602,"ogly":3603,"econ":3604,"loud":3605,"alling":3606,"scur":3607,"ialism":3608,"rying":3609,"indust":3610,"boot":3611,"flesh":3612,"assoc":3613,"semid":3614,"metaph":3615,"ither":3616,"polar":3617,"othe":3618,"brachy":3619,"typ":3620,"myst":3621,"ancing":3622,"steep":3623,"ohn":3624,"summer":3625,"billed":3626,"heavy":3627,"CO":3628,"Cha":3629,"Dar":3630,"Rh":3631,"flex":3632,"fract":3633,"hill":3634,"lich":3635,"nat":3636,"pu":3637,"wid":3638,"invol":3639,"anism":3640,"atable":3641,"alph":3642,"alog":3643,"alco":3644,"itory":3645,"storm":3646,"osyn":3647,"ocol":3648,"conce":3649,"atedness":3650,"acks":3651,"travel":3652,"hound":3653,"typh":3654,"grad":3655,"omaniac":3656,"timber":3657,"hammer":3658,"passion":3659,"invest":3660,"iddle":3661,"folk":3662,"pipe":3663,"AP":3664,"Ir":3665,"Mus":3666,"Meg":3667,"NE":3668,"Plat":3669,"ais":3670,"bass":3671,"dream":3672,"dactyl":3673,"gol":3674,"gib":3675,"hir":3676,"lent":3677,"lingly":3678,"mn":3679,"vell":3680,"veg":3681,"wine":3682,"yan":3683,"eds":3684,"orbit":3685,"unv":3686,"unse":3687,"uninter":3688,"stim":3689,"oline":3690,"phth":3691,"omon":3692,"ulose":3693,"amide":3694,"opp":3695,"opro":3696,"imal":3697,"ocard":3698,"ationally":3699,"ifiable":3700,"spread":3701,"asting":3702,"come":3703,"upt":3704,"worthy":3705,"money":3706,"track":3707,"ached":3708,"aching":3709,"geal":3710,"south":3711,"twel":3712,"medic":3713,"cloud":3714,"crystall":3715,"milit":3716,"devil":3717,"lady":3718,"fruit":3719,"AT":3720,"Jac":3721,"Sab":3722,"Tar":3723,"The":3724,"fine":3725,"frost":3726,"hid":3727,"mers":3728,"oing":3729,"iny":3730,"aters":3731,"alleg":3732,"still":3733,"chang":3734,"idic":3735,"amor":3736,"istry":3737,"impl":3738,"imental":3739,"igraph":3740,"iah":3741,"coen":3742,"hyn":3743,"trick":3744,"truth":3745,"aks":3746,"neut":3747,"bral":3748,"heads":3749,"aneous":3750,"curs":3751,"ruff":3752,"penet":3753,"oscopic":3754,"megal":3755,"sanct":3756,"Ash":3757,"Lor":3758,"Prot":3759,"bay":3760,"crop":3761,"dre":3762,"dum":3763,"fellow":3764,"grown":3765,"host":3766,"hatch":3767,"mah":3768,"nur":3769,"power":3770,"tz":3771,"tend":3772,"troph":3773,"uously":3774,"atric":3775,"alistic":3776,"unob":3777,"revol":3778,"stitch":3779,"rax":3780,"acro":3781,"amyl":3782,"agen":3783,"agraph":3784,"igerous":3785,"quint":3786,"antal":3787,"irk":3788,"irid":3789,"promis":3790,"illi":3791,"ialness":3792,"ylike":3793,"atedly":3794,"subject":3795,"activ":3796,"colour":3797,"ulture":3798,"inner":3799,"cheek":3800,"access":3801,"tempor":3802,"bodied":3803,"apeut":3804,"finger":3805,"pharmac":3806,"Ham":3807,"Pe":3808,"bip":3809,"bast":3810,"eal":3811,"kat":3812,"kick":3813,"plow":3814,"tens":3815,"uousness":3816,"inite":3817,"ician":3818,"univers":3819,"stip":3820,"staff":3821,"urus":3822,"thi":3823,"thing":3824,"umpt":3825,"opo":3826,"ivorous":3827,"igmat":3828,"coel":3829,"exper":3830,"iance":3831,"ials":3832,"club":3833,"indul":3834,"angular":3835,"taw":3836,"meteor":3837,"whis":3838,"ahed":3839,"relig":3840,"ancies":3841,"enced":3842,"Arch":3843,"button":3844,"priest":3845,"transp":3846,"ength":3847,"body":3848,"physi":3849,"heaven":3850,"crowned":3851,"Sam":3852,"Tri":3853,"bers":3854,"bomb":3855,"eon":3856,"jam":3857,"north":3858,"ounc":3859,"sib":3860,"tun":3861,"tall":3862,"inher":3863,"anite":3864,"enite":3865,"enne":3866,"orient":3867,"stor":3868,"olytic":3869,"oment":3870,"ulae":3871,"tha":3872,"uts":3873,"imb":3874,"ocean":3875,"shel":3876,"iful":3877,"ellar":3878,"hyal":3879,"scul":3880,"aying":3881,"ophen":3882,"common":3883,"indig":3884,"angled":3885,"beh":3886,"brut":3887,"cope":3888,"Ann":3889,"ritis":3890,"warm":3891,"cutting":3892,"galvan":3893,"joint":3894,"labor":3895,"orrha":3896,"satis":3897,"speed":3898,"bronch":3899,"Bon":3900,"Di":3901,"Luc":3902,"Men":3903,"Ty":3904,"bun":3905,"buc":3906,"cid":3907,"cens":3908,"cement":3909,"dur":3910,"eight":3911,"ioid":3912,"main":3913,"sit":3914,"tes":3915,"atis":3916,"ense":3917,"arbit":3918,"orig":3919,"inger":3920,"elph":3921,"elig":3922,"ello":3923,"start":3924,"chro":3925,"ilize":3926,"acco":3927,"ased":3928,"thym":3929,"ota":3930,"ume":3931,"ocon":3932,"agia":3933,"coated":3934,"plen":3935,"prick":3936,"formal":3937,"bleness":3938,"ostic":3939,"moun":3940,"toid":3941,"semim":3942,"calcul":3943,"ifications":3944,"backs":3945,"breast":3946,"rotic":3947,"ails":3948,"stein":3949,"reflect":3950,"houses":3951,"compens":3952,"milk":3953,"oplastic":3954,"olatry":3955,"Ap":3956,"Ex":3957,"Gra":3958,"Gall":3959,"Ha":3960,"Il":3961,"Mont":3962,"crum":3963,"crest":3964,"jet":3965,"mism":3966,"more":3967,"num":3968,"oen":3969,"oidea":3970,"vey":3971,"erc":3972,"onal":3973,"icing":3974,"orian":3975,"unfl":3976,"eline":3977,"stain":3978,"oming":3979,"throw":3980,"oglo":3981,"optim":3982,"immer":3983,"suck":3984,"sugar":3985,"estim":3986,"elli":3987,"plas":3988,"plast":3989,"articul":3990,"intern":3991,"gled":3992,"gluc":3993,"methyl":3994,"roma":3995,"ultur":3996,"oxal":3997,"triple":3998,"fee":3999,"myx":4000,"Char":4001,"mean":4002,"inning":4003,"maj":4004,"steam":4005,"smith":4006,"respect":4007,"substant":4008,"toothed":4009,"German":4010,"Mat":4011,"RS":4012,"bish":4013,"cust":4014,"dow":4015,"gob":4016,"nan":4017,"ound":4018,"plo":4019,"ponder":4020,"rator":4021,"wet":4022,"wag":4023,"oning":4024,"atical":4025,"arab":4026,"unap":4027,"unbe":4028,"chant":4029,"chair":4030,"ogast":4031,"opic":4032,"opia":4033,"import":4034,"odi":4035,"vern":4036,"ipe":4037,"iflor":4038,"spot":4039,"spoken":4040,"exist":4041,"illion":4042,"trum":4043,"compan":4044,"complex":4045,"ront":4046,"gee":4047,"hour":4048,"metric":4049,"brach":4050,"copy":4051,"gue":4052,"feud":4053,"plement":4054,"aphyl":4055,"going":4056,"atured":4057,"flowered":4058,"puls":4059,"respons":4060,"contract":4061,"spermat":4062,"bearer":4063,"individ":4064,"Che":4065,"cies":4066,"drum":4067,"fest":4068,"funct":4069,"mock":4070,"runn":4071,"sque":4072,"somn":4073,"uation":4074,"vapor":4075,"onism":4076,"anap":4077,"aty":4078,"edged":4079,"elin":4080,"olo":4081,"absor":4082,"ago":4083,"noncom":4084,"iring":4085,"ava":4086,"athered":4087,"trache":4088,"mov":4089,"awa":4090,"rann":4091,"semif":4092,"colum":4093,"twenty":4094,"count":4095,"ridden":4096,"extens":4097,"effect":4098,"pointed":4099,"append":4100,"Far":4101,"For":4102,"Jud":4103,"Med":4104,"Mil":4105,"Mag":4106,"Pel":4107,"Phy":4108,"cros":4109,"canc":4110,"die":4111,"determin":4112,"fog":4113,"ique":4114,"jew":4115,"kers":4116,"link":4117,"mine":4118,"pus":4119,"sig":4120,"tack":4121,"tort":4122,"talk":4123,"ued":4124,"inize":4125,"orh":4126,"ingen":4127,"itim":4128,"reass":4129,"rah":4130,"ione":4131,"ador":4132,"ococc":4133,"agglut":4134,"odic":4135,"irrit":4136,"sham":4137,"shut":4138,"lov":4139,"cob":4140,"spac":4141,"prote":4142,"expl":4143,"express":4144,"moid":4145,"web":4146,"hoof":4147,"letter":4148,"aft":4149,"woods":4150,"borne":4151,"phenyl":4152,"sympath":4153,"temper":4154,"ocratic":4155,"ranchiate":4156,"perfect":4157,"Ben":4158,"Bas":4159,"Cle":4160,"Dan":4161,"Fer":4162,"Sil":4163,"Ur":4164,"crit":4165,"dul":4166,"dand":4167,"dend":4168,"dens":4169,"ij":4170,"lily":4171,"lamp":4172,"lux":4173,"laryng":4174,"oot":4175,"pand":4176,"pine":4177,"pock":4178,"sob":4179,"sangu":4180,"wonder":4181,"xes":4182,"zym":4183,"Ġthe":4184,"atrix":4185,"arct":4186,"orac":4187,"reb":4188,"chis":4189,"chim":4190,"phle":4191,"ionic":4192,"ulf":4193,"eming":4194,"amel":4195,"opl":4196,"oping":4197,"quart":4198,"antin":4199,"establ":4200,"spong":4201,"proto":4202,"ills":4203,"tru":4204,"true":4205,"scor":4206,"bless":4207,"weigh":4208,"aze":4209,"bury":4210,"ochrom":4211,"turb":4212,"broken":4213,"itions":4214,"paint":4215,"thorac":4216,"smoke":4217,"golden":4218,"narrow":4219,"employ":4220,"Aust":4221,"Der":4222,"Mart":4223,"Rob":4224,"cosis":4225,"dock":4226,"duck":4227,"eel":4228,"fy":4229,"fant":4230,"foss":4231,"hus":4232,"nem":4233,"psy":4234,"tart":4235,"unsl":4236,"elite":4237,"stret":4238,"rass":4239,"abdom":4240,"entially":4241,"embar":4242,"osed":4243,"advent":4244,"river":4245,"rift":4246,"proph":4247,"forg":4248,"teen":4249,"aws":4250,"toad":4251,"glad":4252,"ropod":4253,"eville":4254,"pearl":4255,"barbar":4256,"marsh":4257,"fertil":4258,"headedness":4259,"capt":4260,"iction":4261,"straw":4262,"equip":4263,"compass":4264,"bolt":4265,"respond":4266,"albumin":4267,"tubercul":4268,"fashion":4269,"CM":4270,"Call":4271,"Eu":4272,"Jer":4273,"Met":4274,"ains":4275,"bep":4276,"bold":4277,"ees":4278,"eur":4279,"fif":4280,"frog":4281,"fasc":4282,"gi":4283,"gos":4284,"jum":4285,"joc":4286,"jig":4287,"lod":4288,"liter":4289,"pell":4290,"tie":4291,"inth":4292,"isa":4293,"orb":4294,"unge":4295,"requ":4296,"represent":4297,"ilized":4298,"ulative":4299,"through":4300,"osome":4301,"amus":4302,"utch":4303,"tery":4304,"odactyl":4305,"anted":4306,"cox":4307,"spic":4308,"seism":4309,"ectomies":4310,"aya":4311,"ayed":4312,"blu":4313,"tee":4314,"awk":4315,"active":4316,"ithec":4317,"illet":4318,"tonic":4319,"kerat":4320,"ika":4321,"posing":4322,"desp":4323,"affect":4324,"goose":4325,"demi":4326,"content":4327,"infra":4328,"priv":4329,"depend":4330,"sensu":4331,"Cass":4332,"Gl":4333,"Ital":4334,"Sher":4335,"Vol":4336,"cram":4337,"cru":4338,"fug":4339,"pto":4340,"pull":4341,"pict":4342,"tat":4343,"atus":4344,"orate":4345,"union":4346,"unpl":4347,"rept":4348,"chil":4349,"ilar":4350,"rage":4351,"otes":4352,"otome":4353,"adj":4354,"uting":4355,"cook":4356,"space":4357,"spotted":4358,"hyde":4359,"pling":4360,"pren":4361,"ows":4362,"ectom":4363,"beam":4364,"too":4365,"ureth":4366,"polys":4367,"diam":4368,"ympan":4369,"trip":4370,"brass":4371,"anner":4372,"anned":4373,"feas":4374,"ashing":4375,"strate":4376,"eption":4377,"doub":4378,"etics":4379,"issa":4380,"capital":4381,"ighter":4382,"uality":4383,"purple":4384,"squam":4385,"embran":4386,"iliar":4387,"ocyan":4388,"modern":4389,"thorough":4390,"product":4391,"ospore":4392,"ophthalm":4393,"Des":4394,"Ho":4395,"Mah":4396,"SS":4397,"Tam":4398,"bif":4399,"dat":4400,"fen":4401,"fell":4402,"fung":4403,"girl":4404,"hr":4405,"iably":4406,"lub":4407,"naph":4408,"pain":4409,"pont":4410,"panc":4411,"rism":4412,"syl":4413,"uated":4414,"anil":4415,"energ":4416,"icide":4417,"unar":4418,"unle":4419,"unpar":4420,"unrep":4421,"reim":4422,"stir":4423,"chop":4424,"idol":4425,"ulatory":4426,"oton":4427,"terror":4428,"aga":4429,"nonde":4430,"appar":4431,"apple":4432,"uding":4433,"heel":4434,"scope":4435,"dehyde":4436,"ophon":4437,"athed":4438,"syst":4439,"aches":4440,"tour":4441,"gling":4442,"semit":4443,"coron":4444,"haemat":4445,"feed":4446,"snake":4447,"swing":4448,"theor":4449,"brook":4450,"itional":4451,"ometrically":4452,"forming":4453,"character":4454,"elessly":4455,"stract":4456,"arianism":4457,"bitter":4458,"oxygen":4459,"lemn":4460,"hawk":4461,"suggest":4462,"Bor":4463,"Bab":4464,"DI":4465,"Jan":4466,"Kal":4467,"Lam":4468,"New":4469,"dian":4470,"ez":4471,"fresh":4472,"gic":4473,"gur":4474,"gust":4475,"job":4476,"kel":4477,"kary":4478,"lace":4479,"laden":4480,"mim":4481,"mitt":4482,"nap":4483,"push":4484,"pachy":4485,"sist":4486,"sir":4487,"vil":4488,"yrin":4489,"ership":4490,"inet":4491,"inism":4492,"inspir":4493,"atically":4494,"engra":4495,"alo":4496,"ede":4497,"ungu":4498,"leather":4499,"sters":4500,"ioning":4501,"ulator":4502,"ulates":4503,"asal":4504,"entom":4505,"americ":4506,"otomies":4507,"opex":4508,"imo":4509,"verte":4510,"antness":4511,"load":4512,"ipter":4513,"spoon":4514,"process":4515,"ishable":4516,"illust":4517,"scot":4518,"clus":4519,"indis":4520,"cym":4521,"iere":4522,"mata":4523,"sole":4524,"foul":4525,"tedly":4526,"fever":4527,"myr":4528,"caly":4529,"ours":4530,"catch":4531,"recip":4532,"galact":4533,"expect":4534,"quinqu":4535,"rubber":4536,"sorrow":4537,"platy":4538,"drawn":4539,"bottle":4540,"necked":4541,"producing":4542,"twelve":4543,"AA":4544,"Bol":4545,"Cher":4546,"Ev":4547,"Ga":4548,"MP":4549,"Roman":4550,"bree":4551,"crust":4552,"dan":4553,"fu":4554,"gad":4555,"gment":4556,"govern":4557,"iper":4558,"later":4559,"mug":4560,"muck":4561,"mira":4562,"nail":4563,"oin":4564,"oke":4565,"rend":4566,"russ":4567,"tus":4568,"tag":4569,"tell":4570,"trot":4571,"was":4572,"wrap":4573,"inating":4574,"influ":4575,"edge":4576,"arial":4577,"itous":4578,"strip":4579,"acre":4580,"acle":4581,"opsych":4582,"ims":4583,"ocry":4584,"antine":4585,"shar":4586,"unde":4587,"astro":4588,"near":4589,"ylene":4590,"tool":4591,"match":4592,"corp":4593,"corrupt":4594,"method":4595,"eval":4596,"where":4597,"barrel":4598,"unci":4599,"swift":4600,"control":4601,"working":4602,"recogn":4603,"commend":4604,"laud":4605,"transc":4606,"crim":4607,"sided":4608,"spirited":4609,"otyp":4610,"ophilous":4611,"spher":4612,"oblastic":4613,"veget":4614,"orrhaphy":4615,"Amer":4616,"Ba":4617,"Cur":4618,"EC":4619,"Min":4620,"Mid":4621,"Mill":4622,"Wal":4623,"bent":4624,"bond":4625,"cake":4626,"gill":4627,"kar":4628,"kit":4629,"saf":4630,"smen":4631,"vio":4632,"wrong":4633,"instruct":4634,"eses":4635,"alle":4636,"arious":4637,"unman":4638,"uncl":4639,"unbl":4640,"eti":4641,"phem":4642,"omel":4643,"ulter":4644,"otten":4645,"uma":4646,"odend":4647,"antist":4648,"antif":4649,"shed":4650,"ipper":4651,"conserv":4652,"cou":4653,"ands":4654,"undef":4655,"avi":4656,"yls":4657,"forth":4658,"subt":4659,"bean":4660,"icker":4661,"matical":4662,"acted":4663,"poll":4664,"tedness":4665,"tons":4666,"copper":4667,"marked":4668,"ashed":4669,"blephar":4670,"central":4671,"All":4672,"lines":4673,"anked":4674,"bald":4675,"patron":4676,"ettle":4677,"agnet":4678,"silic":4679,"Proto":4680,"hydrogen":4681,"otechn":4682,"expans":4683,"duod":4684,"condens":4685,"quadri":4686,"oderm":4687,"young":4688,"ifferent":4689,"Bern":4690,"DC":4691,"ES":4692,"Glen":4693,"Jo":4694,"Mes":4695,"Neg":4696,"Red":4697,"Sw":4698,"bim":4699,"bore":4700,"cine":4701,"fid":4702,"fill":4703,"father":4704,"jun":4705,"lord":4706,"pian":4707,"rath":4708,"sphen":4709,"sarc":4710,"yph":4711,"onize":4712,"ende":4713,"altern":4714,"isse":4715,"arith":4716,"unac":4717,"unrel":4718,"itated":4719,"roch":4720,"rout":4721,"refer":4722,"leuk":4723,"stag":4724,"stalk":4725,"change":4726,"omeness":4727,"idan":4728,"ules":4729,"about":4730,"embro":4731,"amper":4732,"ampl":4733,"suas":4734,"preter":4735,"ibilities":4736,"hee":4737,"sci":4738,"yless":4739,"rypt":4740,"acea":4741,"matically":4742,"glac":4743,"haul":4744,"pollin":4745,"politic":4746,"ighted":4747,"poison":4748,"ymen":4749,"lette":4750,"azine":4751,"german":4752,"trim":4753,"ashes":4754,"ochron":4755,"desc":4756,"caus":4757,"lastic":4758,"squir":4759,"hypnot":4760,"alkal":4761,"ophorous":4762,"otropism":4763,"voiced":4764,"propag":4765,"bridge":4766,"needle":4767,"alcohol":4768,"Ak":4769,"Cat":4770,"Cas":4771,"Cyn":4772,"Ker":4773,"MA":4774,"Mos":4775,"Ple":4776,"bub":4777,"dos":4778,"fi":4779,"fit":4780,"fist":4781,"gir":4782,"gain":4783,"kish":4784,"mess":4785,"mund":4786,"nect":4787,"pis":4788,"sad":4789,"sne":4790,"sword":4791,"trem":4792,"vid":4793,"vap":4794,"wester":4795,"zinc":4796,"inqu":4797,"inity":4798,"invent":4799,"ania":4800,"unqu":4801,"lepid":4802,"stup":4803,"chir":4804,"chief":4805,"rast":4806,"etto":4807,"etting":4808,"ionless":4809,"acia":4810,"aciousness":4811,"abi":4812,"embra":4813,"peris":4814,"sud":4815,"loose":4816,"ifol":4817,"speck":4818,"plur":4819,"obed":4820,"obranch":4821,"observ":4822,"iales":4823,"devel":4824,"never":4825,"ophone":4826,"foret":4827,"ugn":4828,"ints":4829,"train":4830,"parap":4831,"matous":4832,"acting":4833,"ights":4834,"ratt":4835,"rative":4836,"eyes":4837,"annel":4838,"auth":4839,"irect":4840,"palat":4841,"ughter":4842,"arius":4843,"knot":4844,"make":4845,"command":4846,"excit":4847,"support":4848,"driven":4849,"bellied":4850,"ophagous":4851,"soci":4852,"wolf":4853,"intellectual":4854,"Dem":4855,"Lyn":4856,"RA":4857,"Sel":4858,"Tor":4859,"aec":4860,"bio":4861,"ci":4862,"cip":4863,"cach":4864,"cele":4865,"doll":4866,"fret":4867,"fring":4868,"iad":4869,"kid":4870,"nine":4871,"oer":4872,"oul":4873,"sic":4874,"syllab":4875,"wife":4876,"yar":4877,"ycl":4878,"anac":4879,"alities":4880,"order":4881,"inging":4882,"ilation":4883,"ilization":4884,"aciously":4885,"asing":4886,"ames":4887,"ellig":4888,"spear":4889,"ersville":4890,"undes":4891,"undel":4892,"prem":4893,"assert":4894,"parallel":4895,"selen":4896,"moor":4897,"hoop":4898,"ropter":4899,"woven":4900,"ratch":4901,"ovel":4902,"hered":4903,"axon":4904,"autoc":4905,"incre":4906,"oured":4907,"ivenesses":4908,"rously":4909,"window":4910,"divers":4911,"osphere":4912,"boards":4913,"flood":4914,"sensit":4915,"wrought":4916,"Az":4917,"Ale":4918,"Heter":4919,"Lat":4920,"MI":4921,"Ol":4922,"Ot":4923,"RO":4924,"Sa":4925,"base":4926,"caut":4927,"gird":4928,"hul":4929,"punch":4930,"rar":4931,"rall":4932,"somat":4933,"tob":4934,"uj":4935,"erer":4936,"onn":4937,"anne":4938,"elian":4939,"rey":4940,"lev":4941,"left":4942,"chen":4943,"chain":4944,"chord":4945,"omes":4946,"aca":4947,"acad":4948,"thec":4949,"thumb":4950,"abd":4951,"amal":4952,"otin":4953,"ogue":4954,"istle":4955,"imble":4956,"ague":4957,"irs":4958,"loph":4959,"coag":4960,"spell":4961,"preex":4962,"prepar":4963,"plot":4964,"plane":4965,"heath":4966,"prison":4967,"ensit":4968,"system":4969,"gler":4970,"meth":4971,"woe":4972,"welling":4973,"bare":4974,"yma":4975,"cern":4976,"kery":4977,"iki":4978,"pseudos":4979,"lands":4980,"caul":4981,"refract":4982,"heartedly":4983,"silk":4984,"sheet":4985,"plication":4986,"symbol":4987,"lipped":4988,"conduct":4989,"Neo":4990,"ocarpous":4991,"igenous":4992,"Land":4993,"Lev":4994,"Slav":4995,"cis":4996,"dun":4997,"dub":4998,"eating":4999,"fun":5000,"fut":5001,"grim":5002,"has":5003,"lung":5004,"maz":5005,"narc":5006,"ply":5007,"pans":5008,"pose":5009,"rion":5010,"uy":5011,"vex":5012,"vass":5013,"vacc":5014,"inos":5015,"icist":5016,"icip":5017,"arrow":5018,"arbor":5019,"unit":5020,"unint":5021,"itative":5022,"stuff":5023,"rash":5024,"rade":5025,"olt":5026,"pharyng":5027,"omit":5028,"idence":5029,"ulent":5030,"thous":5031,"aber":5032,"abber":5033,"emaker":5034,"amn":5035,"ogyn":5036,"apprec":5037,"supr":5038,"ifiers":5039,"span":5040,"program":5041,"epiph":5042,"illumin":5043,"seal":5044,"trin":5045,"ayer":5046,"clar":5047,"force":5048,"icks":5049,"atorily":5050,"paraph":5051,"orted":5052,"rice":5053,"gles":5054,"soap":5055,"grain":5056,"guar":5057,"meat":5058,"omycet":5059,"accept":5060,"transfer":5061,"formation":5062,"charge":5063,"ernal":5064,"belie":5065,"shoul":5066,"appropri":5067,"osaurus":5068,"esthetic":5069,"cylind":5070,"CI":5071,"Flor":5072,"Gil":5073,"NA":5074,"NS":5075,"Od":5076,"On":5077,"Rom":5078,"Sph":5079,"Wood":5080,"ault":5081,"bach":5082,"dit":5083,"hast":5084,"hung":5085,"mell":5086,"nud":5087,"tid":5088,"ĠĠ":5089,"erite":5090,"alve":5091,"oration":5092,"unsub":5093,"unequ":5094,"elev":5095,"stad":5096,"chuck":5097,"chole":5098,"oler":5099,"thon":5100,"throm":5101,"abet":5102,"absol":5103,"abstract":5104,"oso":5105,"osal":5106,"amber":5107,"opal":5108,"impress":5109,"verse":5110,"qua":5111,"quit":5112,"quant":5113,"suit":5114,"ipot":5115,"esting":5116,"ples":5117,"tril":5118,"aki":5119,"scra":5120,"scient":5121,"ophyt":5122,"indec":5123,"tea":5124,"beaut":5125,"monos":5126,"moist":5127,"insur":5128,"ographist":5129,"ographies":5130,"solemn":5131,"struck":5132,"stricken":5133,"reek":5134,"there":5135,"ailed":5136,"accum":5137,"eech":5138,"homoe":5139,"deprec":5140,"vision":5141,"hypn":5142,"orthod":5143,"sides":5144,"teleg":5145,"amphib":5146,"aryngeal":5147,"cotton":5148,"success":5149,"ogamy":5150,"pneumat":5151,"candle":5152,"street":5153,"growing":5154,"cheeked":5155,"violet":5156,"By":5157,"Ca":5158,"Green":5159,"Pl":5160,"She":5161,"Str":5162,"bie":5163,"cren":5164,"cuss":5165,"fied":5166,"hs":5167,"lies":5168,"mec":5169,"null":5170,"oan":5171,"oic":5172,"pum":5173,"pav":5174,"page":5175,"rally":5176,"soph":5177,"sult":5178,"song":5179,"sext":5180,"uel":5181,"wright":5182,"anus":5183,"alised":5184,"icient":5185,"aris":5186,"orousness":5187,"itution":5188,"reck":5189,"level":5190,"stomat":5191,"ilate":5192,"ilib":5193,"acity":5194,"asic":5195,"ematic":5196,"otically":5197,"adjust":5198,"administ":5199,"umat":5200,"rium":5201,"riage":5202,"eccles":5203,"noninter":5204,"shaw":5205,"loqu":5206,"contr":5207,"coach":5208,"spat":5209,"spark":5210,"epip":5211,"undist":5212,"udes":5213,"hypost":5214,"trid":5215,"trench":5216,"aky":5217,"pror":5218,"ectic":5219,"manif":5220,"yled":5221,"clay":5222,"ophyl":5223,"blaz":5224,"blenn":5225,"compar":5226,"anga":5227,"uple":5228,"tach":5229,"ween":5230,"oking":5231,"what":5232,"retin":5233,"grave":5234,"ferment":5235,"pleuro":5236,"ateral":5237,"snap":5238,"inks":5239,"rophot":5240,"ouch":5241,"erythro":5242,"valid":5243,"canon":5244,"strap":5245,"eking":5246,"crib":5247,"odontidae":5248,"argent":5249,"Amph":5250,"McC":5251,"antimon":5252,"alien":5253,"rology":5254,"phosphor":5255,"itutional":5256,"episcop":5257,"RE":5258,"dac":5259,"deter":5260,"dull":5261,"eat":5262,"kan":5263,"lest":5264,"laz":5265,"lamin":5266,"mile":5267,"peg":5268,"sie":5269,"sold":5270,"syll":5271,"yne":5272,"atum":5273,"isol":5274,"uniform":5275,"itish":5276,"learn":5277,"stam":5278,"stub":5279,"chart":5280,"ession":5281,"accent":5282,"urin":5283,"uration":5284,"thm":5285,"thet":5286,"ivism":5287,"imin":5288,"ocular":5289,"aggress":5290,"izen":5291,"odynia":5292,"anton":5293,"antib":5294,"convent":5295,"ests":5296,"exped":5297,"asts":5298,"prevent":5299,"season":5300,"aller":5301,"scand":5302,"prin":5303,"neigh":5304,"forec":5305,"format":5306,"induc":5307,"flash":5308,"acker":5309,"acked":5310,"monarch":5311,"mole":5312,"ustic":5313,"toed":5314,"rescent":5315,"oneph":5316,"glott":5317,"semib":5318,"ocked":5319,"ighting":5320,"othec":5321,"axes":5322,"fear":5323,"igned":5324,"eptic":5325,"poster":5326,"curv":5327,"hemi":5328,"ouring":5329,"theat":5330,"breaking":5331,"breasted":5332,"contin":5333,"capit":5334,"craw":5335,"multi":5336,"version":5337,"ready":5338,"omorphism":5339,"concept":5340,"rific":5341,"condition":5342,"special":5343,"cruc":5344,"opathic":5345,"fingered":5346,"connect":5347,"discip":5348,"iparous":5349,"itudin":5350,"integr":5351,"Ara":5352,"French":5353,"Gold":5354,"Lem":5355,"Lim":5356,"PA":5357,"Tal":5358,"Tim":5359,"Ther":5360,"War":5361,"baw":5362,"cn":5363,"frat":5364,"fond":5365,"frag":5366,"gier":5367,"iability":5368,"lumin":5369,"mun":5370,"must":5371,"moss":5372,"moll":5373,"oat":5374,"sow":5375,"tas":5376,"uh":5377,"enal":5378,"enia":5379,"alter":5380,"icated":5381,"arcom":5382,"unhe":5383,"unass":5384,"iture":5385,"element":5386,"leen":5387,"sta":5388,"chry":5389,"chev":5390,"acin":5391,"amental":5392,"adapt":5393,"advert":5394,"utes":5395,"rival":5396,"odal":5397,"nondef":5398,"verb":5399,"ques":5400,"appoint":5401,"prob":5402,"prost":5403,"protop":5404,"epend":5405,"pregn":5406,"udge":5407,"alloc":5408,"scro":5409,"prud":5410,"mans":5411,"angs":5412,"boom":5413,"intens":5414,"awed":5415,"weary":5416,"rance":5417,"hoe":5418,"minim":5419,"skinned":5420,"hydroph":5421,"grind":5422,"inny":5423,"pseudoc":5424,"breaker":5425,"ennial":5426,"synchron":5427,"hollow":5428,"tranqu":5429,"mindedly":5430,"gnath":5431,"rayed":5432,"ghost":5433,"novel":5434,"material":5435,"'t":5436,"Fred":5437,"RI":5438,"Rich":5439,"Russ":5440,"Tet":5441,"ao":5442,"critic":5443,"fiss":5444,"gs":5445,"jib":5446,"kne":5447,"kines":5448,"lop":5449,"mem":5450,"mop":5451,"mish":5452,"mold":5453,"oos":5454,"pag":5455,"ride":5456,"torn":5457,"ui":5458,"uer":5459,"uating":5460,"ws":5461,"anem":5462,"attract":5463,"orc":5464,"orical":5465,"unter":5466,"unres":5467,"elabor":5468,"stones":5469,"chat":5470,"chit":5471,"acies":5472,"uri":5473,"abs":5474,"ente":5475,"osin":5476,"otri":5477,"utation":5478,"oda":5479,"ods":5480,"perip":5481,"igne":5482,"apa":5483,"propri":5484,"ando":5485,"preen":5486,"prefer":5487,"hymen":5488,"endor":5489,"ophob":5490,"upper":5491,"worship":5492,"worms":5493,"cyn":5494,"cyclo":5495,"glor":5496,"gland":5497,"glish":5498,"ropic":5499,"metap":5500,"slender":5501,"dering":5502,"romantic":5503,"skir":5504,"cereb":5505,"decol":5506,"featured":5507,"strum":5508,"mening":5509,"malle":5510,"chee":5511,"cheer":5512,"smart":5513,"crab":5514,"depress":5515,"hypoc":5516,"nerv":5517,"fluid":5518,"distribut":5519,"plicate":5520,"linear":5521,"analy":5522,"horned":5523,"ribbed":5524,"hued":5525,"toxic":5526,"separ":5527,"roofed":5528,"princip":5529,"individual":5530,"Cel":5531,"FS":5532,"PC":5533,"Pen":5534,"Pter":5535,"Ram":5536,"West":5537,"bust":5538,"cous":5539,"dumb":5540,"eag":5541,"euc":5542,"femin":5543,"frank":5544,"gil":5545,"gag":5546,"hort":5547,"lamb":5548,"male":5549,"nel":5550,"name":5551,"pard":5552,"siphon":5553,"tinted":5554,"uvi":5555,"wave":5556,"whole":5557,"ych":5558,"esia":5559,"anian":5560,"atives":5561,"alise":5562,"alumin":5563,"isan":5564,"arism":5565,"arach":5566,"orism":5567,"unlo":5568,"unte":5569,"chic":5570,"olitic":5571,"ionism":5572,"acar":5573,"acular":5574,"ulin":5575,"ulations":5576,"asse":5577,"urate":5578,"abe":5579,"ady":5580,"ados":5581,"adip":5582,"opard":5583,"nondec":5584,"proud":5585,"exual":5586,"ucker":5587,"aeus":5588,"scab":5589,"sciss":5590,"scrut":5591,"deer":5592,"deuter":5593,"ayan":5594,"fork":5595,"ostat":5596,"flame":5597,"uba":5598,"monopol":5599,"okes":5600,"ption":5601,"slav":5602,"peace":5603,"ratic":5604,"oval":5605,"oxyl":5606,"archit":5607,"anthus":5608,"Ant":5609,"meal":5610,"ochro":5611,"righ":5612,"center":5613,"ailing":5614,"catal":5615,"patch":5616,"zeal":5617,"bones":5618,"iousnesses":5619,"furn":5620,"film":5621,"optic":5622,"opoda":5623,"glycer":5624,"news":5625,"gelatin":5626,"climat":5627,"juven":5628,"favor":5629,"chamber":5630,"oplasm":5631,"dodec":5632,"otoxin":5633,"oglyph":5634,"hynch":5635,"Hen":5636,"Lin":5637,"Lind":5638,"Myr":5639,"OC":5640,"RC":5641,"cuck":5642,"crin":5643,"dir":5644,"dib":5645,"east":5646,"eup":5647,"gay":5648,"gamb":5649,"hit":5650,"hut":5651,"kol":5652,"lis":5653,"lang":5654,"lack":5655,"lign":5656,"langu":5657,"pated":5658,"pau":5659,"rell":5660,"sis":5661,"sip":5662,"satur":5663,"tess":5664,"tann":5665,"uary":5666,"wast":5667,"atm":5668,"alc":5669,"oro":5670,"itating":5671,"elon":5672,"sting":5673,"chand":5674,"usively":5675,"oled":5676,"eton":5677,"etter":5678,"phra":5679,"essed":5680,"omous":5681,"emaking":5682,"ami":5683,"otism":5684,"umed":5685,"riform":5686,"nonsub":5687,"noncont":5688,"qui":5689,"apan":5690,"anting":5691,"cone":5692,"andro":5693,"ianth":5694,"astically":5695,"prere":5696,"owing":5697,"enda":5698,"clock":5699,"fored":5700,"bloss":5701,"compet":5702,"flam":5703,"intim":5704,"tachy":5705,"week":5706,"lower":5707,"metry":5708,"evangel":5709,"poor":5710,"oven":5711,"abled":5712,"grac":5713,"annex":5714,"fern":5715,"decom":5716,"Anth":5717,"gru":5718,"pyram":5719,"roller":5720,"unts":5721,"palm":5722,"presby":5723,"lander":5724,"legis":5725,"infect":5726,"depos":5727,"engine":5728,"moder":5729,"occip":5730,"jointed":5731,"books":5732,"ophilic":5733,"ophora":5734,"uddle":5735,"flagell":5736,"toler":5737,"false":5738,"Palae":5739,"Whit":5740,"question":5741,"thirty":5742,"hospit":5743,"Jacob":5744,"crested":5745,"Brit":5746,"Cast":5747,"Cath":5748,"Do":5749,"Im":5750,"Po":5751,"Sp":5752,"Wel":5753,"aic":5754,"aine":5755,"bom":5756,"brim":5757,"bapt":5758,"fund":5759,"file":5760,"franch":5761,"lach":5762,"lance":5763,"pub":5764,"tact":5765,"you":5766,"alic":5767,"alian":5768,"uned":5769,"unself":5770,"unconf":5771,"itively":5772,"roscop":5773,"rak":5774,"etes":5775,"omphal":5776,"acus":5777,"ulant":5778,"entral":5779,"ems":5780,"emas":5781,"ogs":5782,"eced":5783,"opisth":5784,"iva":5785,"irrig":5786,"shri":5787,"examin":5788,"overt":5789,"hyps":5790,"obst":5791,"obacter":5792,"heim":5793,"akers":5794,"scatter":5795,"endoc":5796,"blers":5797,"blank":5798,"inda":5799,"tein":5800,"bead":5801,"intellig":5802,"atories":5803,"toe":5804,"wee":5805,"ocking":5806,"ego":5807,"pear":5808,"toned":5809,"ultural":5810,"rows":5811,"tyrann":5812,"gradu":5813,"microp":5814,"lingu":5815,"anni":5816,"autos":5817,"ochlor":5818,"maint":5819,"design":5820,"atten":5821,"vener":5822,"regist":5823,"offs":5824,"recept":5825,"caud":5826,"laid":5827,"strait":5828,"surf":5829,"clothes":5830,"flux":5831,"musk":5832,"music":5833,"middle":5834,"concili":5835,"extract":5836,"onych":5837,"orrho":5838,"fibro":5839,"uscept":5840,"frequ":5841,"pigeon":5842,"olithic":5843,"Christian":5844,"likeness":5845,"evolution":5846,"navig":5847,"plough":5848,"Cro":5849,"Dic":5850,"Dur":5851,"Dav":5852,"Fre":5853,"Go":5854,"Hart":5855,"Kir":5856,"Lar":5857,"Lib":5858,"Mas":5859,"Mur":5860,"Semi":5861,"TA":5862,"bism":5863,"bend":5864,"canth":5865,"camph":5866,"eud":5867,"foc":5868,"fted":5869,"filled":5870,"giest":5871,"hug":5872,"hart":5873,"iative":5874,"jub":5875,"lins":5876,"lute":5877,"much":5878,"noct":5879,"pile":5880,"pond":5881,"psal":5882,"puff":5883,"sized":5884,"text":5885,"yd":5886,"yak":5887,"inas":5888,"inoc":5889,"inia":5890,"inidae":5891,"orously":5892,"reper":5893,"chyl":5894,"olum":5895,"olys":5896,"omast":5897,"ultr":5898,"abil":5899,"ameter":5900,"umbr":5901,"ripe":5902,"econom":5903,"imag":5904,"periph":5905,"apped":5906,"antil":5907,"antig":5908,"exhib":5909,"pler":5910,"plumb":5911,"platin":5912,"hear":5913,"pris":5914,"keys":5915,"aye":5916,"ophytic":5917,"subter":5918,"worse":5919,"monoc":5920,"trade":5921,"fulnesses":5922,"miser":5923,"tough":5924,"matur":5925,"glomer":5926,"redis":5927,"sooth":5928,"germin":5929,"mercur":5930,"microm":5931,"marble":5932,"deck":5933,"uncle":5934,"snuff":5935,"rigged":5936,"swan":5937,"mail":5938,"goat":5939,"pett":5940,"handedness":5941,"ridge":5942,"depart":5943,"warrant":5944,"ollen":5945,"secut":5946,"particip":5947,"flowing":5948,"pulver":5949,"troch":5950,"rify":5951,"analog":5952,"opsis":5953,"service":5954,"iosity":5955,"rooted":5956,"uscular":5957,"ocephalous":5958,"borough":5959,"bottom":5960,"necess":5961,"Brah":5962,"catech":5963,"browed":5964,"oscill":5965,"systemat":5966,"Chal":5967,"Dal":5968,"Gen":5969,"Han":5970,"Hell":5971,"Je":5972,"John":5973,"Ken":5974,"Lo":5975,"Laur":5976,"Mol":5977,"Wol":5978,"bite":5979,"bard":5980,"bang":5981,"bility":5982,"bail":5983,"city":5984,"cence":5985,"cane":5986,"cott":5987,"cili":5988,"cris":5989,"eer":5990,"fric":5991,"iological":5992,"ji":5993,"loss":5994,"nag":5995,"nik":5996,"numer":5997,"nymph":5998,"pate":5999,"sut":6000,"sop":6001,"tos":6002,"vall":6003,"voy":6004,"inable":6005,"anag":6006,"enoid":6007,"alising":6008,"editor":6009,"orium":6010,"orange":6011,"uncor":6012,"starch":6013,"chet":6014,"chest":6015,"chrys":6016,"usur":6017,"omely":6018,"emn":6019,"emble":6020,"osities":6021,"otax":6022,"otrophic":6023,"adam":6024,"pery":6025,"perpet":6026,"nond":6027,"iaz":6028,"shap":6029,"shoe":6030,"shallow":6031,"spr":6032,"illus":6033,"sevent":6034,"ucer":6035,"neo":6036,"forep":6037,"combin":6038,"boats":6039,"flies":6040,"beard":6041,"bearded":6042,"outw":6043,"acknow":6044,"icked":6045,"mono":6046,"syphil":6047,"paral":6048,"oker":6049,"egy":6050,"sla":6051,"derm":6052,"soon":6053,"foil":6054,"minister":6055,"archic":6056,"axillary":6057,"anning":6058,"unsur":6059,"hydra":6060,"pyr":6061,"rolling":6062,"attle":6063,"iformes":6064,"culate":6065,"ruf":6066,"legitim":6067,"accus":6068,"wardly":6069,"ousnesses":6070,"domin":6071,"pressed":6072,"multic":6073,"visaged":6074,"circu":6075,"topped":6076,"cutter":6077,"splan":6078,"limbed":6079,"jection":6080,"weeds":6081,"otypic":6082,"otherapeut":6083,"iacal":6084,"chloro":6085,"opodous":6086,"opteryg":6087,"factor":6088,"vulgar":6089,"ophyllous":6090,"ozoic":6091,"Turk":6092,"icolous":6093,"ocentric":6094,"riction":6095,"liquid":6096,"birth":6097,"emphas":6098,"gentleman":6099,"authent":6100,"Br":6101,"Bat":6102,"DE":6103,"Kat":6104,"LS":6105,"Lab":6106,"Long":6107,"Nov":6108,"RT":6109,"Ro":6110,"Scot":6111,"TO":6112,"Tra":6113,"Will":6114,"bane":6115,"beck":6116,"cret":6117,"dash":6118,"fs":6119,"fare":6120,"grip":6121,"his":6122,"hund":6123,"iw":6124,"iates":6125,"kiss":6126,"mend":6127,"nia":6128,"pug":6129,"pach":6130,"sack":6131,"sore":6132,"tog":6133,"tunn":6134,"tympan":6135,"won":6136,"yth":6137,"yield":6138,"onist":6139,"escap":6140,"anas":6141,"anize":6142,"ensu":6143,"alite":6144,"isch":6145,"ischi":6146,"icize":6147,"arine":6148,"unting":6149,"unexc":6150,"itiously":6151,"elastic":6152,"reco":6153,"stool":6154,"champ":6155,"oling":6156,"etted":6157,"omical":6158,"accommod":6159,"ulo":6160,"thio":6161,"abel":6162,"entre":6163,"oto":6164,"adren":6165,"opa":6166,"agre":6167,"agree":6168,"iza":6169,"quot":6170,"appet":6171,"antes":6172,"antep":6173,"ircum":6174,"sha":6175,"shev":6176,"conform":6177,"cole":6178,"ells":6179,"ellip":6180,"ianize":6181,"alla":6182,"deaf":6183,"keeping":6184,"cled":6185,"clusion":6186,"ophosph":6187,"forc":6188,"athemat":6189,"inters":6190,"tah":6191,"geon":6192,"resur":6193,"lows":6194,"glaz":6195,"metrical":6196,"insol":6197,"understand":6198,"event":6199,"evapor":6200,"polit":6201,"sou":6202,"peac":6203,"ularity":6204,"rowed":6205,"oxic":6206,"here":6207,"brady":6208,"ferro":6209,"myri":6210,"And":6211,"ignor":6212,"hydros":6213,"tured":6214,"regard":6215,"volat":6216,"butt":6217,"purg":6218,"multif":6219,"thyro":6220,"protect":6221,"ozon":6222,"boxes":6223,"faction":6224,"liver":6225,"physic":6226,"beggar":6227,"social":6228,"nitro":6229,"standard":6230,"speaking":6231,"enthus":6232,"rooms":6233,"imetry":6234,"imetric":6235,"spiritual":6236,"gynec":6237,"chondro":6238,"honor":6239,"sounding":6240,"Teut":6241,"breathing":6242,"oglobin":6243,"Dol":6244,"Dec":6245,"FE":6246,"Fal":6247,"Ful":6248,"Hor":6249,"LA":6250,"Oph":6251,"Ori":6252,"Port":6253,"Sin":6254,"San":6255,"Sha":6256,"Span":6257,"Saint":6258,"Wa":6259,"dies":6260,"duc":6261,"eul":6262,"fr":6263,"fab":6264,"gross":6265,"had":6266,"hind":6267,"iator":6268,"iamb":6269,"jan":6270,"kam":6271,"mu":6272,"mpt":6273,"march":6274,"memor":6275,"nam":6276,"nie":6277,"note":6278,"peck":6279,"ryl":6280,"sort":6281,"tul":6282,"tower":6283,"wav":6284,"zel":6285,"inist":6286,"anist":6287,"atine":6288,"enosis":6289,"alty":6290,"icidal":6291,"ares":6292,"iton":6293,"itus":6294,"repe":6295,"reason":6296,"chast":6297,"ilely":6298,"rae":6299,"rake":6300,"phone":6301,"thetic":6302,"emig":6303,"opaed":6304,"ococ":6305,"apo":6306,"apter":6307,"lost":6308,"ipped":6309,"iffl":6310,"convers":6311,"conjug":6312,"speech":6313,"erson":6314,"prev":6315,"overex":6316,"pla":6317,"obenz":6318,"allen":6319,"scen":6320,"nebul":6321,"endo":6322,"forty":6323,"disco":6324,"teas":6325,"beet":6326,"outf":6327,"intend":6328,"icking":6329,"tained":6330,"achromat":6331,"lied":6332,"acean":6333,"lowing":6334,"glig":6335,"collar":6336,"ptic":6337,"whel":6338,"baron":6339,"oxin":6340,"yme":6341,"lett":6342,"bru":6343,"herb":6344,"trigon":6345,"brag":6346,"auch":6347,"dough":6348,"zoic":6349,"rhod":6350,"paed":6351,"ventric":6352,"predic":6353,"viscer":6354,"bench":6355,"amino":6356,"group":6357,"omorphous":6358,"basket":6359,"balls":6360,"phenomen":6361,"tempered":6362,"simple":6363,"course":6364,"treat":6365,"treas":6366,"ophagy":6367,"rabbit":6368,"liberal":6369,"firm":6370,"sperm":6371,"empir":6372,"ocephalic":6373,"mouse":6374,"etalous":6375,"bacteri":6376,"civil":6377,"execut":6378,"opinion":6379,"neutral":6380,"dacry":6381,"acknowled":6382,"splanchn":6383,"Av":6384,"Act":6385,"DT":6386,"LO":6387,"MT":6388,"Mach":6389,"PI":6390,"PO":6391,"Pat":6392,"Ped":6393,"Pod":6394,"Phyl":6395,"Paul":6396,"Rhod":6397,"Ta":6398,"Tel":6399,"Tom":6400,"bble":6401,"beth":6402,"dess":6403,"dext":6404,"gian":6405,"goss":6406,"giving":6407,"hing":6408,"lid":6409,"lant":6410,"lard":6411,"lup":6412,"national":6413,"oak":6414,"pump":6415,"rations":6416,"swell":6417,"tier":6418,"viz":6419,"wrist":6420,"zi":6421,"zan":6422,"inely":6423,"inoid":6424,"esophag":6425,"aner":6426,"anchor":6427,"eny":6428,"alis":6429,"alum":6430,"icer":6431,"arrang":6432,"orize":6433,"elder":6434,"stay":6435,"stage":6436,"strom":6437,"chanc":6438,"usa":6439,"usiveness":6440,"phleg":6441,"esse":6442,"omo":6443,"ioner":6444,"aces":6445,"accord":6446,"ulas":6447,"uliform":6448,"thall":6449,"emet":6450,"admir":6451,"adelph":6452,"ouses":6453,"ogg":6454,"ista":6455,"rimin":6456,"imes":6457,"imic":6458,"agh":6459,"ationism":6460,"pert":6461,"nonim":6462,"vermin":6463,"apolog":6464,"shear":6465,"concent":6466,"epil":6467,"iang":6468,"illon":6469,"comed":6470,"commerc":6471,"ostra":6472,"induct":6473,"bew":6474,"beef":6475,"ubber":6476,"introd":6477,"asses":6478,"interrog":6479,"ensive":6480,"achie":6481,"weet":6482,"glos":6483,"metamorph":6484,"eved":6485,"peach":6486,"whir":6487,"ularia":6488,"minth":6489,"ofib":6490,"triv":6491,"guer":6492,"market":6493,"orning":6494,"decar":6495,"serpent":6496,"strang":6497,"veined":6498,"brother":6499,"uckle":6500,"salping":6501,"contro":6502,"schol":6503,"urage":6504,"ussed":6505,"resses":6506,"delic":6507,"icula":6508,"rousness":6509,"potent":6510,"splend":6511,"expand":6512,"tempest":6513,"optosis":6514,"better":6515,"Indo":6516,"ophoric":6517,"faith":6518,"locks":6519,"shoot":6520,"drunk":6521,"pneumon":6522,"substanti":6523,"ocoel":6524,"writing":6525,"natured":6526,"pericard":6527,"building":6528,"investig":6529,"Adam":6530,"BA":6531,"Bry":6532,"CE":6533,"Card":6534,"Clar":6535,"DA":6536,"Dy":6537,"Dam":6538,"Gym":6539,"Len":6540,"Latin":6541,"MC":6542,"ME":6543,"Mary":6544,"Ok":6545,"PE":6546,"Pa":6547,"Pic":6548,"Pur":6549,"Su":6550,"Ven":6551,"aub":6552,"bak":6553,"cort":6554,"dler":6555,"eing":6556,"eater":6557,"fust":6558,"gom":6559,"gav":6560,"hav":6561,"jing":6562,"lur":6563,"lug":6564,"laur":6565,"membran":6566,"noc":6567,"rs":6568,"sund":6569,"sax":6570,"tig":6571,"tint":6572,"wink":6573,"onically":6574,"atism":6575,"atry":6576,"isot":6577,"isop":6578,"iche":6579,"arize":6580,"ington":6581,"iti":6582,"rece":6583,"stan":6584,"sted":6585,"stout":6586,"stair":6587,"staphyl":6588,"chick":6589,"user":6590,"raff":6591,"ulary":6592,"ulously":6593,"urt":6594,"uron":6595,"thank":6596,"osy":6597,"adder":6598,"uta":6599,"umm":6600,"opson":6601,"octa":6602,"agic":6603,"perine":6604,"nonco":6605,"quam":6606,"apprehens":6607,"antism":6608,"shield":6609,"lox":6610,"consol":6611,"concert":6612,"elles":6613,"andra":6614,"exis":6615,"illar":6616,"endable":6617,"forward":6618,"indle":6619,"boys":6620,"discrimin":6621,"asser":6622,"para":6623,"moving":6624,"oka":6625,"reduc":6626,"carpet":6627,"carcin":6628,"haunted":6629,"diap":6630,"ahu":6631,"rater":6632,"oves":6633,"oved":6634,"ovate":6635,"oxide":6636,"trig":6637,"guan":6638,"marg":6639,"feathered":6640,"strid":6641,"veh":6642,"Angl":6643,"hydrate":6644,"switch":6645,"sons":6646,"current":6647,"deser":6648,"ushing":6649,"affir":6650,"ethane":6651,"knock":6652,"knife":6653,"infinit":6654,"antiqu":6655,"otherap":6656,"precipit":6657,"odontia":6658,"join":6659,"duplic":6660,"troubl":6661,"arthro":6662,"sulphur":6663,"optera":6664,"fault":6665,"udding":6666,"blooded":6667,"profit":6668,"succin":6669,"lapar":6670,"iatric":6671,"burning":6672,"signific":6673,"jury":6674,"blown":6675,"dolich":6676,"aspir":6677,"tipped":6678,"fruited":6679,"cultiv":6680,"stomach":6681,"frame":6682,"journal":6683,"peritone":6684,"tradition":6685,"public":6686,"lichen":6687,"lubric":6688,"opexy":6689,"Bul":6690,"Corn":6691,"Du":6692,"Ele":6693,"Gab":6694,"Good":6695,"Lu":6696,"Mass":6697,"Nic":6698,"Pent":6699,"Sim":6700,"Vir":6701,"cocc":6702,"eury":6703,"fris":6704,"gid":6705,"gover":6706,"gene":6707,"gown":6708,"gunn":6709,"hect":6710,"ilet":6711,"iableness":6712,"kon":6713,"kib":6714,"kok":6715,"lil":6716,"nath":6717,"oun":6718,"pyl":6719,"pept":6720,"rural":6721,"sett":6722,"tank":6723,"take":6724,"uity":6725,"vinc":6726,"wur":6727,"wand":6728,"who":6729,"wyn":6730,"yly":6731,"zar":6732,"zig":6733,"alder":6734,"edom":6735,"isis":6736,"elism":6737,"remon":6738,"stent":6739,"chon":6740,"usher":6741,"ilated":6742,"eto":6743,"etch":6744,"pha":6745,"uloid":6746,"ulousness":6747,"third":6748,"amas":6749,"iste":6750,"isting":6751,"rik":6752,"ecker":6753,"ivoc":6754,"iman":6755,"odle":6756,"odial":6757,"perist":6758,"igo":6759,"antagon":6760,"ipping":6761,"confer":6762,"estic":6763,"prolog":6764,"uder":6765,"plug":6766,"illas":6767,"search":6768,"oblong":6769,"scale":6770,"scrap":6771,"defer":6772,"nea":6773,"neglig":6774,"ophot":6775,"angium":6776,"beer":6777,"beak":6778,"inton":6779,"achron":6780,"rane":6781,"core":6782,"urement":6783,"evel":6784,"diagn":6785,"diabol":6786,"slide":6787,"peop":6788,"wher":6789,"barred":6790,"azo":6791,"azot":6792,"herd":6793,"tings":6794,"istics":6795,"hydrop":6796,"oche":6797,"iks":6798,"thermo":6799,"enna":6800,"iole":6801,"encing":6802,"panic":6803,"solic":6804,"acceler":6805,"ionality":6806,"bye":6807,"photoc":6808,"belt":6809,"boned":6810,"complet":6811,"aerob":6812,"cream":6813,"farm":6814,"bathy":6815,"banded":6816,"devot":6817,"hedge":6818,"aggreg":6819,"planet":6820,"floor":6821,"ogamous":6822,"fallen":6823,"agogue":6824,"familiar":6825,"dragon":6826,"Franco":6827,"gymn":6828,"omotor":6829,"benefic":6830,"iflorous":6831,"american":6832,"manifest":6833,"AF":6834,"Ah":6835,"Ach":6836,"Bell":6837,"Bart":6838,"Gor":6839,"Jes":6840,"Ka":6841,"Kol":6842,"MO":6843,"Mich":6844,"Maur":6845,"Ny":6846,"Pas":6847,"Phar":6848,"Rod":6849,"Ray":6850,"Sem":6851,"Shar":6852,"aire":6853,"aunt":6854,"bary":6855,"bure":6856,"cker":6857,"cater":6858,"cush":6859,"dart":6860,"daw":6861,"ead":6862,"fem":6863,"fren":6864,"fancy":6865,"fowl":6866,"fruct":6867,"gim":6868,"gau":6869,"ih":6870,"iam":6871,"jol":6872,"kor":6873,"lia":6874,"length":6875,"mild":6876,"nost":6877,"nub":6878,"oest":6879,"pable":6880,"say":6881,"tile":6882,"toll":6883,"vend":6884,"wy":6885,"wir":6886,"wish":6887,"wain":6888,"wagon":6889,"xiph":6890,"yed":6891,"onium":6892,"atist":6893,"eners":6894,"alm":6895,"aldehyde":6896,"itant":6897,"roth":6898,"reve":6899,"reform":6900,"lea":6901,"stained":6902,"chow":6903,"chalk":6904,"ilism":6905,"olon":6906,"ionate":6907,"acs":6908,"acrom":6909,"acetic":6910,"ulli":6911,"thre":6912,"threat":6913,"abo":6914,"abas":6915,"entgen":6916,"otte":6917,"perig":6918,"period":6919,"nonin":6920,"shin":6921,"shir":6922,"coid":6923,"spider":6924,"undiv":6925,"undep":6926,"ineff":6927,"prein":6928,"overd":6929,"hybrid":6930,"seeming":6931,"heal":6932,"dee":6933,"aval":6934,"ugal":6935,"ologize":6936,"dispens":6937,"upe":6938,"acking":6939,"traff":6940,"lix":6941,"rese":6942,"oneu":6943,"matist":6944,"matri":6945,"actor":6946,"semil":6947,"correspond":6948,"urea":6949,"mineral":6950,"brazen":6951,"micros":6952,"guid":6953,"sermon":6954,"feeding":6955,"anthe":6956,"vein":6957,"unsec":6958,"calor":6959,"calam":6960,"country":6961,"sno":6962,"malt":6963,"rolled":6964,"chees":6965,"porphy":6966,"venom":6967,"enny":6968,"salv":6969,"regular":6970,"electroph":6971,"uffle":6972,"multis":6973,"encycl":6974,"arks":6975,"split":6976,"distinct":6977,"divis":6978,"bloom":6979,"lighted":6980,"psycho":6981,"glob":6982,"invig":6983,"opterous":6984,"urgical":6985,"laps":6986,"baby":6987,"throat":6988,"crani":6989,"iastic":6990,"ranchiata":6991,"categor":6992,"machine":6993,"closed":6994,"jawed":6995,"revolution":6996,"custom":6997,"agglutin":6998,"diamond":6999,"architect":7000,"hundred":7001,"Ari":7002,"Alex":7003,"Bre":7004,"Bow":7005,"Cent":7006,"Cop":7007,"Den":7008,"Es":7009,"Est":7010,"Gr":7011,"Gy":7012,"Goth":7013,"Kor":7014,"LI":7015,"Low":7016,"NI":7017,"Not":7018,"Os":7019,"Pap":7020,"Sand":7021,"Syn":7022,"Wy":7023,"Ze":7024,"bund":7025,"bash":7026,"brig":7027,"celi":7028,"fas":7029,"fec":7030,"fag":7031,"fright":7032,"gingly":7033,"iard":7034,"lud":7035,"lash":7036,"luck":7037,"nemat":7038,"penc":7039,"prag":7040,"sine":7041,"saddle":7042,"tib":7043,"tiger":7044,"uing":7045,"vale":7046,"wn":7047,"wad":7048,"wif":7049,"winn":7050,"wald":7051,"indef":7052,"onit":7053,"escal":7054,"anon":7055,"aned":7056,"atress":7057,"enary":7058,"isob":7059,"arra":7060,"orious":7061,"uni":7062,"unas":7063,"unam":7064,"itary":7065,"recom":7066,"reconf":7067,"record":7068,"stic":7069,"strew":7070,"chaff":7071,"ilicate":7072,"olis":7073,"phac":7074,"phas":7075,"omi":7076,"omeric":7077,"ido":7078,"idate":7079,"ionize":7080,"aced":7081,"acchar":7082,"ulcer":7083,"thron":7084,"thesis":7085,"otrich":7086,"utt":7087,"ecan":7088,"opus":7089,"term":7090,"iven":7091,"ivory":7092,"imed":7093,"agra":7094,"ige":7095,"quat":7096,"apoc":7097,"apping":7098,"applic":7099,"antage":7100,"shy":7101,"shro":7102,"shag":7103,"shaf":7104,"shirt":7105,"loth":7106,"concer":7107,"consul":7108,"ellers":7109,"spon":7110,"spit":7111,"proportion":7112,"epi":7113,"epar":7114,"undo":7115,"hyg":7116,"trunk":7117,"alls":7118,"allic":7119,"arde":7120,"ialized":7121,"cliff":7122,"ophage":7123,"blingly":7124,"bok":7125,"bou":7126,"assim":7127,"mond":7128,"intermed":7129,"ension":7130,"parent":7131,"parag":7132,"moth":7133,"weap":7134,"sement":7135,"metrop":7136,"insist":7137,"colleg":7138,"pea":7139,"ahl":7140,"burden":7141,"archies":7142,"brac":7143,"ceremon":7144,"decor":7145,"stress":7146,"unsal":7147,"lery":7148,"desm":7149,"breeding":7150,"aree":7151,"issol":7152,"ometers":7153,"knob":7154,"volcan":7155,"etti":7156,"uras":7157,"oyster":7158,"equilib":7159,"circul":7160,"transport":7161,"particular":7162,"pinch":7163,"anticip":7164,"scribed":7165,"occas":7166,"tempt":7167,"drive":7168,"simpl":7169,"ascular":7170,"Leon":7171,"imperson":7172,"iety":7173,"living":7174,"nutrit":7175,"agonal":7176,"dimin":7177,"mannered":7178,"fronted":7179,"suffic":7180,"henia":7181,"fortun":7182,"figur":7183,"souled":7184,"orchest":7185,"rography":7186,"yllabic":7187,"uzzle":7188,"combust":7189,"stroke":7190,"sighted":7191,"pepper":7192,"orrhagia":7193,"powder":7194,"industri":7195,"mountain":7196,"Aur":7197,"BI":7198,"Bu":7199,"Barn":7200,"DF":7201,"Hil":7202,"Hib":7203,"Hay":7204,"Isl":7205,"Kh":7206,"LC":7207,"Max":7208,"NC":7209,"No":7210,"Rus":7211,"Rad":7212,"TC":7213,"TE":7214,"Tre":7215,"Thom":7216,"aemia":7217,"cuc":7218,"cinn":7219,"camb":7220,"crep":7221,"crem":7222,"dell":7223,"dling":7224,"dled":7225,"dread":7226,"fang":7227,"frig":7228,"fals":7229,"felt":7230,"gus":7231,"gorg":7232,"het":7233,"hub":7234,"iologist":7235,"jail":7236,"kas":7237,"kie":7238,"knee":7239,"lak":7240,"lott":7241,"little":7242,"noth":7243,"oar":7244,"oophor":7245,"pang":7246,"pure":7247,"satin":7248,"tired":7249,"ufact":7250,"wen":7251,"youth":7252,"esome":7253,"anol":7254,"atize":7255,"enam":7256,"icorn":7257,"aras":7258,"argu":7259,"unav":7260,"untrans":7261,"unpur":7262,"unprov":7263,"role":7264,"reex":7265,"stich":7266,"stink":7267,"chym":7268,"raven":7269,"olit":7270,"olip":7271,"phase":7272,"essential":7273,"acut":7274,"acron":7275,"acrid":7276,"ulable":7277,"ulfur":7278,"thus":7279,"thmic":7280,"abal":7281,"amyg":7282,"otter":7283,"advis":7284,"oga":7285,"rile":7286,"riff":7287,"agy":7288,"igate":7289,"nonpl":7290,"verbal":7291,"icalism":7292,"conven":7293,"estone":7294,"ellation":7295,"spo":7296,"ianist":7297,"ineous":7298,"overe":7299,"hypos":7300,"ibranch":7301,"pless":7302,"illes":7303,"seam":7304,"seeking":7305,"truck":7306,"scat":7307,"scented":7308,"ialization":7309,"keel":7310,"disp":7311,"dissol":7312,"intest":7313,"interfer":7314,"liament":7315,"move":7316,"mount":7317,"awe":7318,"bery":7319,"actual":7320,"coral":7321,"corac":7322,"carry":7323,"slack":7324,"whirl":7325,"retic":7326,"archae":7327,"bras":7328,"grained":7329,"cerat":7330,"certain":7331,"dece":7332,"strength":7333,"alee":7334,"ongs":7335,"incur":7336,"hydric":7337,"ritorial":7338,"hemis":7339,"ushed":7340,"affe":7341,"thead":7342,"broom":7343,"zoa":7344,"zoon":7345,"petal":7346,"elior":7347,"republ":7348,"known":7349,"canal":7350,"paid":7351,"unny":7352,"prize":7353,"squar":7354,"ationalism":7355,"garn":7356,"praise":7357,"usses":7358,"equal":7359,"deliber":7360,"bitten":7361,"piro":7362,"piec":7363,"circular":7364,"horiz":7365,"benzo":7366,"hoods":7367,"downs":7368,"explo":7369,"immort":7370,"torment":7371,"birds":7372,"bulb":7373,"saint":7374,"safe":7375,"help":7376,"opsia":7377,"hedral":7378,"chemical":7379,"float":7380,"crank":7381,"scription":7382,"pteryg":7383,"writer":7384,"neglect":7385,"willow":7386,"noble":7387,"osperm":7388,"wreck":7389,"shadow":7390,"maiden":7391,"sculpt":7392,"transcend":7393,"American":7394,"develop":7395,"academ":7396,"cholecyst":7397,"arcoma":7398,"legisl":7399,"Aud":7400,"BE":7401,"Bac":7402,"Cre":7403,"Dip":7404,"FI":7405,"Fe":7406,"Fab":7407,"Hu":7408,"Hes":7409,"His":7410,"Hipp":7411,"Joh":7412,"Mul":7413,"Na":7414,"Rock":7415,"Sor":7416,"Sum":7417,"To":7418,"Tart":7419,"Thor":7420,"WA":7421,"Xen":7422,"bist":7423,"bable":7424,"cly":7425,"cite":7426,"cary":7427,"cash":7428,"crot":7429,"cortic":7430,"dob":7431,"duct":7432,"fran":7433,"gow":7434,"gather":7435,"jay":7436,"jump":7437,"kop":7438,"leness":7439,"lax":7440,"mens":7441,"mamm":7442,"moment":7443,"nu":7444,"nell":7445,"naut":7446,"number":7447,"pagan":7448,"rina":7449,"sme":7450,"ulet":7451,"vene":7452,"xim":7453,"yaw":7454,"Ġa":7455,"ĠĊ":7456,"erot":7457,"onate":7458,"alam":7459,"isoc":7460,"island":7461,"orially":7462,"untra":7463,"unref":7464,"itu":7465,"ithe":7466,"itably":7467,"itiveness":7468,"stric":7469,"states":7470,"chau":7471,"rament":7472,"olus":7473,"etz":7474,"etric":7475,"ionable":7476,"thur":7477,"thrust":7478,"aband":7479,"oser":7480,"osing":7481,"osol":7482,"osia":7483,"osse":7484,"osely":7485,"otry":7486,"utable":7487,"opleg":7488,"imped":7489,"impart":7490,"odent":7491,"ationary":7492,"igar":7493,"igation":7494,"nons":7495,"nonen":7496,"anta":7497,"antir":7498,"shod":7499,"ifically":7500,"coin":7501,"ellum":7502,"ellite":7503,"spoil":7504,"expos":7505,"undi":7506,"aston":7507,"astron":7508,"iesis":7509,"uca":7510,"scall":7511,"scratch":7512,"deut":7513,"keen":7514,"cla":7515,"cling":7516,"compos":7517,"ostrac":7518,"both":7519,"flax":7520,"ubst":7521,"assign":7522,"mone":7523,"monkey":7524,"taught":7525,"paran":7526,"parat":7527,"select":7528,"idei":7529,"ideal":7530,"moul":7531,"mourn":7532,"resent":7533,"okin":7534,"acts":7535,"semicon":7536,"cork":7537,"insect":7538,"diet":7539,"diac":7540,"slop":7541,"slim":7542,"deriv":7543,"people":7544,"tonian":7545,"barn":7546,"microg":7547,"twig":7548,"anther":7549,"counsel":7550,"ikin":7551,"snob":7552,"aneously":7553,"aphor":7554,"affili":7555,"brevi":7556,"rophia":7557,"handic":7558,"queen":7559,"schist":7560,"accust":7561,"harsh":7562,"knight":7563,"volution":7564,"riding":7565,"psil":7566,"rums":7567,"draft":7568,"draught":7569,"drawing":7570,"address":7571,"hypot":7572,"embod":7573,"lime":7574,"limn":7575,"scrim":7576,"except":7577,"protest":7578,"irable":7579,"suppress":7580,"dried":7581,"ascend":7582,"waist":7583,"conduc":7584,"crook":7585,"virtu":7586,"euphon":7587,"faint":7588,"damn":7589,"liber":7590,"digit":7591,"vulcan":7592,"tube":7593,"rologist":7594,"acquaint":7595,"sarco":7596,"washed":7597,"stemmed":7598,"ocerat":7599,"written":7600,"royal":7601,"sublim":7602,"phantas":7603,"razor":7604,"fiery":7605,"christian":7606,"bishop":7607,"phleb":7608,"orthodox":7609,"Ath":7610,"Asc":7611,"Berg":7612,"DD":7613,"DO":7614,"Din":7615,"Dev":7616,"Eth":7617,"Fair":7618,"Gib":7619,"Hed":7620,"Had":7621,"Jul":7622,"Lept":7623,"Ni":7624,"North":7625,"Por":7626,"RP":7627,"Ren":7628,"Sus":7629,"Sid":7630,"Sav":7631,"Sub":7632,"Tro":7633,"bion":7634,"cia":7635,"dab":7636,"date":7637,"dup":7638,"find":7639,"fty":7640,"fict":7641,"feld":7642,"gence":7643,"gour":7644,"gement":7645,"hide":7646,"jon":7647,"ll":7648,"lane":7649,"mall":7650,"mash":7651,"munic":7652,"nour":7653,"pia":7654,"pint":7655,"pins":7656,"pisc":7657,"sill":7658,"sial":7659,"tac":7660,"trep":7661,"vat":7662,"vow":7663,"wry":7664,"wrink":7665,"zie":7666,"inco":7667,"intrans":7668,"onous":7669,"attribut":7670,"isy":7671,"icard":7672,"arr":7673,"arid":7674,"arms":7675,"unal":7676,"unop":7677,"unsuper":7678,"unmer":7679,"unrest":7680,"unrem":7681,"iters":7682,"itten":7683,"itiousness":7684,"eliness":7685,"robed":7686,"robor":7687,"revers":7688,"leth":7689,"leys":7690,"stin":7691,"stur":7692,"steg":7693,"store":7694,"story":7695,"rasp":7696,"raising":7697,"olu":7698,"olous":7699,"olia":7700,"etin":7701,"etym":7702,"idental":7703,"asym":7704,"uridae":7705,"thys":7706,"util":7707,"ogony":7708,"riev":7709,"rize":7710,"ivist":7711,"odium":7712,"nonab":7713,"apoph":7714,"shack":7715,"shake":7716,"shrew":7717,"shift":7718,"conch":7719,"conson":7720,"construct":7721,"consider":7722,"spun":7723,"procur":7724,"hygro":7725,"illate":7726,"trist":7727,"allot":7728,"screen":7729,"ceiv":7730,"neys":7731,"ylar":7732,"ffer":7733,"clod":7734,"ophi":7735,"ophobe":7736,"comment":7737,"index":7738,"indict":7739,"iew":7740,"atha":7741,"athic":7742,"intent":7743,"worts":7744,"assed":7745,"interpret":7746,"trape":7747,"taint":7748,"synon":7749,"parab":7750,"orts":7751,"geable":7752,"okines":7753,"redist":7754,"ropean":7755,"sled":7756,"trib":7757,"grab":7758,"gras":7759,"grace":7760,"anthrac":7761,"uncur":7762,"tingu":7763,"mez":7764,"omycosis":7765,"grum":7766,"attent":7767,"portra":7768,"ixes":7769,"recre":7770,"bordered":7771,"volt":7772,"Arist":7773,"charged":7774,"aurus":7775,"auricular":7776,"mesmer":7777,"multil":7778,"visual":7779,"addy":7780,"strain":7781,"deleg":7782,"times":7783,"grey":7784,"reading":7785,"party":7786,"anticon":7787,"effic":7788,"otherm":7789,"impass":7790,"rified":7791,"wheat":7792,"ophilia":7793,"Ind":7794,"locut":7795,"hedron":7796,"emonger":7797,"literal":7798,"days":7799,"range":7800,"dimens":7801,"digest":7802,"burnt":7803,"turned":7804,"speak":7805,"jejun":7806,"rological":7807,"walled":7808,"strike":7809,"striped":7810,"ophyllum":7811,"anatom":7812,"ituted":7813,"dialect":7814,"parasit":7815,"thirst":7816,"vigil":7817,"knowled":7818,"conscious":7819,"wreath":7820,"coffee":7821,"structur":7822,"trumpet":7823,"sober":7824,"fifty":7825,"thromb":7826,"pauper":7827,"rufous":7828,"eulog":7829,"Bay":7830,"FO":7831,"Fil":7832,"Frank":7833,"Gi":7834,"Hum":7835,"Hard":7836,"Jun":7837,"Kin":7838,"Krist":7839,"Lan":7840,"Lep":7841,"Lou":7842,"Mend":7843,"Mari":7844,"Ner":7845,"Nem":7846,"Pom":7847,"Pri":7848,"Pers":7849,"Sen":7850,"Thy":7851,"Wall":7852,"bia":7853,"bys":7854,"cist":7855,"ders":7856,"dung":7857,"dles":7858,"fired":7859,"filling":7860,"fitting":7861,"gie":7862,"gage":7863,"iker":7864,"lite":7865,"live":7866,"lain":7867,"latch":7868,"mog":7869,"mest":7870,"mint":7871,"might":7872,"nab":7873,"nim":7874,"ounce":7875,"pim":7876,"paw":7877,"rare":7878,"wr":7879,"yon":7880,"erect":7881,"onne":7882,"atel":7883,"enol":7884,"enian":7885,"aline":7886,"edict":7887,"isen":7888,"isement":7889,"arb":7890,"arer":7891,"orite":7892,"orator":7893,"unis":7894,"repl":7895,"stum":7896,"cht":7897,"ilite":7898,"ileness":7899,"ilder":7900,"rache":7901,"olas":7902,"omere":7903,"idently":7904,"emy":7905,"embl":7906,"osite":7907,"amate":7908,"uming":7909,"eco":7910,"impression":7911,"ocell":7912,"agric":7913,"izingly":7914,"oded":7915,"persu":7916,"igan":7917,"nonres":7918,"verted":7919,"quo":7920,"antia":7921,"antich":7922,"shore":7923,"ipal":7924,"ifical":7925,"condem":7926,"coy":7927,"coast":7928,"spire":7929,"ismus":7930,"unda":7931,"hymn":7932,"ibles":7933,"plank":7934,"plastic":7935,"plasm":7936,"ucin":7937,"ucid":7938,"obas":7939,"obranchiate":7940,"scre":7941,"price":7942,"neat":7943,"manip":7944,"endos":7945,"clud":7946,"ophonic":7947,"comy":7948,"coming":7949,"rym":7950,"rystall":7951,"ango":7952,"teeth":7953,"floc":7954,"flatter":7955,"ieg":7956,"artic":7957,"icky":7958,"trail":7959,"mentally":7960,"weep":7961,"matric":7962,"hai":7963,"poon":7964,"pour":7965,"slum":7966,"slug":7967,"pee":7968,"ultim":7969,"rowing":7970,"brate":7971,"skelet":7972,"merry":7973,"brachi":7974,"axial":7975,"automat":7976,"mead":7977,"eptor":7978,"snip":7979,"ontic":7980,"swollen":7981,"curr":7982,"cheap":7983,"turf":7984,"pseudop":7985,"porter":7986,"reneg":7987,"theast":7988,"theolog":7989,"brous":7990,"wooden":7991,"rotomy":7992,"ixed":7993,"lining":7994,"caps":7995,"ualism":7996,"erousness":7997,"worked":7998,"boring":7999,"cannon":8000,"electrom":8001,"predict":8002,"uffed":8003,"humid":8004,"dramat":8005,"laugh":8006,"holes":8007,"arians":8008,"iculated":8009,"dysp":8010,"embow":8011,"confess":8012,"ohed":8013,"buoy":8014,"thyre":8015,"farad":8016,"preced":8017,"thalam":8018,"suppl":8019,"radio":8020,"mitted":8021,"racem":8022,"analyt":8023,"bowed":8024,"quadric":8025,"organic":8026,"imperial":8027,"locked":8028,"oderma":8029,"mascul":8030,"empty":8031,"drug":8032,"ocephaly":8033,"vagin":8034,"testing":8035,"uclear":8036,"varic":8037,"acquis":8038,"sesqu":8039,"figure":8040,"tolu":8041,"catholic":8042,"destruct":8043,"Black":8044,"orchid":8045,"neurop":8046,"negot":8047,"Half":8048,"ninety":8049,"hazard":8050,"Brook":8051,"ochemical":8052,"alphabet":8053,"luxur":8054,"naphth":8055,"soldier":8056,"occipital":8057,"seventy":8058,"'-":8059,"Aut":8060,"Aug":8061,"Blo":8062,"Bour":8063,"Brown":8064,"Cir":8065,"DM":8066,"DP":8067,"Dra":8068,"Gro":8069,"Gran":8070,"Jar":8071,"Kan":8072,"Kel":8073,"Kur":8074,"Kam":8075,"LT":8076,"Lip":8077,"Lud":8078,"Law":8079,"Maz":8080,"Nik":8081,"Penn":8082,"Rub":8083,"SO":8084,"Sta":8085,"Trin":8086,"Ved":8087,"Var":8088,"Zo":8089,"aest":8090,"bah":8091,"cec":8092,"cation":8093,"crat":8094,"das":8095,"drom":8096,"frow":8097,"fiddle":8098,"gild":8099,"iometer":8100,"jor":8101,"jas":8102,"kle":8103,"kite":8104,"kelet":8105,"lath":8106,"lelike":8107,"mush":8108,"nigh":8109,"pud":8110,"pater":8111,"pore":8112,"swo":8113,"sadd":8114,"tir":8115,"tars":8116,"vor":8117,"vast":8118,"veld":8119,"inform":8120,"inspect":8121,"esian":8122,"esche":8123,"anct":8124,"anaph":8125,"aron":8126,"orus":8127,"unver":8128,"unret":8129,"unfe":8130,"unanim":8131,"itas":8132,"elf":8133,"roentgen":8134,"revel":8135,"leagu":8136,"sts":8137,"chance":8138,"pho":8139,"omach":8140,"idrosis":8141,"uled":8142,"urine":8143,"thwart":8144,"enting":8145,"entry":8146,"otch":8147,"adia":8148,"adian":8149,"uty":8150,"uten":8151,"utic":8152,"opper":8153,"opoe":8154,"opoly":8155,"terer":8156,"ivities":8157,"improv":8158,"ocation":8159,"ocial":8160,"pering":8161,"perfor":8162,"iga":8163,"shak":8164,"shock":8165,"loon":8166,"loft":8167,"conjunct":8168,"coad":8169,"sprink":8170,"project":8171,"andi":8172,"explic":8173,"exhaust":8174,"epile":8175,"ismal":8176,"plut":8177,"seen":8178,"obtr":8179,"scint":8180,"scyph":8181,"deacon":8182,"prise":8183,"keep":8184,"ostatic":8185,"boid":8186,"disent":8187,"teet":8188,"fless":8189,"flint":8190,"artific":8191,"articulate":8192,"ubri":8193,"intu":8194,"monot":8195,"parrot":8196,"orting":8197,"gear":8198,"lowed":8199,"redeem":8200,"corner":8201,"insinu":8202,"haus":8203,"peak":8204,"foam":8205,"etern":8206,"rattle":8207,"ova":8208,"skull":8209,"trium":8210,"microph":8211,"axi":8212,"marriage":8213,"decked":8214,"anthra":8215,"stral":8216,"autom":8217,"Chil":8218,"Cham":8219,"aining":8220,"gren":8221,"ochond":8222,"therapeut":8223,"affirm":8224,"orsal":8225,"ixt":8226,"handedly":8227,"liner":8228,"ruin":8229,"regret":8230,"catac":8231,"legs":8232,"patient":8233,"commit":8234,"commemor":8235,"psis":8236,"doms":8237,"penit":8238,"uki":8239,"hydroxy":8240,"vital":8241,"moral":8242,"buzz":8243,"diver":8244,"drip":8245,"drift":8246,"quinone":8247,"Philo":8248,"ruby":8249,"helic":8250,"otropy":8251,"chaet":8252,"rably":8253,"historic":8254,"scarlet":8255,"friend":8256,"worthiness":8257,"clerk":8258,"pleasant":8259,"villain":8260,"doctor":8261,"amoeb":8262,"emporal":8263,"beaten":8264,"lysis":8265,"hunting":8266,"emotional":8267,"Ultra":8268,"industrial":8269,"NET":8270,"running":8271,"pocket":8272,"doubt":8273,"yrinth":8274,"corpore":8275,"crimson":8276,"prince":8277,"presbyter":8278,"olysin":8279,"'d":8280,"Aeg":8281,"Adel":8282,"Ban":8283,"Bos":8284,"Bir":8285,"CR":8286,"Cord":8287,"Camp":8288,"Crypt":8289,"HS":8290,"Hall":8291,"It":8292,"Jon":8293,"LE":8294,"Lap":8295,"Lang":8296,"Lew":8297,"Naz":8298,"Oc":8299,"Reg":8300,"Sax":8301,"Um":8302,"ael":8303,"aure":8304,"bry":8305,"bart":8306,"bung":8307,"dov":8308,"deli":8309,"eus":8310,"eut":8311,"eigh":8312,"funn":8313,"game":8314,"girt":8315,"hm":8316,"hn":8317,"hare":8318,"jim":8319,"jap":8320,"junk":8321,"kra":8322,"kum":8323,"lint":8324,"latt":8325,"mack":8326,"nt":8327,"piest":8328,"pik":8329,"rins":8330,"ratory":8331,"sock":8332,"tard":8333,"tect":8334,"tors":8335,"toss":8336,"vad":8337,"vate":8338,"erism":8339,"inization":8340,"inhib":8341,"onc":8342,"onville":8343,"esville":8344,"esign":8345,"anab":8346,"anarch":8347,"atomic":8348,"icos":8349,"aren":8350,"arity":8351,"arse":8352,"orse":8353,"orang":8354,"orically":8355,"orax":8356,"unev":8357,"unwar":8358,"eles":8359,"elas":8360,"reven":8361,"reinst":8362,"leted":8363,"leaves":8364,"stell":8365,"stack":8366,"stark":8367,"chos":8368,"chiv":8369,"chore":8370,"chase":8371,"chicken":8372,"usable":8373,"ilous":8374,"ilist":8375,"iline":8376,"olater":8377,"phere":8378,"phlog":8379,"idial":8380,"idym":8381,"ulidae":8382,"asyn":8383,"emuls":8384,"oscler":8385,"ambo":8386,"otactic":8387,"otrophy":8388,"otaxis":8389,"advers":8390,"oused":8391,"isters":8392,"riot":8393,"eclip":8394,"tereb":8395,"impet":8396,"imorph":8397,"impregn":8398,"ocl":8399,"oclas":8400,"agers":8401,"izability":8402,"odus":8403,"odia":8404,"perm":8405,"igg":8406,"quil":8407,"appra":8408,"shik":8409,"shovel":8410,"contribut":8411,"coch":8412,"ellidae":8413,"prolet":8414,"progress":8415,"prompt":8416,"anders":8417,"epalous":8418,"iano":8419,"asty":8420,"prep":8421,"ishers":8422,"hyoid":8423,"iba":8424,"illum":8425,"illation":8426,"obel":8427,"trinit":8428,"allant":8429,"scrub":8430,"pruss":8431,"manufact":8432,"enders":8433,"fors":8434,"formic":8435,"indoc":8436,"subsid":8437,"disen":8438,"flap":8439,"flirt":8440,"athers":8441,"outst":8442,"assa":8443,"monk":8444,"pariet":8445,"ronic":8446,"ortion":8447,"rops":8448,"metat":8449,"undert":8450,"polyn":8451,"diest":8452,"poetic":8453,"slight":8454,"minic":8455,"azole":8456,"icephal":8457,"ofer":8458,"eyer":8459,"annic":8460,"annot":8461,"myc":8462,"kered":8463,"ogenetically":8464,"omyc":8465,"orean":8466,"medit":8467,"ochrome":8468,"pyg":8469,"swallow":8470,"malign":8471,"hemoglobin":8472,"descript":8473,"rolith":8474,"ificator":8475,"cheon":8476,"brew":8477,"rophobia":8478,"ordination":8479,"culous":8480,"capsul":8481,"rhom":8482,"catalog":8483,"value":8484,"reflex":8485,"predec":8486,"predest":8487,"portun":8488,"humor":8489,"agnetic":8490,"ussing":8491,"equival":8492,"surface":8493,"hypop":8494,"compuls":8495,"hammed":8496,"ipher":8497,"ginger":8498,"confident":8499,"tails":8500,"tailor":8501,"shepher":8502,"distingu":8503,"unched":8504,"symphon":8505,"foreign":8506,"racies":8507,"rification":8508,"ozyg":8509,"globul":8510,"uminous":8511,"sweep":8512,"campan":8513,"ograms":8514,"contradict":8515,"lived":8516,"words":8517,"fibrin":8518,"fires":8519,"satir":8520,"Hydro":8521,"diaz":8522,"diast":8523,"encephalic":8524,"layer":8525,"coccy":8526,"feder":8527,"throated":8528,"ocarpus":8529,"loidy":8530,"busy":8531,"mongering":8532,"cathed":8533,"sparrow":8534,"omalacia":8535,"natural":8536,"pleasure":8537,"gemm":8538,"dialog":8539,"multiplic":8540,"ulphur":8541,"demonstr":8542,"White":8543,"epsis":8544,"diffus":8545,"Scott":8546,"Cerat":8547,"Irish":8548,"orbital":8549,"experiment":8550,"abdominal":8551,"courag":8552,"amalgam":8553,"thousand":8554,"righte":8555,"annihil":8556,"Bog":8557,"Bob":8558,"Cly":8559,"Coc":8560,"Cory":8561,"Dend":8562,"Eur":8563,"Eury":8564,"FT":8565,"Hind":8566,"Id":8567,"Jack":8568,"Kon":8569,"Les":8570,"MM":8571,"Mu":8572,"Mess":8573,"Mark":8574,"Pin":8575,"Pand":8576,"Pier":8577,"Que":8578,"So":8579,"Sat":8580,"Sept":8581,"Trich":8582,"aort":8583,"biv":8584,"bier":8585,"bord":8586,"bisc":8587,"cud":8588,"dag":8589,"dyn":8590,"damp":8591,"een":8592,"eum":8593,"eug":8594,"fect":8595,"frum":8596,"gap":8597,"giness":8598,"iaries":8599,"jin":8600,"jal":8601,"jog":8602,"jamb":8603,"jou":8604,"kab":8605,"kir":8606,"lank":8607,"map":8608,"oa":8609,"olet":8610,"poc":8611,"pies":8612,"ridae":8613,"sang":8614,"toc":8615,"tant":8616,"tyl":8617,"tass":8618,"trom":8619,"tire":8620,"wab":8621,"wist":8622,"wang":8623,"yam":8624,"yach":8625,"zers":8626,"Ġand":8627,"erman":8628,"inquis":8629,"onent":8630,"onomy":8631,"onomat":8632,"esy":8633,"anx":8634,"anast":8635,"anachron":8636,"alge":8637,"eded":8638,"isers":8639,"icy":8640,"argy":8641,"orily":8642,"itidae":8643,"itors":8644,"itously":8645,"roup":8646,"rometer":8647,"reach":8648,"repress":8649,"stil":8650,"stow":8651,"chus":8652,"iless":8653,"oliv":8654,"phobia":8655,"pharyn":8656,"essa":8657,"iden":8658,"lyph":8659,"lyric":8660,"accompl":8661,"ulic":8662,"uliferous":8663,"urally":8664,"urgy":8665,"thrill":8666,"abund":8667,"enta":8668,"otal":8669,"adar":8670,"adulter":8671,"umn":8672,"rivet":8673,"impost":8674,"impos":8675,"imagin":8676,"oclim":8677,"agus":8678,"odian":8679,"odrom":8680,"perid":8681,"percept":8682,"quizz":8683,"anty":8684,"antire":8685,"iak":8686,"shade":8687,"shark":8688,"shaft":8689,"atee":8690,"convert":8691,"ellus":8692,"spiro":8693,"prol":8694,"proport":8695,"andy":8696,"epider":8697,"ibular":8698,"obstruct":8699,"hearth":8700,"health":8701,"tron":8702,"akin":8703,"ializing":8704,"avow":8705,"endoth":8706,"clas":8707,"clog":8708,"clap":8709,"ophony":8710,"forem":8711,"foreg":8712,"blur":8713,"complic":8714,"ostome":8715,"ostoma":8716,"subdu":8717,"boil":8718,"ologer":8719,"ologue":8720,"dispers":8721,"dissim":8722,"flight":8723,"outer":8724,"atorship":8725,"mons":8726,"enses":8727,"ensed":8728,"elyn":8729,"paroch":8730,"parson":8731,"lique":8732,"awing":8733,"tok":8734,"reser":8735,"oky":8736,"bere":8737,"mates":8738,"matism":8739,"hoot":8740,"correl":8741,"metast":8742,"colloqu":8743,"evac":8744,"pty":8745,"slap":8746,"slave":8747,"food":8748,"founder":8749,"rams":8750,"romorph":8751,"ovari":8752,"retard":8753,"brill":8754,"skip":8755,"skill":8756,"arched":8757,"grade":8758,"gravit":8759,"pedagog":8760,"guil":8761,"auk":8762,"marks":8763,"cervic":8764,"orns":8765,"twist":8766,"decem":8767,"gency":8768,"swoman":8769,"inked":8770,"ificate":8771,"ificative":8772,"pseudom":8773,"bromo":8774,"ucks":8775,"sales":8776,"salic":8777,"ordinate":8778,"ission":8779,"hands":8780,"presumpt":8781,"linal":8782,"capped":8783,"soled":8784,"arii":8785,"rhabd":8786,"anks":8787,"ankyl":8788,"denatur":8789,"knit":8790,"cancer":8791,"inese":8792,"unning":8793,"homogene":8794,"drab":8795,"pense":8796,"hypoph":8797,"microscop":8798,"ilda":8799,"sheath":8800,"muscul":8801,"divin":8802,"ospheric":8803,"zzle":8804,"daint":8805,"teles":8806,"effer":8807,"precis":8808,"symmet":8809,"tariff":8810,"kinet":8811,"missive":8812,"bands":8813,"iscus":8814,"argument":8815,"thesia":8816,"provinc":8817,"anthropomorph":8818,"euphem":8819,"setting":8820,"arteri":8821,"litig":8822,"pelt":8823,"taining":8824,"sucker":8825,"animal":8826,"turning":8827,"sphyg":8828,"vuls":8829,"encephalon":8830,"prehend":8831,"cephalic":8832,"jeopard":8833,"sentimental":8834,"ribbon":8835,"ogamic":8836,"nephro":8837,"drying":8838,"bottomed":8839,"holding":8840,"rhythm":8841,"Georg":8842,"walking":8843,"paced":8844,"ocytosis":8845,"hapl":8846,"uphol":8847,"ognathous":8848,"paradox":8849,"odynamic":8850,"maxim":8851,"oprotein":8852,"bastard":8853,"feeble":8854,"major":8855,"column":8856,"hoofed":8857,"adjut":8858,"western":8859,"absolut":8860,"telegraph":8861,"ecclesiast":8862,"fratern":8863,"Spanish":8864,"Aster":8865,"BC":8866,"BM":8867,"Bak":8868,"Brand":8869,"Cot":8870,"Cad":8871,"Clo":8872,"Cry":8873,"Cho":8874,"Eri":8875,"Ery":8876,"IC":8877,"IP":8878,"Jap":8879,"Jew":8880,"Pot":8881,"Pyr":8882,"SP":8883,"Sig":8884,"Spr":8885,"Tan":8886,"Tub":8887,"bate":8888,"bies":8889,"basi":8890,"branchi":8891,"cim":8892,"cib":8893,"dus":8894,"dop":8895,"dine":8896,"daff":8897,"ditch":8898,"dirt":8899,"dwelling":8900,"fight":8901,"frust":8902,"gaw":8903,"gale":8904,"grot":8905,"hend":8906,"iid":8907,"jes":8908,"jag":8909,"kl":8910,"kak":8911,"lore":8912,"lair":8913,"lark":8914,"mow":8915,"mull":8916,"nep":8917,"nib":8918,"nith":8919,"naked":8920,"oir":8921,"pish":8922,"pity":8923,"rude":8924,"sass":8925,"scour":8926,"tep":8927,"tene":8928,"tled":8929,"tuss":8930,"tread":8931,"uin":8932,"upro":8933,"wi":8934,"wl":8935,"write":8936,"inde":8937,"atos":8938,"atae":8939,"envir":8940,"isor":8941,"isco":8942,"icter":8943,"icles":8944,"armor":8945,"orec":8946,"unro":8947,"unil":8948,"unrec":8949,"itol":8950,"elae":8951,"reward":8952,"leaden":8953,"stib":8954,"chers":8955,"raf":8956,"olive":8957,"etra":8958,"phall":8959,"phras":8960,"idolat":8961,"ulos":8962,"uline":8963,"asa":8964,"thanat":8965,"entric":8966,"oscul":8967,"otine":8968,"utz":8969,"terat":8970,"agal":8971,"aginous":8972,"nonsyn":8973,"shif":8974,"conver":8975,"convol":8976,"consent":8977,"esteem":8978,"coon":8979,"ellike":8980,"spondyl":8981,"prohib":8982,"exes":8983,"exempl":8984,"undem":8985,"inea":8986,"udder":8987,"hyphen":8988,"seer":8989,"oby":8990,"obsess":8991,"obscur":8992,"heir":8993,"heeled":8994,"tres":8995,"scaph":8996,"scare":8997,"prun":8998,"ectasia":8999,"avian":9000,"manner":9001,"mangan":9002,"ylate":9003,"ophth":9004,"foreb":9005,"foresh":9006,"olograph":9007,"disse":9008,"dispar":9009,"disput":9010,"flush":9011,"beau":9012,"upright":9013,"arted":9014,"outsp":9015,"monop":9016,"trag":9017,"trace":9018,"ensor":9019,"taen":9020,"parac":9021,"param":9022,"mented":9023,"resin":9024,"oks":9025,"semire":9026,"ocker":9027,"metac":9028,"inson":9029,"insular":9030,"egal":9031,"lessnesses":9032,"evan":9033,"hail":9034,"ographs":9035,"ographers":9036,"slid":9037,"souther":9038,"tonia":9039,"ageable":9040,"otheca":9041,"mini":9042,"reticul":9043,"oft":9044,"archa":9045,"archical":9046,"brav":9047,"pedest":9048,"guess":9049,"anny":9050,"annoy":9051,"ornis":9052,"declar":9053,"sert":9054,"feu":9055,"feat":9056,"feet":9057,"feoff":9058,"strand":9059,"unsw":9060,"calend":9061,"incul":9062,"innoc":9063,"rigid":9064,"pycn":9065,"therap":9066,"malac":9067,"hemia":9068,"ancip":9069,"attend":9070,"brood":9071,"rotten":9072,"zole":9073,"itionist":9074,"handled":9075,"contest":9076,"ruth":9077,"caten":9078,"inaug":9079,"harvest":9080,"biot":9081,"sulfur":9082,"pauc":9083,"Arct":9084,"uffs":9085,"humeral":9086,"drain":9087,"atural":9088,"compact":9089,"besh":9090,"secur":9091,"embell":9092,"iliac":9093,"tetan":9094,"distract":9095,"ospher":9096,"modest":9097,"philanthrop":9098,"enteric":9099,"torch":9100,"thalass":9101,"sympt":9102,"motiv":9103,"tallow":9104,"analysis":9105,"lexic":9106,"lamy":9107,"sauc":9108,"enchy":9109,"sacro":9110,"opteran":9111,"spectro":9112,"rability":9113,"litho":9114,"begotten":9115,"casting":9116,"olyb":9117,"popular":9118,"ocephalus":9119,"sixty":9120,"approach":9121,"benzene":9122,"griev":9123,"sequential":9124,"someness":9125,"vacu":9126,"suspic":9127,"appear":9128,"raceous":9129,"oietic":9130,"branched":9131,"advantage":9132,"battle":9133,"valued":9134,"printing":9135,"cosmopol":9136,"hunger":9137,"epitheli":9138,"professional":9139,"normal":9140,"Greco":9141,"changing":9142,"imbric":9143,"complexioned":9144,"shouldered":9145,"bachel":9146,"ĠĠĠ":9147,"blossom":9148,"obenzene":9149,"overeign":9150,"BO":9151,"Bron":9152,"Brad":9153,"Cab":9154,"Cong":9155,"Crist":9156,"Coh":9157,"EE":9158,"Eug":9159,"Egy":9160,"FR":9161,"GA":9162,"GS":9163,"Hem":9164,"Hop":9165,"Hill":9166,"Hob":9167,"Ich":9168,"Ku":9169,"Kil":9170,"Kath":9171,"Lac":9172,"Lag":9173,"Mand":9174,"Nord":9175,"Ox":9176,"Oct":9177,"Pop":9178,"Phal":9179,"SE":9180,"ST":9181,"Ster":9182,"Sap":9183,"Tap":9184,"Van":9185,"Win":9186,"aque":9187,"bian":9188,"bran":9189,"brat":9190,"bake":9191,"bidd":9192,"cure":9193,"dah":9194,"different":9195,"ease":9196,"gog":9197,"gable":9198,"hl":9199,"hitch":9200,"lanc":9201,"lumb":9202,"lump":9203,"mite":9204,"mie":9205,"mier":9206,"mord":9207,"numb":9208,"named":9209,"oist":9210,"pingly":9211,"pann":9212,"size":9213,"vous":9214,"zier":9215,"zone":9216,"inary":9217,"inized":9218,"ancer":9219,"anese":9220,"anomal":9221,"ativ":9222,"atrop":9223,"orist":9224,"ingle":9225,"unbo":9226,"unmar":9227,"unvit":9228,"elong":9229,"elitis":9230,"rosy":9231,"reas":9232,"remed":9233,"revis":9234,"rejo":9235,"reconc":9236,"regener":9237,"lew":9238,"lear":9239,"leigh":9240,"leuco":9241,"station":9242,"stap":9243,"chip":9244,"chill":9245,"chie":9246,"chment":9247,"usia":9248,"ilis":9249,"ilating":9250,"phrag":9251,"omus":9252,"omantic":9253,"iones":9254,"accur":9255,"acities":9256,"ulch":9257,"ulite":9258,"assu":9259,"asian":9260,"urist":9261,"thrift":9262,"abial":9263,"absent":9264,"empy":9265,"emata":9266,"emancip":9267,"ossal":9268,"ameb":9269,"admon":9270,"rive":9271,"ecal":9272,"oppress":9273,"imide":9274,"ocor":9275,"agit":9276,"aggrav":9277,"odec":9278,"noner":9279,"verat":9280,"share":9281,"shame":9282,"ifs":9283,"ifera":9284,"coup":9285,"ellable":9286,"ellae":9287,"ellated":9288,"spas":9289,"spik":9290,"unden":9291,"undet":9292,"inee":9293,"hew":9294,"hears":9295,"deal":9296,"prink":9297,"neb":9298,"forget":9299,"ostenosis":9300,"indent":9301,"bout":9302,"dispos":9303,"teach":9304,"beast":9305,"before":9306,"arts":9307,"outed":9308,"inting":9309,"worst":9310,"assess":9311,"assist":9312,"ickle":9313,"trach":9314,"ensively":9315,"taper":9316,"parach":9317,"parthen":9318,"moot":9319,"awak":9320,"aways":9321,"toil":9322,"weird":9323,"resid":9324,"gla":9325,"activity":9326,"ithal":9327,"carnal":9328,"hau":9329,"polyt":9330,"ptian":9331,"pool":9332,"pey":9333,"peas":9334,"whar":9335,"ymer":9336,"brin":9337,"bride":9338,"mery":9339,"auro":9340,"iches":9341,"ornament":9342,"seren":9343,"few":9344,"plect":9345,"aute":9346,"unga":9347,"ungen":9348,"olds":9349,"incap":9350,"incub":9351,"incrust":9352,"aneousness":9353,"therapy":9354,"centrif":9355,"sonville":9356,"descri":9357,"omechan":9358,"attest":9359,"affor":9360,"breed":9361,"hyperbol":9362,"phalang":9363,"palud":9364,"goer":9365,"democrat":9366,"culp":9367,"solar":9368,"ariaceae":9369,"bias":9370,"balsam":9371,"elda":9372,"predef":9373,"primit":9374,"photot":9375,"uffer":9376,"pursu":9377,"rider":9378,"ationalist":9379,"humili":9380,"mellow":9381,"pressure":9382,"strad":9383,"pike":9384,"dye":9385,"dyed":9386,"dyst":9387,"nerve":9388,"nerved":9389,"secular":9390,"limit":9391,"erts":9392,"creep":9393,"builder":9394,"pulp":9395,"divid":9396,"scribing":9397,"telep":9398,"immers":9399,"audi":9400,"radic":9401,"cardinal":9402,"laced":9403,"devouring":9404,"labi":9405,"organization":9406,"sulpho":9407,"sinist":9408,"circumst":9409,"virgin":9410,"setter":9411,"instinct":9412,"paleo":9413,"vicar":9414,"glyc":9415,"placent":9416,"titan":9417,"linesses":9418,"every":9419,"opolis":9420,"federal":9421,"pastor":9422,"sapon":9423,"cholester":9424,"bronze":9425,"falcon":9426,"ophysial":9427,"prosely":9428,"fraught":9429,"hopper":9430,"oplasmic":9431,"raceae":9432,"easy":9433,"practic":9434,"gutt":9435,"cleaning":9436,"epiglott":9437,"framed":9438,"consult":9439,"piercing":9440,"jargon":9441,"Pyth":9442,"cerebro":9443,"introspect":9444,"structed":9445,"walker":9446,"external":9447,"phthong":9448,"inherit":9449,"eighty":9450,"ogastric":9451,"jewel":9452,"ococcus":9453,"husband":9454,"embarrass":9455,"ocrystall":9456,"descend":9457,"vapour":9458,"fringed":9459,"neighbor":9460,"orrhoea":9461,"amygdal":9462,"Ass":9463,"Bet":9464,"Cob":9465,"Cow":9466,"Caly":9467,"Dun":9468,"Dom":9469,"Ep":9470,"Echin":9471,"Fin":9472,"Greg":9473,"HA":9474,"HE":9475,"Hur":9476,"Haw":9477,"Heli":9478,"IR":9479,"Jen":9480,"Kn":9481,"Ko":9482,"Ky":9483,"Lut":9484,"Mod":9485,"Mong":9486,"Nar":9487,"Nap":9488,"Op":9489,"Oak":9490,"Raph":9491,"Syl":9492,"Winn":9493,"Zyg":9494,"boss":9495,"cest":9496,"cave":9497,"celled":9498,"code":9499,"dug":9500,"dron":9501,"dual":9502,"differ":9503,"dove":9504,"euch":9505,"fad":9506,"fow":9507,"fide":9508,"finn":9509,"final":9510,"finned":9511,"iy":9512,"iantly":9513,"john":9514,"kur":9515,"kneed":9516,"lumber":9517,"mom":9518,"mias":9519,"mott":9520,"nuc":9521,"oom":9522,"oons":9523,"oidean":9524,"pess":9525,"pied":9526,"punk":9527,"pawn":9528,"rish":9529,"riloqu":9530,"sard":9531,"tug":9532,"tale":9533,"trol":9534,"taking":9535,"upr":9536,"vot":9537,"via":9538,"vide":9539,"vindic":9540,"wra":9541,"wob":9542,"wak":9543,"weld":9544,"wrath":9545,"ylo":9546,"yism":9547,"zable":9548,"Ġof":9549,"erie":9550,"inol":9551,"invit":9552,"incorpor":9553,"onics":9554,"attain":9555,"ativity":9556,"enlight":9557,"aliment":9558,"icus":9559,"oras":9560,"unent":9561,"ungl":9562,"unaff":9563,"itia":9564,"itian":9565,"elus":9566,"elier":9567,"rode":9568,"reth":9569,"retr":9570,"reple":9571,"recal":9572,"recur":9573,"repet":9574,"reject":9575,"reaction":9576,"leb":9577,"stable":9578,"steth":9579,"stigmat":9580,"checker":9581,"ilizing":9582,"older":9583,"etus":9584,"etum":9585,"phonic":9586,"phthal":9587,"idel":9588,"idge":9589,"idities":9590,"idered":9591,"acial":9592,"acral":9593,"thion":9594,"amite":9595,"amaz":9596,"otus":9597,"otyled":9598,"adorn":9599,"ousing":9600,"ogan":9601,"riest":9602,"opot":9603,"opsy":9604,"oppos":9605,"ags":9606,"perme":9607,"quir":9608,"quill":9609,"antiv":9610,"sustain":9611,"shr":9612,"shrub":9613,"shape":9614,"loch":9615,"loos":9616,"coul":9617,"cobal":9618,"cooper":9619,"spad":9620,"spike":9621,"ande":9622,"androg":9623,"androus":9624,"exorc":9625,"ineal":9626,"preach":9627,"pluck":9628,"plural":9629,"illusion":9630,"seg":9631,"oble":9632,"obot":9633,"obate":9634,"obser":9635,"hey":9636,"ako":9637,"scam":9638,"scape":9639,"deg":9640,"dehyd":9641,"prism":9642,"printed":9643,"avel":9644,"avoid":9645,"mania":9646,"yla":9647,"ylon":9648,"yland":9649,"endors":9650,"clusive":9651,"commiss":9652,"comprehens":9653,"indist":9654,"independ":9655,"indemn":9656,"anged":9657,"angelic":9658,"suber":9659,"subtle":9660,"dissent":9661,"fluct":9662,"cten":9663,"outd":9664,"assur":9665,"cyon":9666,"cyto":9667,"atorially":9668,"ieres":9669,"interest":9670,"traged":9671,"fulmin":9672,"fuller":9673,"ensian":9674,"park":9675,"ideous":9676,"toy":9677,"mative":9678,"glu":9679,"glar":9680,"hoo":9681,"redec":9682,"semig":9683,"semian":9684,"yses":9685,"colic":9686,"carrying":9687,"evis":9688,"diph":9689,"diagram":9690,"poke":9691,"slick":9692,"fove":9693,"answer":9694,"rama":9695,"minute":9696,"oxys":9697,"letic":9698,"bringing":9699,"skel":9700,"geries":9701,"grap":9702,"pedic":9703,"axy":9704,"decid":9705,"decad":9706,"seraph":9707,"anthous":9708,"stru":9709,"autot":9710,"olding":9711,"igning":9712,"genic":9713,"mensu":9714,"gris":9715,"swine":9716,"relation":9717,"relie":9718,"ancest":9719,"ificatory":9720,"aired":9721,"goos":9722,"arean":9723,"ordain":9724,"contamin":9725,"contempl":9726,"presup":9727,"presub":9728,"ariidae":9729,"rhagia":9730,"schemat":9731,"accep":9732,"border":9733,"denomin":9734,"sulphon":9735,"valet":9736,"caj":9737,"refin":9738,"commut":9739,"cracker":9740,"charm":9741,"homolog":9742,"purchas":9743,"urably":9744,"urableness":9745,"urability":9746,"added":9747,"prayer":9748,"foots":9749,"greed":9750,"transpar":9751,"extend":9752,"atures":9753,"compart":9754,"parted":9755,"config":9756,"plicated":9757,"pulmon":9758,"Stan":9759,"divul":9760,"ergic":9761,"otypes":9762,"phenol":9763,"othermic":9764,"immig":9765,"summar":9766,"driver":9767,"radiot":9768,"arthritis":9769,"sacrific":9770,"judging":9771,"opodium":9772,"treason":9773,"aggle":9774,"electroly":9775,"echin":9776,"chemic":9777,"ippus":9778,"camel":9779,"attered":9780,"specific":9781,"sleek":9782,"urgic":9783,"profan":9784,"ophyce":9785,"English":9786,"Hyper":9787,"suffer":9788,"fleck":9789,"pretty":9790,"hypothec":9791,"acquies":9792,"washing":9793,"plume":9794,"obiology":9795,"Hebra":9796,"acoust":9797,"drops":9798,"granul":9799,"woolly":9800,"suspens":9801,"pecul":9802,"measure":9803,"ocarcin":9804,"pronounc":9805,"nickel":9806,"cerebr":9807,"epithel":9808,"ochemistry":9809,"steeple":9810,"Megal":9811,"militar":9812,"ahedron":9813,"origin":9814,"picture":9815,"pancreat":9816,"squirrel":9817,"obranchia":9818,"ipotent":9819,"pyramid":9820,"oplegia":9821,"synonym":9822,"floccul":9823,"algebra":9824,"Ae":9825,"Ay":9826,"Amar":9827,"Buc":9828,"Buck":9829,"Cut":9830,"Cav":9831,"Dul":9832,"Ever":9833,"FA":9834,"Fel":9835,"Gon":9836,"Gir":9837,"Hon":9838,"High":9839,"Lav":9840,"MD":9841,"Mun":9842,"Moh":9843,"Og":9844,"Olym":9845,"Pant":9846,"Pont":9847,"Ru":9848,"Ran":9849,"Rab":9850,"Rud":9851,"Sad":9852,"South":9853,"Ton":9854,"Tib":9855,"VS":9856,"Yor":9857,"afore":9858,"bant":9859,"bote":9860,"budd":9861,"dorm":9862,"dign":9863,"drown":9864,"dental":9865,"dextr":9866,"eject":9867,"fuc":9868,"fuss":9869,"fying":9870,"gish":9871,"glow":9872,"kier":9873,"kiest":9874,"kenn":9875,"killing":9876,"lish":9877,"lake":9878,"nett":9879,"nimble":9880,"pings":9881,"pamph":9882,"rise":9883,"rings":9884,"rue":9885,"rators":9886,"sull":9887,"scow":9888,"tis":9889,"tast":9890,"ties":9891,"twe":9892,"tone":9893,"tied":9894,"tink":9895,"tatt":9896,"urop":9897,"vom":9898,"vam":9899,"void":9900,"varn":9901,"wam":9902,"watt":9903,"were":9904,"waters":9905,"eros":9906,"instr":9907,"anin":9908,"anorth":9909,"atious":9910,"enyl":9911,"isin":9912,"arrest":9913,"oris":9914,"orcin":9915,"unwe":9916,"untw":9917,"unmed":9918,"unsup":9919,"ithy":9920,"itically":9921,"itousness":9922,"itiner":9923,"elers":9924,"elast":9925,"rean":9926,"reins":9927,"rema":9928,"lep":9929,"leman":9930,"lete":9931,"stab":9932,"stann":9933,"style":9934,"strict":9935,"chia":9936,"ravel":9937,"olly":9938,"etian":9939,"phe":9940,"phus":9941,"omeg":9942,"ididae":9943,"accompan":9944,"acclimat":9945,"ulu":9946,"ulted":9947,"ulled":9948,"think":9949,"abond":9950,"oside":9951,"otting":9952,"otonic":9953,"rifer":9954,"ripen":9955,"opes":9956,"opor":9957,"opped":9958,"ivy":9959,"ivate":9960,"imus":9961,"ocom":9962,"agar":9963,"agent":9964,"agement":9965,"izard":9966,"oden":9967,"perv":9968,"igated":9969,"quist":9970,"antry":9971,"shor":9972,"ippe":9973,"iflu":9974,"couch":9975,"spi":9976,"spine":9977,"spath":9978,"spout":9979,"spice":9980,"promot":9981,"progn":9982,"exerc":9983,"epin":9984,"epiz":9985,"iancy":9986,"iances":9987,"asth":9988,"astical":9989,"ishingly":9990,"uda":9991,"sew":9992,"oba":9993,"obliv":9994,"tral":9995,"alli":9996,"akis":9997,"scep":9998,"dean":9999,"deed":10000,"devi":10001,"ects":10002,"ective":10003,"manic":10004,"claw":10005,"forer":10006,"former":10007,"ugu":10008,"ostal":10009,"ostomatous":10010,"indign":10011,"subtil":10012,"discom":10013,"bey":10014,"beach":10015,"worded":10016,"atorium":10017,"tragic":10018,"achi":10019,"award":10020,"roned":10021,"result":10022,"ranial":10023,"semiv":10024,"metabol":10025,"egu":10026,"egreg":10027,"colle":10028,"carbur":10029,"polish":10030,"illeg":10031,"pounder":10032,"sling":10033,"slate":10034,"slang":10035,"soil":10036,"whor":10037,"while":10038,"ahan":10039,"romant":10040,"othorax":10041,"mina":10042,"bars":10043,"barked":10044,"lety":10045,"bris":10046,"herpet":10047,"skid":10048,"skins":10049,"merchant":10050,"burs":10051,"brace":10052,"brack":10053,"axed":10054,"announc":10055,"ichord":10056,"ashi":10057,"autor":10058,"unsol":10059,"Chi":10060,"meet":10061,"onga":10062,"owner":10063,"owned":10064,"incident":10065,"hydraz":10066,"grub":10067,"iko":10068,"onda":10069,"anee":10070,"innate":10071,"maph":10072,"cently":10073,"centric":10074,"sonnet":10075,"bedded":10076,"hemic":10077,"desert":10078,"desulfur":10079,"relev":10080,"rolite":10081,"airn":10082,"tures":10083,"turbin":10084,"venge":10085,"rotund":10086,"salmon":10087,"ughs":10088,"encumber":10089,"queer":10090,"catcher":10091,"tenu":10092,"ringing":10093,"inflect":10094,"synd":10095,"canker":10096,"unfri":10097,"makers":10098,"caes":10099,"vention":10100,"pattern":10101,"prior":10102,"rogram":10103,"squaw":10104,"erna":10105,"wares":10106,"melt":10107,"yllable":10108,"restra":10109,"velvet":10110,"viper":10111,"bonnet":10112,"remuner":10113,"uka":10114,"faces":10115,"transpl":10116,"extempor":10117,"gyro":10118,"splash":10119,"confirm":10120,"created":10121,"winding":10122,"anticom":10123,"Shel":10124,"ocycl":10125,"scribe":10126,"omorpha":10127,"otypy":10128,"precept":10129,"imming":10130,"iacs":10131,"lights":10132,"cherry":10133,"arthrosis":10134,"imput":10135,"adenitis":10136,"vesic":10137,"dipter":10138,"mutual":10139,"Indian":10140,"ophorus":10141,"phyto":10142,"vertible":10143,"chemistry":10144,"attering":10145,"reviv":10146,"revoc":10147,"institutional":10148,"foli":10149,"eteer":10150,"lift":10151,"odermic":10152,"turnip":10153,"tinct":10154,"freck":10155,"chrome":10156,"papill":10157,"masters":10158,"ocratical":10159,"ospasm":10160,"licent":10161,"sanit":10162,"suffrag":10163,"brief":10164,"blowing":10165,"dishon":10166,"vocal":10167,"climbing":10168,"frivol":10169,"frizz":10170,"griff":10171,"hepatic":10172,"ganglion":10173,"total":10174,"chondri":10175,"odontoid":10176,"caval":10177,"honest":10178,"thoughted":10179,"planted":10180,"Cycl":10181,"hilar":10182,"puppet":10183,"marty":10184,"guttur":10185,"elegraph":10186,"Myx":10187,"dressed":10188,"seeing":10189,"heroic":10190,"binding":10191,"oparas":10192,"metaphys":10193,"widow":10194,"promise":10195,"opoiesis":10196,"sibil":10197,"arctic":10198,"Austral":10199,"fossil":10200,"prophet":10201,"myrmec":10202,"government":10203,"washer":10204,"allevi":10205,"nectar":10206,"ifoliate":10207,"celebr":10208,"tobacco":10209,"heathen":10210,"shoulder":10211,"Sphaer":10212,"insurrect":10213,"grinding":10214,"skirted":10215,"eagle":10216,"resurrect":10217,"Jesuit":10218,"Aph":10219,"Arab":10220,"But":10221,"Bri":10222,"Band":10223,"Boy":10224,"Burn":10225,"Brun":10226,"Cant":10227,"Coll":10228,"Carp":10229,"Cephal":10230,"DN":10231,"Dow":10232,"Dry":10233,"Et":10234,"Fur":10235,"Gard":10236,"Has":10237,"Haz":10238,"Jess":10239,"Jam":10240,"Just":10241,"Jah":10242,"King":10243,"Kra":10244,"Kas":10245,"Kim":10246,"LL":10247,"Mit":10248,"NP":10249,"NU":10250,"Pon":10251,"Pitt":10252,"SA":10253,"SI":10254,"Sib":10255,"Stra":10256,"Spart":10257,"Tol":10258,"Tab":10259,"Tham":10260,"Ve":10261,"Xanth":10262,"aith":10263,"boc":10264,"baff":10265,"bele":10266,"bunk":10267,"bump":10268,"cil":10269,"cter":10270,"cated":10271,"clow":10272,"caf":10273,"crag":10274,"dall":10275,"fon":10276,"fame":10277,"fisted":10278,"gip":10279,"gull":10280,"giant":10281,"hik":10282,"hunt":10283,"iologic":10284,"jell":10285,"jee":10286,"kot":10287,"kah":10288,"kitt":10289,"kitch":10290,"lene":10291,"lave":10292,"math":10293,"mudd":10294,"nation":10295,"nay":10296,"padd":10297,"pudding":10298,"rarch":10299,"si":10300,"sau":10301,"sink":10302,"samb":10303,"tical":10304,"tex":10305,"tine":10306,"tung":10307,"uche":10308,"vical":10309,"vard":10310,"vascular":10311,"wom":10312,"want":10313,"witt":10314,"xis":10315,"yod":10316,"zation":10317,"zir":10318,"erupt":10319,"inad":10320,"anhyd":10321,"atl":10322,"atar":10323,"atian":10324,"enjoy":10325,"alable":10326,"alike":10327,"edic":10328,"isian":10329,"iscal":10330,"arly":10331,"aromat":10332,"arrog":10333,"unel":10334,"unhar":10335,"uneff":10336,"item":10337,"itely":10338,"itone":10339,"rebo":10340,"rete":10341,"repar":10342,"lemon":10343,"leader":10344,"stol":10345,"strig":10346,"strep":10347,"stagn":10348,"stump":10349,"challen":10350,"rableness":10351,"olated":10352,"olitan":10353,"eties":10354,"etho":10355,"phin":10356,"phos":10357,"omethane":10358,"idist":10359,"acan":10360,"asphy":10361,"urch":10362,"urian":10363,"than":10364,"thly":10365,"abular":10366,"ento":10367,"entia":10368,"embal":10369,"osarcoma":10370,"adec":10371,"adap":10372,"adable":10373,"adopt":10374,"uto":10375,"umar":10376,"ecraft":10377,"opyr":10378,"ivation":10379,"immed":10380,"implic":10381,"ocere":10382,"oclastic":10383,"ocracies":10384,"agr":10385,"agous":10386,"perd":10387,"permut":10388,"quake":10389,"apop":10390,"anto":10391,"antial":10392,"irus":10393,"shi":10394,"shining":10395,"shrink":10396,"loom":10397,"lover":10398,"coph":10399,"coth":10400,"counc":10401,"ellent":10402,"elline":10403,"sprit":10404,"spira":10405,"proter":10406,"proton":10407,"prospect":10408,"exam":10409,"explan":10410,"exempt":10411,"expression":10412,"epe":10413,"ismic":10414,"undy":10415,"undev":10416,"astig":10417,"astric":10418,"inequ":10419,"oversp":10420,"overpro":10421,"illess":10422,"illage":10423,"seat":10424,"segreg":10425,"segment":10426,"uced":10427,"obj":10428,"obsc":10429,"obrom":10430,"ardo":10431,"scrup":10432,"scraw":10433,"pride":10434,"avit":10435,"yles":10436,"endum":10437,"blush":10438,"bladed":10439,"compound":10440,"complement":10441,"ologizing":10442,"teg":10443,"teacher":10444,"flike":10445,"bez":10446,"beater":10447,"beaked":10448,"ieu":10449,"upon":10450,"intoler":10451,"intoxic":10452,"monod":10453,"interject":10454,"enser":10455,"tains":10456,"parcel":10457,"mise":10458,"wealth":10459,"matter":10460,"glers":10461,"hoy":10462,"rede":10463,"semir":10464,"collabor":10465,"oides":10466,"political":10467,"pton":10468,"dik":10469,"slumber":10470,"derog":10471,"sof":10472,"sov":10473,"soot":10474,"whale":10475,"barric":10476,"burst":10477,"arche":10478,"braz":10479,"brake":10480,"grasp":10481,"graft":10482,"gravel":10483,"guilt":10484,"feit":10485,"headedly":10486,"unsus":10487,"uncal":10488,"uncap":10489,"unciation":10490,"uncircum":10491,"myster":10492,"mycet":10493,"Chry":10494,"Chlor":10495,"eptate":10496,"aines":10497,"genetic":10498,"ocha":10499,"ochromat":10500,"snak":10501,"innov":10502,"doing":10503,"blem":10504,"poss":10505,"poses":10506,"posable":10507,"aphth":10508,"airs":10509,"pseudod":10510,"ennes":10511,"ethic":10512,"demand":10513,"itioned":10514,"encir":10515,"isses":10516,"elephant":10517,"culum":10518,"rule":10519,"polyp":10520,"rhomb":10521,"rhaps":10522,"office":10523,"accred":10524,"steat":10525,"borg":10526,"omatosis":10527,"synerg":10528,"valent":10529,"painted":10530,"caper":10531,"ionalism":10532,"election":10533,"unner":10534,"crap":10535,"charging":10536,"photod":10537,"uffing":10538,"ridicul":10539,"agnosis":10540,"equivoc":10541,"viable":10542,"deline":10543,"iffs":10544,"piper":10545,"cirro":10546,"extrem":10547,"computer":10548,"iferousness":10549,"benevol":10550,"cinemat":10551,"cinchon":10552,"hydroly":10553,"vitri":10554,"ohist":10555,"thyroid":10556,"ballad":10557,"harden":10558,"crypto":10559,"joined":10560,"trouble":10561,"concret":10562,"missible":10563,"bullet":10564,"amphic":10565,"extravag":10566,"bowl":10567,"lacer":10568,"whey":10569,"ophilist":10570,"local":10571,"idential":10572,"crooked":10573,"witness":10574,"escency":10575,"opteris":10576,"gamet":10577,"euph":10578,"gauge":10579,"mistress":10580,"castle":10581,"fiber":10582,"playing":10583,"sediment":10584,"iolate":10585,"cornered":10586,"drill":10587,"Orth":10588,"Ornith":10589,"Hyd":10590,"juris":10591,"papy":10592,"laying":10593,"ospondyl":10594,"cellar":10595,"botan":10596,"magist":10597,"rolls":10598,"flagellate":10599,"ocarpic":10600,"palaeo":10601,"chanter":10602,"hurst":10603,"saving":10604,"destro":10605,"Turko":10606,"rhyn":10607,"packed":10608,"machin":10609,"amido":10610,"convex":10611,"convey":10612,"flavored":10613,"akespe":10614,"journ":10615,"breathed":10616,"victim":10617,"Acanth":10618,"phaner":10619,"quarrel":10620,"issue":10621,"plagiar":10622,"ostomous":10623,"horses":10624,"Chaet":10625,"puer":10626,"international":10627,"chisis":10628,"oplank":10629,"naphthal":10630,"reciproc":10631,"odendron":10632,"duodec":10633,"arithmet":10634,"ifolious":10635,"syllog":10636,"scandal":10637,"molecular":10638,"fragment":10639,"arachn":10640,"Welsh":10641,"endocrin":10642,"Hellen":10643,"peacock":10644,"strewn":10645,"ophageal":10646,"Hibern":10647,"trapez":10648,"upholster":10649,"'ll":10650,"Adri":10651,"Bed":10652,"Bus":10653,"Brig":10654,"Beth":10655,"CL":10656,"CP":10657,"CT":10658,"Camb":10659,"DB":10660,"DU":10661,"Dis":10662,"East":10663,"Esk":10664,"Eld":10665,"Ess":10666,"Euph":10667,"Fra":10668,"Hom":10669,"Hip":10670,"IA":10671,"Ki":10672,"Lad":10673,"Loc":10674,"Lepid":10675,"Mak":10676,"Math":10677,"Mith":10678,"Nat":10679,"Nab":10680,"OT":10681,"Pis":10682,"Pra":10683,"Pho":10684,"RM":10685,"Ric":10686,"Si":10687,"Sed":10688,"Sak":10689,"Spar":10690,"Sau":10691,"Smith":10692,"Ten":10693,"UN":10694,"VA":10695,"Viv":10696,"WS":10697,"Was":10698,"Wend":10699,"avers":10700,"bagg":10701,"cres":10702,"catt":10703,"cigar":10704,"dox":10705,"darn":10706,"fry":10707,"fanc":10708,"foll":10709,"frock":10710,"fusc":10711,"frug":10712,"fuzz":10713,"got":10714,"gone":10715,"goth":10716,"gilt":10717,"hic":10718,"hush":10719,"hagg":10720,"husk":10721,"iations":10722,"iosis":10723,"kow":10724,"kha":10725,"lau":10726,"miest":10727,"mule":10728,"molyb":10729,"nip":10730,"pah":10731,"pung":10732,"rho":10733,"ruck":10734,"rere":10735,"rants":10736,"sister":10737,"tup":10738,"tith":10739,"titt":10740,"vable":10741,"wack":10742,"wrest":10743,"yarn":10744,"incarn":10745,"esters":10746,"anom":10747,"anos":10748,"anagram":10749,"atia":10750,"enet":10751,"enas":10752,"enger":10753,"enanti":10754,"encher":10755,"iculture":10756,"armo":10757,"unbes":10758,"itro":10759,"rook":10760,"rex":10761,"recl":10762,"react":10763,"retract":10764,"recollect":10765,"stau":10766,"stamp":10767,"stood":10768,"chess":10769,"chatt":10770,"chested":10771,"channel":10772,"ilion":10773,"ilver":10774,"olent":10775,"olos":10776,"etor":10777,"etize":10778,"omist":10779,"omys":10780,"idle":10781,"idation":10782,"idene":10783,"acing":10784,"asbest":10785,"urid":10786,"urism":10787,"thum":10788,"thinking":10789,"abys":10790,"abhor":10791,"entit":10792,"embr":10793,"osus":10794,"osoma":10795,"amon":10796,"amous":10797,"amni":10798,"ogal":10799,"ogel":10800,"ecess":10801,"opers":10802,"imens":10803,"imple":10804,"oca":10805,"ocin":10806,"agi":10807,"agli":10808,"peril":10809,"persuas":10810,"igrade":10811,"nonrel":10812,"nonrep":10813,"nontrans":10814,"nonspec":10815,"nonsens":10816,"verm":10817,"qued":10818,"quaint":10819,"apes":10820,"aping":10821,"antee":10822,"shine":10823,"shall":10824,"shee":10825,"icals":10826,"icalize":10827,"loo":10828,"lobul":10829,"ifted":10830,"iffe":10831,"conic":10832,"confl":10833,"conspir":10834,"concord":10835,"congreg":10836,"eston":10837,"coil":10838,"cout":10839,"spy":10840,"spel":10841,"spook":10842,"spleen":10843,"spindle":10844,"proc":10845,"exact":10846,"excurs":10847,"ianic":10848,"uds":10849,"ibi":10850,"illin":10851,"aeol":10852,"ober":10853,"obar":10854,"heated":10855,"heimer":10856,"alliter":10857,"scram":10858,"scrag":10859,"prent":10860,"neust":10861,"avail":10862,"mancy":10863,"ayable":10864,"ayne":10865,"clip":10866,"clair":10867,"ophane":10868,"opharyngeal":10869,"uged":10870,"blan":10871,"bland":10872,"blade":10873,"comic":10874,"osteg":10875,"ostomata":10876,"ryn":10877,"angios":10878,"bouch":10879,"boiler":10880,"flum":10881,"beating":10882,"beaver":10883,"ieval":10884,"artite":10885,"ubiqu":10886,"assent":10887,"cycle":10888,"cytop":10889,"trades":10890,"traitor":10891,"tainer":10892,"syring":10893,"parabol":10894,"parliament":10895,"acha":10896,"mould":10897,"tole":10898,"reson":10899,"resub":10900,"glam":10901,"glauc":10902,"redo":10903,"ropy":10904,"cory":10905,"cored":10906,"corrup":10907,"corrobor":10908,"metro":10909,"metab":10910,"insk":10911,"egot":10912,"ithic":10913,"cars":10914,"carac":10915,"carab":10916,"carcer":10917,"carbol":10918,"diphthong":10919,"pox":10920,"soup":10921,"peep":10922,"foun":10923,"fought":10924,"whistle":10925,"anson":10926,"roses":10927,"geront":10928,"archal":10929,"braw":10930,"grape":10931,"grading":10932,"ormal":10933,"twitch":10934,"decre":10935,"strange":10936,"veil":10937,"uncate":10938,"iley":10939,"Anton":10940,"ednesses":10941,"meek":10942,"calf":10943,"hydrin":10944,"snatch":10945,"inna":10946,"thermal":10947,"swept":10948,"sonic":10949,"cured":10950,"hemip":10951,"despot":10952,"chei":10953,"attempt":10954,"pseudob":10955,"affl":10956,"affron":10957,"porous":10958,"palp":10959,"salut":10960,"uctor":10961,"contempor":10962,"preser":10963,"prescript":10964,"cula":10965,"capac":10966,"solen":10967,"earnest":10968,"cataph":10969,"legal":10970,"tenant":10971,"repur":10972,"recuper":10973,"infus":10974,"infall":10975,"forms":10976,"smut":10977,"smug":10978,"smelling":10979,"commens":10980,"photos":10981,"rals":10982,"purse":10983,"psor":10984,"multiv":10985,"adding":10986,"bonn":10987,"circle":10988,"surviv":10989,"iculus":10990,"iculum":10991,"uku":10992,"cloak":10993,"gypsy":10994,"comput":10995,"ortho":10996,"aero":10997,"confir":10998,"confeder":10999,"ertion":11000,"engross":11001,"Marc":11002,"vituper":11003,"ifiedly":11004,"divert":11005,"excav":11006,"uncture":11007,"protuber":11008,"noon":11009,"entertain":11010,"occipit":11011,"logic":11012,"summ":11013,"simon":11014,"arthrod":11015,"mitting":11016,"lasm":11017,"wait":11018,"enchyma":11019,"itorial":11020,"helminth":11021,"labour":11022,"quadrup":11023,"wheeled":11024,"mutton":11025,"sweat":11026,"urned":11027,"courte":11028,"otropically":11029,"camer":11030,"iodide":11031,"factory":11032,"prodig":11033,"jacket":11034,"lifer":11035,"odermat":11036,"nitros":11037,"Schiz":11038,"fibrill":11039,"iderite":11040,"flour":11041,"ophyta":11042,"fourth":11043,"burned":11044,"drink":11045,"standing":11046,"tinsel":11047,"placed":11048,"initial":11049,"title":11050,"adoes":11051,"uvial":11052,"bergite":11053,"bosomed":11054,"falls":11055,"agua":11056,"approb":11057,"vocifer":11058,"obiological":11059,"spiny":11060,"figured":11061,"onymic":11062,"sequest":11063,"stepping":11064,"dilat":11065,"ocoele":11066,"enzym":11067,"gynaec":11068,"perioste":11069,"prosop":11070,"positional":11071,"album":11072,"osporous":11073,"perfection":11074,"seeded":11075,"yoke":11076,"favour":11077,"multiple":11078,"esthesis":11079,"closing":11080,"willy":11081,"phyllo":11082,"epigram":11083,"garden":11084,"studded":11085,"itudes":11086,"otoxic":11087,"improvis":11088,"ospermous":11089,"otomist":11090,"consciousness":11091,"eloqu":11092,"cannib":11093,"fashioned":11094,"hunter":11095,"wisdom":11096,"odynamics":11097,"skew":11098,"polymer":11099,"otheism":11100,"tawny":11101,"tuned":11102,"ifully":11103,"ifulness":11104,"glucos":11105,"ulturist":11106,"meaning":11107,"function":11108,"Juda":11109,"establishment":11110,"Italian":11111,"ectomize":11112,"stirring":11113,"russian":11114,"Negro":11115,"politico":11116,"propagand":11117,"dollar":11118,"methane":11119,"omycetes":11120,"beauty":11121,"conceptual":11122,"fabric":11123,"tulip":11124,"decarbon":11125,"bureauc":11126,"oclimat":11127,"destroying":11128,"Ast":11129,"Aver":11130,"Aub":11131,"Afric":11132,"Broad":11133,"Ced":11134,"Cul":11135,"Cay":11136,"Coch":11137,"Celt":11138,"Eph":11139,"Fle":11140,"Fort":11141,"Fern":11142,"Hos":11143,"How":11144,"Hav":11145,"IN":11146,"Ju":11147,"Kle":11148,"LP":11149,"Lon":11150,"Lis":11151,"Nah":11152,"Ow":11153,"Oss":11154,"Pul":11155,"Pad":11156,"Pav":11157,"Pha":11158,"Ra":11159,"Rot":11160,"Rand":11161,"Som":11162,"Sac":11163,"TN":11164,"Thal":11165,"Wat":11166,"Water":11167,"Wald":11168,"aesthetic":11169,"bine":11170,"bric":11171,"bending":11172,"cric":11173,"cune":11174,"crescent":11175,"dad":11176,"dwar":11177,"eid":11178,"eager":11179,"fter":11180,"fath":11181,"fting":11182,"fels":11183,"fidd":11184,"foster":11185,"gt":11186,"gne":11187,"grog":11188,"gently":11189,"gaud":11190,"hin":11191,"hass":11192,"hock":11193,"huff":11194,"iatory":11195,"jak":11196,"jov":11197,"jung":11198,"joll":11199,"jux":11200,"kis":11201,"kre":11202,"kos":11203,"kiness":11204,"kink":11205,"mille":11206,"muff":11207,"nis":11208,"nir":11209,"nard":11210,"nug":11211,"nomin":11212,"pion":11213,"pam":11214,"pok":11215,"punt":11216,"pott":11217,"rind":11218,"render":11219,"sord":11220,"trow":11221,"trous":11222,"tangle":11223,"vint":11224,"vatic":11225,"wake":11226,"waste":11227,"yog":11228,"yte":11229,"zia":11230,"zero":11231,"inan":11232,"iners":11233,"invalid":11234,"esi":11235,"eser":11236,"anor":11237,"aning":11238,"anec":11239,"env":11240,"english":11241,"alex":11242,"isal":11243,"isod":11244,"isia":11245,"isingly":11246,"iscope":11247,"arite":11248,"ario":11249,"unite":11250,"unker":11251,"unmor":11252,"itta":11253,"itoid":11254,"elim":11255,"elize":11256,"reme":11257,"rejuven":11258,"lech":11259,"stig":11260,"stabil":11261,"chid":11262,"chann":11263,"usal":11264,"rael":11265,"olize":11266,"etty":11267,"etown":11268,"etail":11269,"phs":11270,"phae":11271,"omia":11272,"omize":11273,"ombro":11274,"idy":11275,"idig":11276,"idious":11277,"idase":11278,"aculum":11279,"ureless":11280,"them":11281,"theg":11282,"thatch":11283,"thimble":11284,"abra":11285,"absc":11286,"abeth":11287,"absin":11288,"entine":11289,"emerg":11290,"oseness":11291,"osophy":11292,"amort":11293,"otation":11294,"advoc":11295,"ogens":11296,"riger":11297,"opping":11298,"opneum":11299,"opithec":11300,"ivated":11301,"ivery":11302,"imos":11303,"imbib":11304,"octop":11305,"agle":11306,"agam":11307,"odge":11308,"pere":11309,"igs":11310,"igram":11311,"igenic":11312,"nonev":11313,"vermic":11314,"quib":11315,"quack":11316,"api":11317,"apos":11318,"loe":11319,"lobed":11320,"consign":11321,"congress":11322,"cov":11323,"coerc":11324,"ellas":11325,"ellia":11326,"spra":11327,"spinal":11328,"spade":11329,"spray":11330,"prostat":11331,"excre":11332,"extern":11333,"exagger":11334,"epimer":11335,"ersburg":11336,"undra":11337,"undity":11338,"asters":11339,"premed":11340,"prejud":11341,"preoccup":11342,"ishments":11343,"hym":11344,"plike":11345,"uces":11346,"obl":11347,"obs":11348,"obil":11349,"heed":11350,"trate":11351,"scy":11352,"scol":11353,"degener":11354,"prank":11355,"ceed":11356,"neural":11357,"mance":11358,"maneu":11359,"ylous":11360,"ylation":11361,"endered":11362,"ayo":11363,"ophren":11364,"blas":11365,"blunder":11366,"blunt":11367,"blame":11368,"compress":11369,"combat":11370,"commission":11371,"ostate":11372,"ostomies":11373,"ostasis":11374,"ologized":11375,"discer":11376,"team":11377,"teut":11378,"teenth":11379,"fling":11380,"bef":11381,"been":11382,"articular":11383,"into":11384,"monet":11385,"trav":11386,"ensible":11387,"misc":11388,"lien":11389,"rontal":11390,"toff":11391,"weas":11392,"resign":11393,"rices":11394,"oneural":11395,"glum":11396,"glamor":11397,"hoar":11398,"reddish":11399,"seme":11400,"semide":11401,"corros":11402,"metas":11403,"carrot":11404,"urethro":11405,"diab":11406,"diad":11407,"slope":11408,"whim":11409,"wholes":11410,"eternal":11411,"romic":11412,"ults":11413,"minis":11414,"barley":11415,"retent":11416,"azin":11417,"azure":11418,"hermit":11419,"herni":11420,"ska":11421,"abling":11422,"merit":11423,"burr":11424,"copic":11425,"gues":11426,"ichn":11427,"unsat":11428,"Chrys":11429,"olded":11430,"Ang":11431,"calvin":11432,"eptive":11433,"oree":11434,"grate":11435,"snug":11436,"sniff":11437,"aneity":11438,"ritual":11439,"does":11440,"pyren":11441,"sway":11442,"sonia":11443,"curric":11444,"affection":11445,"unten":11446,"uctive":11447,"Ald":11448,"itises":11449,"amba":11450,"panegy":11451,"prescri":11452,"ometries":11453,"ragon":11454,"ragal":11455,"ankled":11456,"legend":11457,"accident":11458,"hara":11459,"bored":11460,"infil":11461,"lesome":11462,"omatically":11463,"arsenic":11464,"formable":11465,"warden":11466,"cause":11467,"inescent":11468,"ionalist":11469,"ecks":11470,"predep":11471,"auric":11472,"photograph":11473,"psia":11474,"warp":11475,"mesh":11476,"melon":11477,"onica":11478,"veling":11479,"veloc":11480,"belle":11481,"belief":11482,"holm":11483,"holid":11484,"deliver":11485,"timer":11486,"iculation":11487,"remod":11488,"remember":11489,"topsy":11490,"facing":11491,"extinct":11492,"benign":11493,"cinct":11494,"unks":11495,"unky":11496,"spiral":11497,"flowering":11498,"uroid":11499,"ohm":11500,"pulpit":11501,"nois":11502,"daub":11503,"daughter":11504,"telec":11505,"othermal":11506,"expend":11507,"hardened":11508,"crystal":11509,"driving":11510,"filter":11511,"bully":11512,"amphig":11513,"mitig":11514,"rusty":11515,"sacer":11516,"bait":11517,"quadrat":11518,"gloom":11519,"ophilism":11520,"fullest":11521,"sinu":11522,"vertic":11523,"echo":11524,"appell":11525,"tubul":11526,"inerved":11527,"opteron":11528,"servant":11529,"detract":11530,"ophagia":11531,"sense":11532,"crus":11533,"lapid":11534,"nitrogen":11535,"lantern":11536,"yellowish":11537,"poppy":11538,"algic":11539,"sphaer":11540,"ivalent":11541,"thood":11542,"vagabond":11543,"ospinal":11544,"cabinet":11545,"drawer":11546,"Quaker":11547,"nihil":11548,"citizen":11549,"plumed":11550,"murder":11551,"jugate":11552,"trichlor":11553,"ophthalmia":11554,"onymous":11555,"pterid":11556,"bugs":11557,"folded":11558,"pension":11559,"osauria":11560,"osaurian":11561,"streak":11562,"strept":11563,"ozoa":11564,"positions":11565,"fraud":11566,"iques":11567,"educated":11568,"planting":11569,"mirth":11570,"ocystic":11571,"oglossal":11572,"appeas":11573,"produce":11574,"document":11575,"convinc":11576,"augment":11577,"claimed":11578,"mixt":11579,"epigraph":11580,"official":11581,"junction":11582,"magneto":11583,"ninth":11584,"sailor":11585,"wittedness":11586,"reproach":11587,"robust":11588,"inflamm":11589,"wearied":11590,"dichotom":11591,"sheriff":11592,"oparal":11593,"cylinder":11594,"applaud":11595,"plagi":11596,"itarianism":11597,"acerb":11598,"pillar":11599,"fleshed":11600,"omaniacal":11601,"phthis":11602,"ocardia":11603,"hidden":11604,"changed":11605,"whisper":11606,"ophenol":11607,"ounding":11608,"illionth":11609,"squee":11610,"inspiring":11611,"Romano":11612,"ampere":11613,"Odont":11614,"eaten":11615,"learned":11616,"theatrical":11617,"conditioned":11618,"disciplin":11619,"cuckoo":11620,"slaughter":11621,"circuit":11622,"yielding":11623,"peopled":11624,"invigor":11625,"fascin":11626,"Islam":11627,"rhombo":11628,"environ":11629,"diphther":11630,"Ax":11631,"Aly":11632,"Aqu":11633,"Bou":11634,"Brid":11635,"Buch":11636,"Balk":11637,"Boe":11638,"Bibl":11639,"Budd":11640,"Cos":11641,"Cand":11642,"Cort":11643,"Cour":11644,"Cla":11645,"Claud":11646,"FC":11647,"Fay":11648,"Finn":11649,"GE":11650,"Gur":11651,"Gri":11652,"Jos":11653,"Jov":11654,"Jose":11655,"Jeff":11656,"Jacqu":11657,"Kre":11658,"Kos":11659,"Lock":11660,"Lith":11661,"Mell":11662,"Meth":11663,"Nes":11664,"OP":11665,"Pr":11666,"Pil":11667,"Pow":11668,"Pale":11669,"Pear":11670,"Plac":11671,"Rol":11672,"Rum":11673,"Rhe":11674,"Roy":11675,"Sis":11676,"Sund":11677,"Sud":11678,"Soph":11679,"Sabb":11680,"TP":11681,"Ted":11682,"Tus":11683,"Till":11684,"Tob":11685,"Tall":11686,"Titan":11687,"Vul":11688,"Vict":11689,"WI":11690,"Yan":11691,"Yah":11692,"biz":11693,"byl":11694,"biest":11695,"banner":11696,"cun":11697,"cag":11698,"cale":11699,"cress":11700,"dith":11701,"dance":11702,"fim":11703,"font":11704,"frit":11705,"friction":11706,"gli":11707,"gorm":11708,"gutter":11709,"him":11710,"hoc":11711,"hull":11712,"iencies":11713,"jab":11714,"kt":11715,"ku":11716,"kom":11717,"kad":11718,"kho":11719,"lae":11720,"ligh":11721,"mies":11722,"mire":11723,"mele":11724,"mote":11725,"mizz":11726,"pith":11727,"porn":11728,"pix":11729,"pithec":11730,"rha":11731,"rhea":11732,"siz":11733,"sable":11734,"sah":11735,"sans":11736,"sigh":11737,"siph":11738,"section":11739,"snee":11740,"tak":11741,"tuck":11742,"tomb":11743,"tantal":11744,"uros":11745,"vind":11746,"vah":11747,"wah":11748,"wired":11749,"yel":11750,"yester":11751,"zine":11752,"Ġto":11753,"eri":11754,"eress":11755,"insp":11756,"inase":11757,"esco":11758,"esce":11759,"anous":11760,"anical":11761,"atron":11762,"atax":11763,"atio":11764,"enous":11765,"enidae":11766,"enlar":11767,"enumer":11768,"alab":11769,"edit":11770,"isoch":11771,"isomer":11772,"orer":11773,"orin":11774,"orum":11775,"orhynch":11776,"unip":11777,"unif":11778,"uncar":11779,"unche":11780,"unvol":11781,"itly":11782,"itial":11783,"itability":11784,"elous":11785,"rov":11786,"robot":11787,"rees":11788,"reap":11789,"reinter":11790,"retra":11791,"retrans":11792,"reiter":11793,"leech":11794,"stry":11795,"stony":11796,"chak":11797,"chari":11798,"ilin":11799,"raco":11800,"raised":11801,"rachi":11802,"olymph":11803,"ethe":11804,"essel":11805,"acred":11806,"account":11807,"ulid":11808,"ulist":11809,"ulence":11810,"ulently":11811,"ulatively":11812,"ulators":11813,"asphal":11814,"aspers":11815,"urite":11816,"thr":11817,"that":11818,"thra":11819,"abac":11820,"abras":11821,"abnorm":11822,"emes":11823,"otion":11824,"otroph":11825,"adal":11826,"adher":11827,"uti":11828,"utely":11829,"utions":11830,"umatic":11831,"istan":11832,"rio":11833,"rious":11834,"riven":11835,"ecter":11836,"ecret":11837,"opel":11838,"opular":11839,"opportun":11840,"opoietic":11841,"teria":11842,"terrest":11843,"imn":11844,"imy":11845,"imen":11846,"impar":11847,"ocate":11848,"ocytic":11849,"agro":11850,"agist":11851,"agged":11852,"aggrand":11853,"peria":11854,"perman":11855,"percuss":11856,"igger":11857,"nonvis":11858,"nonequ":11859,"quater":11860,"apar":11861,"antian":11862,"antenn":11863,"ircular":11864,"loan":11865,"loath":11866,"lough":11867,"congen":11868,"conject":11869,"convuls":11870,"este":11871,"spum":11872,"spend":11873,"spinous":11874,"provis":11875,"andry":11876,"expi":11877,"experi":11878,"extermin":11879,"ianly":11880,"ersome":11881,"astr":11882,"ishnesses":11883,"udo":11884,"ibranchiate":11885,"seated":11886,"ucent":11887,"ucco":11888,"obo":11889,"obic":11890,"obac":11891,"obile":11892,"tred":11893,"trell":11894,"trend":11895,"arding":11896,"scum":11897,"deoxid":11898,"prene":11899,"prised":11900,"neura":11901,"avas":11902,"yler":11903,"ylos":11904,"opharyn":11905,"forced":11906,"blot":11907,"blond":11908,"comet":11909,"comple":11910,"boo":11911,"boul":11912,"boiling":11913,"disk":11914,"disper":11915,"dissem":11916,"discontinu":11917,"tean":11918,"teens":11919,"flamm":11920,"upa":11921,"athia":11922,"ickers":11923,"mongr":11924,"internal":11925,"enson":11926,"ensiveness":11927,"taff":11928,"syne":11929,"paragraph":11930,"misanthrop":11931,"awl":11932,"acephal":11933,"toes":11934,"reserv":11935,"berger":11936,"ranean":11937,"actically":11938,"redress":11939,"semist":11940,"superfic":11941,"corall":11942,"columb":11943,"oiditis":11944,"carav":11945,"undered":11946,"polic":11947,"died":11948,"diphenyl":11949,"poth":11950,"slur":11951,"solec":11952,"ramp":11953,"ramine":11954,"rower":11955,"ovo":11956,"rett":11957,"retch":11958,"rette":11959,"bring":11960,"brus":11961,"brist":11962,"aza":11963,"iceous":11964,"hern":11965,"ynous":11966,"archist":11967,"brave":11968,"hallow":11969,"graded":11970,"micr":11971,"gua":11972,"margar":11973,"ichi":11974,"ferv":11975,"decur":11976,"decim":11977,"serge":11978,"serving":11979,"ledness":11980,"plebe":11981,"anthem":11982,"unsent":11983,"unsav":11984,"alein":11985,"Chem":11986,"Chap":11987,"Chama":11988,"ignment":11989,"calib":11990,"omycin":11991,"counted":11992,"owns":11993,"owning":11994,"irement":11995,"incumb":11996,"ateship":11997,"hydat":11998,"ikon":11999,"relax":12000,"airy":12001,"atti":12002,"pseudor":12003,"pseudol":12004,"pseudof":12005,"affin":12006,"rena":12007,"broker":12008,"ytes":12009,"ethnic":12010,"itionary":12011,"issimo":12012,"amby":12013,"ambly":12014,"ambigu":12015,"panel":12016,"paneled":12017,"preserv":12018,"ualness":12019,"anking":12020,"catar":12021,"steer":12022,"steal":12023,"harm":12024,"ringed":12025,"knack":12026,"infection":12027,"synapt":12028,"balanced":12029,"transvers":12030,"transmut":12031,"formular":12032,"ventriloqu":12033,"inescence":12034,"iasm":12035,"electrop":12036,"ecked":12037,"buty":12038,"photom":12039,"ittable":12040,"purpos":12041,"etts":12042,"ernum":12043,"melting":12044,"rumin":12045,"multim":12046,"believ":12047,"biting":12048,"alkalin":12049,"oscopically":12050,"gyps":12051,"fluent":12052,"horror":12053,"defin":12054,"secl":12055,"embol":12056,"iliate":12057,"iliary":12058,"burgh":12059,"tetrap":12060,"pinac":12061,"tsville":12062,"farc":12063,"rectomy":12064,"zzled":12065,"scrib":12066,"operation":12067,"daisy":12068,"basic":12069,"torrent":12070,"cryst":12071,"trout":12072,"tarant":12073,"amphit":12074,"psychos":12075,"millenn":12076,"ematous":12077,"quinque":12078,"rifying":12079,"waver":12080,"waiter":12081,"waisted":12082,"vesicul":12083,"lament":12084,"devout":12085,"quadru":12086,"Leuc":12087,"iscip":12088,"points":12089,"virg":12090,"otrope":12091,"deton":12092,"iodic":12093,"roots":12094,"McG":12095,"finished":12096,"pillow":12097,"mouths":12098,"societ":12099,"plays":12100,"glycol":12101,"dimethyl":12102,"entiality":12103,"drinking":12104,"stands":12105,"celest":12106,"encephala":12107,"choir":12108,"platitudin":12109,"bags":12110,"classic":12111,"justic":12112,"rologic":12113,"pasteur":12114,"throb":12115,"awned":12116,"obiotic":12117,"opathology":12118,"hibern":12119,"sickle":12120,"candid":12121,"phosphat":12122,"nyct":12123,"sawing":12124,"dropping":12125,"slipper":12126,"agogic":12127,"iberian":12128,"odonta":12129,"education":12130,"ubercul":12131,"dialy":12132,"rographic":12133,"cloths":12134,"tresses":12135,"susp":12136,"culture":12137,"compliment":12138,"doctr":12139,"lieuten":12140,"judicial":12141,"closure":12142,"hagi":12143,"random":12144,"ocarbon":12145,"qualified":12146,"iloquy":12147,"journey":12148,"consist":12149,"breadth":12150,"tubercular":12151,"harmonic":12152,"rheumat":12153,"pepton":12154,"rescence":12155,"victor":12156,"consuming":12157,"wounded":12158,"Darwin":12159,"Rhin":12160,"alphab":12161,"Platy":12162,"oproct":12163,"allegor":12164,"atrice":12165,"raxis":12166,"university":12167,"explos":12168,"dulc":12169,"dandy":12170,"employment":12171,"marshal":12172,"Bolshev":12173,"otypical":12174,"arithm":12175,"obedient":12176,"lunged":12177,"formative":12178,"tranquill":12179,"propriet":12180,"ochromatic":12181,"phrase":12182,"chestnut":12183,"otherapeutics":12184,"beetle":12185,"iatrics":12186,"giddy":12187,"governor":12188,"traffic":12189,"shafted":12190,"sponge":12191,"weapon":12192,"nothing":12193,"republican":12194,"Hispan":12195,"August":12196,"teetot":12197,"Spring":12198,"Ichthy":12199,"instrument":12200,"AI":12201,"Asp":12202,"Ary":12203,"Amal":12204,"Bud":12205,"Bah":12206,"Bert":12207,"Barth":12208,"Cu":12209,"Cec":12210,"Clay":12211,"Eg":12212,"Euc":12213,"FM":12214,"Fl":12215,"Fro":12216,"Fried":12217,"Gw":12218,"Gas":12219,"HO":12220,"Hir":12221,"Hend":12222,"Hans":12223,"Hey":12224,"Jay":12225,"Kent":12226,"Kend":12227,"Kenn":12228,"Lob":12229,"Litt":12230,"Mam":12231,"Mant":12232,"Mir":12233,"Mann":12234,"Mik":12235,"Mars":12236,"Mech":12237,"Nick":12238,"PP":12239,"Pip":12240,"Pass":12241,"Pick":12242,"Parth":12243,"RN":12244,"Ron":12245,"Rem":12246,"Rox":12247,"Ross":12248,"Reb":12249,"SC":12250,"Sur":12251,"Sir":12252,"Sto":12253,"Siphon":12254,"Tory":12255,"VO":12256,"Va":12257,"Vel":12258,"Vas":12259,"Vill":12260,"aig":12261,"aemon":12262,"bros":12263,"bale":12264,"buk":12265,"baker":12266,"baked":12267,"cz":12268,"cio":12269,"cote":12270,"casc":12271,"dive":12272,"dram":12273,"dain":12274,"doch":12275,"dru":12276,"ditt":12277,"dotted":12278,"eun":12279,"euth":12280,"fers":12281,"fres":12282,"felic":12283,"frill":12284,"frut":12285,"focal":12286,"gedness":12287,"geless":12288,"grous":12289,"gift":12290,"greek":12291,"hig":12292,"hak":12293,"hating":12294,"hapt":12295,"huge":12296,"jus":12297,"jang":12298,"jah":12299,"jets":12300,"jelly":12301,"kies":12302,"kang":12303,"kath":12304,"kov":12305,"lian":12306,"loll":12307,"maw":12308,"mastic":12309,"nak":12310,"nunc":12311,"nettle":12312,"pous":12313,"prig":12314,"pair":12315,"paved":12316,"puzzle":12317,"rary":12318,"rantly":12319,"sly":12320,"site":12321,"sley":12322,"selling":12323,"sovereign":12324,"tally":12325,"tape":12326,"uates":12327,"uosity":12328,"vist":12329,"vier":12330,"veter":12331,"vile":12332,"wim":12333,"wander":12334,"yes":12335,"zas":12336,"erotic":12337,"inium":12338,"inaceous":12339,"onin":12340,"onis":12341,"onomic":12342,"esite":12343,"escri":12344,"anker":12345,"atas":12346,"atous":12347,"envel":12348,"alto":12349,"alchem":12350,"isser":12351,"isection":12352,"icted":12353,"arus":12354,"armac":12355,"orable":12356,"oriness":12357,"oridae":12358,"unid":12359,"unem":12360,"unall":12361,"unend":12362,"unpo":12363,"unty":12364,"uninc":12365,"unpart":12366,"unters":12367,"unmut":12368,"uninv":12369,"itar":12370,"itum":12371,"itness":12372,"itations":12373,"itableness":12374,"elid":12375,"elman":12376,"elimin":12377,"roon":12378,"romatic":12379,"roscope":12380,"rea":12381,"recomp":12382,"remiss":12383,"rebell":12384,"leas":12385,"lever":12386,"lease":12387,"stroph":12388,"stear":12389,"chs":12390,"usan":12391,"ilable":12392,"ilaginous":12393,"olled":12394,"phyr":12395,"pheric":12396,"phaen":12397,"essay":12398,"essive":12399,"omination":12400,"omachy":12401,"idaceae":12402,"acles":12403,"uler":12404,"ulian":12405,"urers":12406,"urated":12407,"this":12408,"abness":12409,"absur":12410,"above":12411,"abbrevi":12412,"emal":12413,"emeter":12414,"osomal":12415,"osulph":12416,"otor":12417,"otate":12418,"adel":12419,"adas":12420,"adine":12421,"ogical":12422,"ogged":12423,"umental":12424,"iston":12425,"riers":12426,"tera":12427,"territorial":12428,"ivistic":12429,"imid":12430,"imman":12431,"ocul":12432,"octo":12433,"occur":12434,"oclast":12435,"oding":12436,"odies":12437,"odox":12438,"perturb":12439,"igin":12440,"nonir":12441,"nonjur":12442,"verd":12443,"vernal":12444,"verruc":12445,"quette":12446,"quench":12447,"apic":12448,"apsul":12449,"antec":12450,"antie":12451,"suited":12452,"shiv":12453,"shah":12454,"shrim":12455,"shaded":12456,"icalist":12457,"loa":12458,"ipa":12459,"ifl":12460,"ifid":12461,"consec":12462,"congrat":12463,"confound":12464,"esta":12465,"esty":12466,"coarse":12467,"ellary":12468,"spore":12469,"prow":12470,"prolong":12471,"propit":12472,"andria":12473,"andrian":12474,"exer":12475,"exhal":12476,"epoch":12477,"astroph":12478,"inean":12479,"inebri":12480,"overpl":12481,"ibus":12482,"plaint":12483,"seph":12484,"seas":12485,"seem":12486,"obium":12487,"obsequ":12488,"obtus":12489,"obranchiata":12490,"heb":12491,"heen":12492,"trud":12493,"trink":12494,"alless":12495,"ardia":12496,"dear":12497,"prising":12498,"ectal":12499,"ectasis":12500,"aville":12501,"mancip":12502,"clang":12503,"clude":12504,"cluded":12505,"ophistic":12506,"ugos":12507,"compt":12508,"indetermin":12509,"angul":12510,"suburban":12511,"subsist":12512,"boule":12513,"discre":12514,"dissip":12515,"fled":12516,"flock":12517,"flutter":12518,"bees":12519,"being":12520,"atholic":12521,"outsh":12522,"ubin":12523,"inta":12524,"assin":12525,"assem":12526,"assail":12527,"assumpt":12528,"iered":12529,"interpol":12530,"trash":12531,"trachel":12532,"parathy":12533,"achis":12534,"achus":12535,"toise":12536,"wearing":12537,"gees":12538,"geom":12539,"rancy":12540,"matize":12541,"matron":12542,"glory":12543,"hou":12544,"rediv":12545,"redef":12546,"redempt":12547,"metrically":12548,"iths":12549,"caric":12550,"eva":12551,"haft":12552,"pollen":12553,"pollut":12554,"diop":12555,"slit":12556,"sovi":12557,"peer":12558,"romed":12559,"ratively":12560,"ovis":12561,"oving":12562,"mines":12563,"bargain":12564,"return":12565,"leting":12566,"lettered":12567,"brum":12568,"azed":12569,"hery":12570,"sketch":12571,"mere":12572,"marine":12573,"marking":12574,"ichlor":12575,"orner":12576,"anthes":12577,"unson":12578,"unsed":12579,"unsanct":12580,"unced":12581,"Chim":12582,"olden":12583,"Angel":12584,"mew":12585,"ongo":12586,"medi":12587,"medull":12588,"inck":12589,"incip":12590,"genesis":12591,"hydrated":12592,"grud":12593,"ochord":12594,"iking":12595,"ikins":12596,"snail":12597,"pyroph":12598,"pyrid":12599,"therium":12600,"swar":12601,"swiv":12602,"swamp":12603,"centro":12604,"turkey":12605,"affected":12606,"goal":12607,"sals":12608,"ixing":12609,"eths":12610,"demur":12611,"demean":12612,"issance":12613,"ambass":12614,"handy":12615,"presc":12616,"capon":12617,"capular":12618,"fisher":12619,"regal":12620,"regiment":12621,"catap":12622,"sched":12623,"schism":12624,"recru":12625,"dened":12626,"knuckle":12627,"synton":12628,"valv":12629,"balne":12630,"balance":12631,"balloon":12632,"formid":12633,"Arg":12634,"venturous":12635,"patric":12636,"smell":12637,"smile":12638,"electrod":12639,"unna":12640,"refresh":12641,"crash":12642,"aurian":12643,"squat":12644,"deput":12645,"ports":12646,"psamm":12647,"warn":12648,"humble":12649,"multin":12650,"versed":12651,"macer":12652,"tops":12653,"oscopist":12654,"oscopies":12655,"extir":12656,"ebulli":12657,"lection":12658,"defect":12659,"emboss":12660,"pots":12661,"crew":12662,"creed":12663,"hydrochlor":12664,"spired":12665,"muscular":12666,"nause":12667,"farmer":12668,"zza":12669,"excus":12670,"omorphy":12671,"omorphae":12672,"nook":12673,"opericard":12674,"rodden":12675,"persist":12676,"basalt":12677,"telev":12678,"torped":12679,"supp":12680,"drib":12681,"kinetic":12682,"amphip":12683,"simplic":12684,"million":12685,"mits":12686,"rusted":12687,"dedic":12688,"diplo":12689,"acetate":12690,"organized":12691,"wheels":12692,"rimmed":12693,"Inter":12694,"bills":12695,"vanad":12696,"escing":12697,"gnat":12698,"rocket":12699,"boding":12700,"bodies":12701,"virt":12702,"orrhe":12703,"production":12704,"folks":12705,"bloody":12706,"cotyled":12707,"finish":12708,"financ":12709,"piled":12710,"pilot":12711,"pilgrim":12712,"arterial":12713,"jacks":12714,"liturg":12715,"freeze":12716,"eroot":12717,"freak":12718,"vault":12719,"cellul":12720,"rologically":12721,"traction":12722,"awning":12723,"choled":12724,"gressive":12725,"aguer":12726,"approxim":12727,"ilingual":12728,"alties":12729,"hairy":12730,"hipped":12731,"scriptural":12732,"trypan":12733,"rainbow":12734,"oceras":12735,"glutton":12736,"connected":12737,"fortune":12738,"discuss":12739,"costal":12740,"hepta":12741,"onymy":12742,"aja":12743,"goddess":12744,"fluoride":12745,"dilig":12746,"semipro":12747,"holders":12748,"gangli":12749,"neurot":12750,"sexual":12751,"albumen":12752,"seeds":12753,"rhyme":12754,"tumult":12755,"appeal":12756,"Rosen":12757,"personal":12758,"growth":12759,"nominal":12760,"puppy":12761,"ocentesis":12762,"gigant":12763,"jacent":12764,"Polym":12765,"ticket":12766,"carniv":12767,"measuring":12768,"ocarb":12769,"prefect":12770,"melanchol":12771,"dressing":12772,"pallad":12773,"steady":12774,"frozen":12775,"phyllous":12776,"budget":12777,"wreathed":12778,"ruling":12779,"maxill":12780,"epitom":12781,"electricity":12782,"melodra":12783,"rapture":12784,"Rhiz":12785,"timbered":12786,"ocardi":12787,"spreading":12788,"igraphy":12789,"ahedral":12790,"satisfied":12791,"vernacular":12792,"runner":12793,"absorb":12794,"linked":12795,"dendro":12796,"oracic":12797,"fantas":12798,"ectomized":12799,"aniline":12800,"recipro":12801,"agnetism":12802,"expansion":12803,"duoden":12804,"embroidered":12805,"fiend":12806,"sneak":12807,"narcot":12808,"alveolar":12809,"Caes":12810,"sophistic":12811,"memorial":12812,"cousin":12813,"evolutionary":12814,"pettico":12815,"authentic":12816,"Gymn":12817,"vehicle":12818,"pylor":12819,"matrimon":12820,"encycloped":12821,"intestinal":12822,"horizont":12823,"municip":12824,"okinesis":12825,"phoenic":12826,"scintill":12827,"efferves":12828,"sphygm":12829,"Crypto":12830,"miniatur":12831,"proselyt":12832,"ocrystalline":12833,"asphyx":12834,"sacerdot":12835,"AU":12836,"Aes":12837,"Alo":12838,"Agu":12839,"Acro":12840,"Bag":12841,"Bill":12842,"Ball":12843,"Bull":12844,"Boh":12845,"Bened":12846,"Cran":12847,"Cyr":12848,"Doc":12849,"Dob":12850,"Deb":12851,"EP":12852,"ET":12853,"Eud":12854,"Fri":12855,"GM":12856,"Gol":12857,"Gom":12858,"Gam":12859,"Gav":12860,"Gust":12861,"Glad":12862,"Greek":12863,"Kab":12864,"Kaz":12865,"Kirk":12866,"LM":12867,"Lit":12868,"Lie":12869,"Lys":12870,"Mish":12871,"Middle":12872,"Oliv":12873,"Pit":12874,"Pep":12875,"Pall":12876,"Pach":12877,"Pros":12878,"Plan":12879,"Ry":12880,"Rib":12881,"Row":12882,"Rav":12883,"Rey":12884,"Sec":12885,"Sass":12886,"Scy":12887,"Sans":12888,"Spi":12889,"Swed":12890,"Scler":12891,"Tag":12892,"Tele":12893,"Ves":12894,"Vis":12895,"Wah":12896,"aught":12897,"bann":12898,"bitt":12899,"bunch":12900,"cep":12901,"cable":12902,"cose":12903,"cree":12904,"czar":12905,"caffe":12906,"dav":12907,"dition":12908,"dump":12909,"dasy":12910,"fain":12911,"frol":12912,"fenn":12913,"frown":12914,"frang":12915,"fighter":12916,"gat":12917,"gros":12918,"gily":12919,"gaff":12920,"geld":12921,"gaster":12922,"gets":12923,"given":12924,"huck":12925,"hope":12926,"iences":12927,"iya":12928,"jit":12929,"jut":12930,"jaz":12931,"jong":12932,"kim":12933,"kap":12934,"kay":12935,"kily":12936,"liss":12937,"lase":12938,"litt":12939,"muss":12940,"morning":12941,"melior":12942,"ners":12943,"nae":12944,"nox":12945,"oag":12946,"ought":12947,"pund":12948,"pak":12949,"pind":12950,"piness":12951,"pinc":12952,"puck":12953,"pogon":12954,"puzz":12955,"paddle":12956,"panthe":12957,"sant":12958,"suns":12959,"sunk":12960,"tand":12961,"till":12962,"tweed":12963,"tame":12964,"troll":12965,"task":12966,"uist":12967,"uke":12968,"uplic":12969,"vand":12970,"vies":12971,"vina":12972,"wow":12973,"wadd":12974,"wench":12975,"wasp":12976,"wrack":12977,"yok":12978,"zu":12979,"zor":12980,"zib":12981,"zite":12982,"ziest":12983,"eras":12984,"erem":12985,"eria":12986,"ineness":12987,"inhal":12988,"inizing":12989,"inhum":12990,"inette":12991,"injur":12992,"inhabit":12993,"onid":12994,"onde":12995,"onucle":12996,"oncus":12997,"eson":12998,"esic":12999,"anid":13000,"ancon":13001,"atrophia":13002,"along":13003,"alms":13004,"isive":13005,"icid":13006,"icent":13007,"icult":13008,"icule":13009,"arous":13010,"armon":13011,"orine":13012,"orhy":13013,"orne":13014,"orific":13015,"unes":13016,"uning":13017,"unexp":13018,"itre":13019,"itur":13020,"iteness":13021,"itize":13022,"itute":13023,"elen":13024,"elate":13025,"reh":13026,"reun":13027,"reel":13028,"rehab":13029,"recover":13030,"requis":13031,"lei":13032,"lepro":13033,"leton":13034,"stult":13035,"stanch":13036,"chum":13037,"chaw":13038,"chok":13039,"chias":13040,"chatter":13041,"chival":13042,"chinned":13043,"usions":13044,"olation":13045,"oller":13046,"phi":13047,"phoc":13048,"phoid":13049,"omest":13050,"omial":13051,"omerous":13052,"omuscular":13053,"acri":13054,"acism":13055,"ulia":13056,"asin":13057,"ascar":13058,"ascope":13059,"ascertain":13060,"thia":13061,"thetically":13062,"thief":13063,"emiss":13064,"emias":13065,"osi":13066,"amia":13067,"amped":13068,"amines":13069,"otto":13070,"otric":13071,"adon":13072,"adol":13073,"adial":13074,"utop":13075,"utive":13076,"utric":13077,"uttered":13078,"ogic":13079,"ogone":13080,"uman":13081,"rime":13082,"riving":13083,"rized":13084,"opac":13085,"terers":13086,"ivating":13087,"aginal":13088,"izabeth":13089,"odous":13090,"odist":13091,"pertin":13092,"perplex":13093,"igator":13094,"nonsup":13095,"very":13096,"quindec":13097,"apl":13098,"apat":13099,"apot":13100,"antile":13101,"iral":13102,"shab":13103,"shred":13104,"shots":13105,"shaken":13106,"lout":13107,"loop":13108,"lobe":13109,"loved":13110,"loads":13111,"loading":13112,"ifug":13113,"ifuge":13114,"constr":13115,"coo":13116,"coqu":13117,"coher":13118,"coinc":13119,"cough":13120,"covet":13121,"ellid":13122,"ellos":13123,"ellular":13124,"elliform":13125,"spent":13126,"spill":13127,"spind":13128,"spinning":13129,"probos":13130,"exeg":13131,"extingu":13132,"epy":13133,"epine":13134,"epib":13135,"unded":13136,"asthen":13137,"previs":13138,"preconf":13139,"preponder":13140,"udin":13141,"iberal":13142,"plated":13143,"illions":13144,"seaf":13145,"oben":13146,"obliqu":13147,"trunc":13148,"akh":13149,"ardi":13150,"ardy":13151,"ardly":13152,"scree":13153,"score":13154,"scald":13155,"defe":13156,"deject":13157,"dealing":13158,"degrad":13159,"dehydrogen":13160,"manly":13161,"ylind":13162,"ylamine":13163,"ffe":13164,"endent":13165,"endow":13166,"ayers":13167,"clitor":13168,"ugly":13169,"bla":13170,"blend":13171,"blier":13172,"bliest":13173,"blink":13174,"blike":13175,"complac":13176,"comfort":13177,"ostent":13178,"ostosis":13179,"ostemon":13180,"ostyle":13181,"indel":13182,"anging":13183,"anglic":13184,"subordin":13185,"boast":13186,"bough":13187,"bought":13188,"boiled":13189,"displeas":13190,"flop":13191,"bewitch":13192,"artist":13193,"ubs":13194,"intram":13195,"cyr":13196,"mongol":13197,"interior":13198,"traumat":13199,"tau":13200,"syr":13201,"seless":13202,"mooth":13203,"moidal":13204,"aryten":13205,"toast":13206,"weaving":13207,"bern":13208,"bering":13209,"rances":13210,"matern":13211,"actively":13212,"redel":13213,"redep":13214,"reduct":13215,"reduction":13216,"ropism":13217,"coroll":13218,"corrod":13219,"ega":13220,"eger":13221,"collo":13222,"carbox":13223,"ptive":13224,"diather":13225,"slat":13226,"pew":13227,"whin":13228,"whist":13229,"ratus":13230,"barge":13231,"oxyt":13232,"oxime":13233,"rets":13234,"rety":13235,"bristle":13236,"herm":13237,"skept":13238,"ofrontal":13239,"eyeb":13240,"germ":13241,"types":13242,"microt":13243,"guide":13244,"annul":13245,"ichs":13246,"orned":13247,"fervent":13248,"twink":13249,"served":13250,"feel":13251,"feast":13252,"aship":13253,"stren":13254,"autod":13255,"unsatis":13256,"ilee":13257,"ungent":13258,"Anast":13259,"Ante":13260,"meeting":13261,"aterally":13262,"igns":13263,"igner":13264,"counten":13265,"mediat":13266,"ikh":13267,"posts":13268,"inners":13269,"rites":13270,"doodle":13271,"bleach":13272,"positive":13273,"swin":13274,"swash":13275,"stercor":13276,"centen":13277,"curt":13278,"hemian":13279,"desic":13280,"rels":13281,"pseudot":13282,"pork":13283,"renn":13284,"renov":13285,"theosoph":13286,"venen":13287,"goes":13288,"goof":13289,"rott":13290,"zoan":13291,"ennate":13292,"pets":13293,"petrol":13294,"petiol":13295,"ethical":13296,"ethmoid":13297,"Alc":13298,"demip":13299,"issing":13300,"elebr":13301,"contem":13302,"president":13303,"ometab":13304,"ouk":13305,"captain":13306,"fishing":13307,"solv":13308,"soliloqu":13309,"arias":13310,"ariaceous":13311,"arietal":13312,"ulla":13313,"rhexis":13314,"cats":13315,"eliqu":13316,"scholar":13317,"harp":13318,"harness":13319,"syncop":13320,"syndic":13321,"balm":13322,"volum":13323,"volley":13324,"wardness":13325,"cauc":13326,"pathy":13327,"smitten":13328,"ients":13329,"refriger":13330,"predist":13331,"predetermin":13332,"prized":13333,"uffy":13334,"deplor":13335,"humored":13336,"humbug":13337,"domic":13338,"praec":13339,"oya":13340,"holy":13341,"versive":13342,"cleist":13343,"clever":13344,"dying":13345,"ygraph":13346,"extro":13347,"crip":13348,"reader":13349,"lectomy":13350,"besp":13351,"secund":13352,"embos":13353,"tetram":13354,"sheer":13355,"unking":13356,"unkind":13357,"Margar":13358,"vitre":13359,"winded":13360,"Stock":13361,"osphaer":13362,"naught":13363,"uncontra":13364,"rodont":13365,"enteritis":13366,"effemin":13367,"occi":13368,"blooming":13369,"expir":13370,"hardy":13371,"unrever":13372,"hetero":13373,"tarn":13374,"filth":13375,"filament":13376,"radiation":13377,"audate":13378,"milli":13379,"radical":13380,"adenoma":13381,"wafer":13382,"latin":13383,"bells":13384,"belliger":13385,"rubric":13386,"rustic":13387,"yrate":13388,"sorb":13389,"sacrif":13390,"diploc":13391,"helmet":13392,"labyrinth":13393,"rapid":13394,"italian":13395,"passing":13396,"idiot":13397,"judg":13398,"judge":13399,"judged":13400,"treated":13401,"esced":13402,"pointing":13403,"hexa":13404,"anthropic":13405,"detach":13406,"bacill":13407,"european":13408,"ophagist":13409,"uddled":13410,"rabble":13411,"omniv":13412,"finch":13413,"fields":13414,"physical":13415,"ladder":13416,"putty":13417,"profic":13418,"nuts":13419,"shooting":13420,"histor":13421,"player":13422,"digital":13423,"ophyre":13424,"End":13425,"flying":13426,"lawn":13427,"sphere":13428,"rounded":13429,"placement":13430,"cystic":13431,"manned":13432,"choke":13433,"ocratically":13434,"cephalous":13435,"Const":13436,"enthron":13437,"fleet":13438,"rixes":13439,"prett":13440,"dicty":13441,"falling":13442,"Columb":13443,"scarce":13444,"leafed":13445,"sickness":13446,"septem":13447,"hurry":13448,"wither":13449,"abolism":13450,"fluorid":13451,"blindness":13452,"ophysiology":13453,"somely":13454,"uttering":13455,"iferously":13456,"bankrupt":13457,"mammal":13458,"fairy":13459,"ienne":13460,"strobil":13461,"convict":13462,"martyr":13463,"paying":13464,"guarded":13465,"tropical":13466,"claiming":13467,"ilitar":13468,"constitutional":13469,"stringed":13470,"measured":13471,"mixed":13472,"happy":13473,"telephon":13474,"uphe":13475,"pectin":13476,"study":13477,"calcane":13478,"possessed":13479,"hanging":13480,"romance":13481,"froth":13482,"phagous":13483,"careous":13484,"knowing":13485,"vinegar":13486,"electronic":13487,"ethylene":13488,"carpous":13489,"ruled":13490,"cerebral":13491,"pirit":13492,"Syro":13493,"sodden":13494,"felon":13495,"gymnos":13496,"exterior":13497,"polymorph":13498,"horsep":13499,"association":13500,"fraction":13501,"oprote":13502,"expert":13503,"chromatic":13504,"throwing":13505,"articulation":13506,"existent":13507,"somnambul":13508,"stretch":13509,"orbicular":13510,"pictorial":13511,"fenest":13512,"russet":13513,"barreled":13514,"stalked":13515,"vassal":13516,"scroful":13517,"ophobic":13518,"otaxy":13519,"sprung":13520,"otherapeutic":13521,"volatil":13522,"enthusiast":13523,"pieces":13524,"okinetic":13525,"letharg":13526,"apophysis":13527,"knowledge":13528,"meadow":13529,"endotheli":13530,"cosmopolitan":13531,"bachelor":13532,"centrifug":13533,"afforest":13534,"oparalysis":13535,"choledoch":13536,"AN":13537,"Af":13538,"Are":13539,"Ail":13540,"Amy":13541,"Amor":13542,"Bil":13543,"Bod":13544,"Bard":13545,"Bath":13546,"Bass":13547,"Benn":13548,"Beck":13549,"Cres":13550,"Cole":13551,"Cze":13552,"Clad":13553,"DR":13554,"Did":13555,"Dion":13556,"Dum":13557,"Dub":13558,"Denn":13559,"Dani":13560,"Ech":13561,"Eli":13562,"FF":13563,"FL":13564,"Fed":13565,"Fir":13566,"GB":13567,"GP":13568,"Gel":13569,"Gob":13570,"Gru":13571,"Hab":13572,"Hep":13573,"Hud":13574,"Holl":13575,"IO":13576,"Iv":13577,"Iz":13578,"Jod":13579,"Kay":13580,"Kass":13581,"Kok":13582,"Khal":13583,"Karl":13584,"Liv":13585,"Lond":13586,"Mi":13587,"Mang":13588,"March":13589,"Maj":13590,"ND":13591,"Nan":13592,"Nam":13593,"Num":13594,"Ost":13595,"Oce":13596,"Pi":13597,"Pag":13598,"Pay":13599,"Pres":13600,"Park":13601,"Parn":13602,"RB":13603,"Rec":13604,"Rex":13605,"Roch":13606,"Rhynch":13607,"SM":13608,"Sag":13609,"Sard":13610,"Scar":13611,"Spe":13612,"Sche":13613,"Satur":13614,"TT":13615,"TV":13616,"Tr":13617,"Tac":13618,"Tem":13619,"Tak":13620,"Tup":13621,"UC":13622,"Vic":13623,"Vinc":13624,"Vern":13625,"Wes":13626,"Wis":13627,"Wak":13628,"Willi":13629,"Yo":13630,"bous":13631,"bage":13632,"bram":13633,"bibl":13634,"cs":13635,"cron":13636,"coss":13637,"caster":13638,"cule":13639,"cnid":13640,"dated":13641,"dick":13642,"dement":13643,"dele":13644,"duk":13645,"danger":13646,"dazz":13647,"ebon":13648,"ejac":13649,"fess":13650,"fod":13651,"fate":13652,"fred":13653,"fizz":13654,"french":13655,"giv":13656,"gant":13657,"gies":13658,"gout":13659,"gub":13660,"gush":13661,"holog":13662,"henic":13663,"hinder":13664,"iatively":13665,"jos":13666,"jow":13667,"jav":13668,"jok":13669,"jett":13670,"kul":13671,"kale":13672,"killer":13673,"lus":13674,"lens":13675,"laut":13676,"leless":13677,"mik":13678,"muk":13679,"muzz":13680,"nun":13681,"nau":13682,"nostic":13683,"oor":13684,"pn":13685,"pne":13686,"psel":13687,"pust":13688,"rers":13689,"ringly":13690,"riss":13691,"rising":13692,"sale":13693,"saur":13694,"sawn":13695,"sboro":13696,"sunny":13697,"toph":13698,"tik":13699,"tenn":13700,"tamp":13701,"tilt":13702,"tune":13703,"uet":13704,"uram":13705,"uve":13706,"vary":13707,"vou":13708,"vouch":13709,"wap":13710,"wich":13711,"waff":13712,"wield":13713,"wanton":13714,"yx":13715,"your":13716,"ycle":13717,"zin":13718,"Ġin":13719,"Ġlike":13720,"ĠIt":13721,"Ġvehicle":13722,"errant":13723,"error":13724,"inx":13725,"inver":13726,"inert":13727,"onyl":13728,"onidae":13729,"esman":13730,"anod":13731,"anathemat":13732,"atary":13733,"atrophy":13734,"enism":13735,"encom":13736,"eningly":13737,"altar":13738,"icom":13739,"oron":13740,"orot":13741,"orce":13742,"orah":13743,"orchi":13744,"ordered":13745,"uny":13746,"unia":13747,"unover":13748,"unta":13749,"unaw":13750,"unho":13751,"unmet":13752,"unins":13753,"unpe":13754,"unbar":13755,"unbra":13756,"unhal":13757,"uninf":13758,"unmod":13759,"unspec":13760,"unclass":13761,"unjust":13762,"unresist":13763,"unbrut":13764,"itates":13765,"itress":13766,"itatively":13767,"elist":13768,"elation":13769,"elated":13770,"eliest":13771,"robe":13772,"roct":13773,"roach":13774,"rogu":13775,"repos":13776,"recommend":13777,"leur":13778,"league":13779,"stron":13780,"strag":13781,"stilt":13782,"choc":13783,"uspid":13784,"ilical":13785,"rains":13786,"raught":13787,"olian":13788,"olla":13789,"etia":13790,"etism":13791,"ethy":13792,"essor":13793,"omaxillary":13794,"idical":13795,"ionidae":13796,"acat":13797,"acled":13798,"acule":13799,"ulac":13800,"ulmon":13801,"asch":13802,"asha":13803,"ascal":13804,"uresis":13805,"urtic":13806,"thie":13807,"thren":13808,"thouse":13809,"thrice":13810,"abad":13811,"abort":13812,"abrid":13813,"abomin":13814,"enton":13815,"emus":13816,"emically":13817,"embark":13818,"osmic":13819,"osilicate":13820,"amat":13821,"amps":13822,"otoc":13823,"adin":13824,"aders":13825,"adhes":13826,"oger":13827,"umbra":13828,"umbon":13829,"istor":13830,"istered":13831,"riate":13832,"eces":13833,"ecum":13834,"econd":13835,"opine":13836,"opium":13837,"opros":13838,"opposit":13839,"ivered":13840,"impal":13841,"implement":13842,"oce":13843,"octor":13844,"agron":13845,"izement":13846,"pereg":13847,"percent":13848,"igon":13849,"ignon":13850,"nonconf":13851,"noncred":13852,"versal":13853,"appy":13854,"apsid":13855,"antith":13856,"antisc":13857,"iris":13858,"irish":13859,"irrh":13860,"irrational":13861,"supre":13862,"shaking":13863,"shelled":13864,"shanked":13865,"lour":13866,"loaded":13867,"ipt":13868,"ipel":13869,"ipos":13870,"ifiability":13871,"conqu":13872,"consequ":13873,"consolid":13874,"coz":13875,"coop":13876,"coven":13877,"courage":13878,"ellor":13879,"spond":13880,"spons":13881,"spruc":13882,"procre":13883,"proced":13884,"probri":13885,"protract":13886,"promul":13887,"andard":13888,"andibular":13889,"exed":13890,"excommunic":13891,"ianite":13892,"ianna":13893,"isma":13894,"undiff":13895,"asta":13896,"astich":13897,"astring":13898,"asthenia":13899,"precent":13900,"preval":13901,"ishably":13902,"overl":13903,"overab":13904,"hyet":13905,"hylo":13906,"hypor":13907,"ibo":13908,"plaster":13909,"plagu":13910,"illike":13911,"seign":13912,"ucan":13913,"ucing":13914,"aeum":13915,"obt":13916,"obey":13917,"obtain":13918,"heating":13919,"height":13920,"truss":13921,"allis":13922,"akan":13923,"akia":13924,"ardon":13925,"scant":13926,"scrat":13927,"scept":13928,"scaff":13929,"scull":13930,"scream":13931,"ialities":13932,"ialised":13933,"ialising":13934,"defl":13935,"devit":13936,"dealer":13937,"deodor":13938,"prong":13939,"ecting":13940,"avo":13941,"avar":13942,"manlike":13943,"manager":13944,"ylite":13945,"ffs":13946,"cluding":13947,"opher":13948,"ophily":13949,"foramin":13950,"fornic":13951,"forcement":13952,"ugo":13953,"ugher":13954,"uggest":13955,"blam":13956,"blubber":13957,"bladder":13958,"comer":13959,"ryman":13960,"ryville":13961,"inds":13962,"angia":13963,"boar":13964,"boks":13965,"ologian":13966,"disbur":13967,"disgu":13968,"disgust":13969,"disillusion":13970,"teur":13971,"flab":13972,"floss":13973,"beho":13974,"begu":13975,"ieh":13976,"upbra":13977,"aths":13978,"arta":13979,"arty":13980,"outfl":13981,"outsw":13982,"ubt":13983,"ubic":13984,"intri":13985,"assum":13986,"icket":13987,"atoriness":13988,"intercal":13989,"intercess":13990,"trained":13991,"fulfill":13992,"parish":13993,"paramet":13994,"parchment":13995,"mised":13996,"misch":13997,"sels":13998,"achian":13999,"mox":14000,"mounted":14001,"awan":14002,"aryship":14003,"wears":14004,"resup":14005,"resident":14006,"ricin":14007,"gless":14008,"hoid":14009,"seman":14010,"semia":14011,"superst":14012,"supervis":14013,"cors":14014,"corne":14015,"carrier":14016,"carriage":14017,"ureted":14018,"haut":14019,"poik":14020,"pouch":14021,"polem":14022,"wove":14023,"welled":14024,"slab":14025,"slot":14026,"sland":14027,"whig":14028,"whiff":14029,"isee":14030,"bara":14031,"retriev":14032,"hermaph":14033,"gered":14034,"burglar":14035,"pedal":14036,"linger":14037,"axe":14038,"annin":14039,"iedly":14040,"mare":14041,"decas":14042,"decap":14043,"asiatic":14044,"heading":14045,"plei":14046,"autoch":14047,"unsign":14048,"uncul":14049,"unciv":14050,"unclo":14051,"uncred":14052,"uncular":14053,"ilement":14054,"ungar":14055,"Chin":14056,"Andre":14057,"mezz":14058,"ogenies":14059,"igny":14060,"medioc":14061,"incter":14062,"incand":14063,"menstr":14064,"grid":14065,"ritch":14066,"ritical":14067,"doom":14068,"pyel":14069,"theri":14070,"thern":14071,"thermot":14072,"sonant":14073,"sonite":14074,"curly":14075,"hemer":14076,"cheese":14077,"turg":14078,"turtle":14079,"attor":14080,"attack":14081,"theater":14082,"brev":14083,"breach":14084,"broth":14085,"rophile":14086,"petaled":14087,"ixation":14088,"Alb":14089,"demagnet":14090,"eleaf":14091,"contum":14092,"contempt":14093,"prespec":14094,"ifyingly":14095,"linen":14096,"culmin":14097,"capill":14098,"capric":14099,"ailer":14100,"ariant":14101,"polygon":14102,"polygam":14103,"rhet":14104,"offer":14105,"anky":14106,"repent":14107,"report":14108,"steward":14109,"dense":14110,"knotted":14111,"infest":14112,"leship":14113,"synthes":14114,"valer":14115,"valor":14116,"canvas":14117,"bals":14118,"volunt":14119,"transmig":14120,"unfur":14121,"oley":14122,"formity":14123,"Arm":14124,"Arn":14125,"patent":14126,"patched":14127,"smel":14128,"byr":14129,"committ":14130,"butcher":14131,"photop":14132,"purpur":14133,"squel":14134,"squire":14135,"erns":14136,"portent":14137,"warmed":14138,"warming":14139,"domestic":14140,"mesos":14141,"mels":14142,"rump":14143,"yllous":14144,"addling":14145,"pray":14146,"launch":14147,"equis":14148,"delight":14149,"bitumin":14150,"wayed":14151,"penic":14152,"survey":14153,"cleans":14154,"grease":14155,"clover":14156,"eks":14157,"potential":14158,"splinter":14159,"shead":14160,"distill":14161,"distort":14162,"rison":14163,"vitell":14164,"winds":14165,"windy":14166,"buy":14167,"groom":14168,"faring":14169,"philop":14170,"operative":14171,"efflu":14172,"baller":14173,"precip":14174,"lighting":14175,"cosmet":14176,"symbi":14177,"pictur":14178,"templ":14179,"batter":14180,"bander":14181,"auditor":14182,"motion":14183,"radial":14184,"impec":14185,"dogmat":14186,"dogger":14187,"analytic":14188,"deduct":14189,"enchant":14190,"chlorophyll":14191,"acetone":14192,"quadris":14193,"between":14194,"wheeler":14195,"locomot":14196,"urnal":14197,"ophoria":14198,"phyte":14199,"rasia":14200,"hexap":14201,"otropous":14202,"provoc":14203,"iodo":14204,"gastrop":14205,"faun":14206,"folly":14207,"follow":14208,"odea":14209,"mistrust":14210,"rabbin":14211,"crink":14212,"crunch":14213,"iments":14214,"odermal":14215,"billy":14216,"fibered":14217,"mask":14218,"played":14219,"megas":14220,"glyph":14221,"glypt":14222,"glycos":14223,"horns":14224,"dimer":14225,"avern":14226,"digress":14227,"uscult":14228,"lava":14229,"lawyer":14230,"vulner":14231,"lays":14232,"fastness":14233,"emplo":14234,"cases":14235,"jealous":14236,"ucleate":14237,"ospec":14238,"ospong":14239,"sufficient":14240,"stocking":14241,"antipar":14242,"actylous":14243,"uterine":14244,"botry":14245,"hypothes":14246,"pastoral":14247,"irostral":14248,"tabular":14249,"olithiasis":14250,"bucket":14251,"smanship":14252,"obiosis":14253,"toxin":14254,"bronchi":14255,"scriptive":14256,"business":14257,"northeast":14258,"fried":14259,"ocervical":14260,"glutin":14261,"grief":14262,"trichin":14263,"apsular":14264,"sawed":14265,"pledge":14266,"acoustic":14267,"oxidation":14268,"enza":14269,"uncompl":14270,"destroy":14271,"unlust":14272,"ogonium":14273,"ACS":14274,"prerec":14275,"neuros":14276,"anatomic":14277,"ophysical":14278,"ozoon":14279,"ozoan":14280,"ozooid":14281,"pleasing":14282,"ruption":14283,"famil":14284,"favored":14285,"tressed":14286,"bidden":14287,"ethere":14288,"leucocyt":14289,"Macro":14290,"iparity":14291,"diffract":14292,"pacific":14293,"hierarch":14294,"technical":14295,"sightedness":14296,"junctive":14297,"garde":14298,"iloquent":14299,"bumble":14300,"rophyte":14301,"resolv":14302,"hazel":14303,"directed":14304,"valuing":14305,"valuation":14306,"apostroph":14307,"gastroenter":14308,"mobil":14309,"otomous":14310,"electrical":14311,"tutor":14312,"patriot":14313,"hatted":14314,"Norman":14315,"fixed":14316,"inferior":14317,"sectional":14318,"scapular":14319,"threaded":14320,"pendicular":14321,"austral":14322,"epistol":14323,"plague":14324,"rhinocer":14325,"niggard":14326,"erythrin":14327,"diplomat":14328,"mystic":14329,"hounds":14330,"Sabbat":14331,"atrices":14332,"coloured":14333,"original":14334,"oglobul":14335,"plasmod":14336,"odiagnosis":14337,"rontgen":14338,"spaced":14339,"Silver":14340,"quartz":14341,"blessed":14342,"ochromic":14343,"compassion":14344,"European":14345,"Italo":14346,"productive":14347,"wrapped":14348,"controlled":14349,"instruction":14350,"Pleuro":14351,"speckle":14352,"ropteryg":14353,"cauter":14354,"vaccin":14355,"scientific":14356,"conventional":14357,"othecal":14358,"tranquil":14359,"principled":14360,"scissor":14361,"emascul":14362,"maintain":14363,"frequency":14364,"glazed":14365,"Actin":14366,"gossip":14367,"epilog":14368,"laurel":14369,"zigz":14370,"fecund":14371,"burdened":14372,"accustom":14373,"consonant":14374,"nabob":14375,"osclerosis":14376,"hammedan":14377,"shepherd":14378,"hendec":14379,"southern":14380,"lamyde":14381,"Pythag":14382,"peculiar":14383,"ocarcinoma":14384,"sullen":14385,"illegitim":14386,"ocyclic":14387,"kitchen":14388,"rhynch":14389,"bureaucrat":14390,"AL":14391,"Amo":14392,"Aram":14393,"Bi":14394,"Bess":14395,"Bom":14396,"Bran":14397,"Bush":14398,"Batt":14399,"Bru":14400,"Belle":14401,"Burg":14402,"Cic":14403,"Cra":14404,"Cest":14405,"Cuc":14406,"Cost":14407,"Cann":14408,"Da":14409,"Dag":14410,"Day":14411,"Dou":14412,"Eb":14413,"Ec":14414,"Eup":14415,"Eust":14416,"Four":14417,"Ford":14418,"GI":14419,"GO":14420,"Gay":14421,"Grat":14422,"Gorg":14423,"Hut":14424,"Hec":14425,"Hex":14426,"Hier":14427,"Heg":14428,"Homer":14429,"Hymen":14430,"IM":14431,"Ib":14432,"Ix":14433,"Ith":14434,"Ish":14435,"Iber":14436,"Ja":14437,"Kit":14438,"Koh":14439,"Lil":14440,"Lec":14441,"Lov":14442,"Laz":14443,"Linn":14444,"Leb":14445,"Mut":14446,"Map":14447,"Mack":14448,"Mull":14449,"Nel":14450,"Nev":14451,"Nich":14452,"Nash":14453,"Nicol":14454,"Om":14455,"Ore":14456,"Pre":14457,"Pac":14458,"Ri":14459,"Res":14460,"Rick":14461,"Ruth":14462,"Roz":14463,"Raj":14464,"Son":14465,"Sic":14466,"Sant":14467,"Scol":14468,"Sym":14469,"Sou":14470,"Sphen":14471,"Script":14472,"Simon":14473,"TR":14474,"Tad":14475,"Top":14476,"Tir":14477,"Try":14478,"Tric":14479,"Tyn":14480,"Tenn":14481,"Tyr":14482,"UI":14483,"UP":14484,"Wind":14485,"Wyn":14486,"Xiph":14487,"Zer":14488,"Zan":14489,"Zar":14490,"ait":14491,"aemic":14492,"aesth":14493,"auscult":14494,"bost":14495,"bacc":14496,"boll":14497,"caff":14498,"cue":14499,"ciform":14500,"dl":14501,"dut":14502,"dud":14503,"dill":14504,"dang":14505,"dren":14506,"doss":14507,"dunn":14508,"dura":14509,"dizz":14510,"drear":14511,"eh":14512,"eed":14513,"eart":14514,"easter":14515,"from":14516,"fatt":14517,"fiction":14518,"gism":14519,"give":14520,"gins":14521,"guns":14522,"gates":14523,"gane":14524,"gings":14525,"gemin":14526,"hec":14527,"hover":14528,"hans":14529,"iu":14530,"iatic":14531,"jem":14532,"jad":14533,"jest":14534,"jured":14535,"jazz":14536,"japan":14537,"kept":14538,"khed":14539,"lind":14540,"lare":14541,"mm":14542,"mae":14543,"mated":14544,"mure":14545,"mage":14546,"mugg":14547,"member":14548,"niv":14549,"nant":14550,"nast":14551,"naz":14552,"nomen":14553,"oism":14554,"pout":14555,"pace":14556,"pence":14557,"punn":14558,"rens":14559,"rily":14560,"ricalness":14561,"sia":14562,"sest":14563,"send":14564,"sart":14565,"smar":14566,"sacc":14567,"slob":14568,"suscept":14569,"tia":14570,"tite":14571,"tost":14572,"tabl":14573,"tinn":14574,"tasting":14575,"uar":14576,"ube":14577,"urot":14578,"von":14579,"vant":14580,"vian":14581,"vial":14582,"vens":14583,"vious":14584,"vised":14585,"vomit":14586,"wat":14587,"why":14588,"wite":14589,"wau":14590,"wrig":14591,"wagg":14592,"willed":14593,"whoop":14594,"yas":14595,"yow":14596,"yards":14597,"zim":14598,"Ġis":14599,"Ġcar":14600,"inel":14601,"inally":14602,"inaceae":14603,"inhab":14604,"onion":14605,"onav":14606,"onization":14607,"onna":14608,"anan":14609,"anate":14610,"anine":14611,"atizing":14612,"enh":14613,"enin":14614,"encer":14615,"enburg":14616,"enigmat":14617,"alion":14618,"alley":14619,"alistically":14620,"altic":14621,"isance":14622,"isochron":14623,"icine":14624,"icting":14625,"aros":14626,"orl":14627,"orid":14628,"orius":14629,"unus":14630,"unoff":14631,"unchar":14632,"unhom":14633,"unrid":14634,"unlab":14635,"unhuman":14636,"unauthor":14637,"untrust":14638,"itite":14639,"itization":14640,"elion":14641,"eley":14642,"elcosis":14643,"elucid":14644,"roo":14645,"rou":14646,"rodis":14647,"roomed":14648,"reev":14649,"reted":14650,"rebut":14651,"regress":14652,"reaching":14653,"recompens":14654,"rehear":14655,"leer":14656,"leis":14657,"leak":14658,"staph":14659,"stuck":14660,"static":14661,"stucco":14662,"chiff":14663,"chuk":14664,"chanal":14665,"chool":14666,"chrism":14667,"usser":14668,"ilus":14669,"ilator":14670,"ilio":14671,"ilateral":14672,"rained":14673,"olle":14674,"olism":14675,"olaryng":14676,"phol":14677,"phlor":14678,"phoria":14679,"essing":14680,"omim":14681,"omically":14682,"omidae":14683,"iders":14684,"idyll":14685,"iont":14686,"acal":14687,"acup":14688,"acumin":14689,"aska":14690,"urge":14691,"thig":14692,"thrum":14693,"thrown":14694,"abar":14695,"abus":14696,"abric":14697,"abelle":14698,"abouts":14699,"enti":14700,"entary":14701,"emate":14702,"emend":14703,"emblaz":14704,"osch":14705,"osine":14706,"osier":14707,"osym":14708,"oschisis":14709,"oti":14710,"otis":14711,"otid":14712,"otyl":14713,"adro":14714,"uteness":14715,"utional":14716,"utral":14717,"ogging":14718,"umped":14719,"rike":14720,"ribon":14721,"rived":14722,"opur":14723,"opidae":14724,"opore":14725,"opsid":14726,"opening":14727,"ivo":14728,"imi":14729,"image":14730,"imping":14731,"imps":14732,"immor":14733,"imprec":14734,"imprison":14735,"octon":14736,"ocene":14737,"agne":14738,"agium":14739,"agru":14740,"agglomer":14741,"odical":14742,"odrome":14743,"perib":14744,"peries":14745,"perce":14746,"permiss":14747,"perspic":14748,"nonun":14749,"nonent":14750,"nonfor":14751,"noncur":14752,"nontermin":14753,"nondetermin":14754,"quel":14755,"quely":14756,"quets":14757,"apath":14758,"apoth":14759,"aplan":14760,"antation":14761,"iric":14762,"irate":14763,"irref":14764,"shill":14765,"shank":14766,"shatter":14767,"shamm":14768,"loup":14769,"loof":14770,"loaf":14771,"lofty":14772,"ipl":14773,"ifiably":14774,"ifiableness":14775,"conjur":14776,"congest":14777,"congru":14778,"coats":14779,"cooked":14780,"ellen":14781,"ellips":14782,"spare":14783,"spright":14784,"prox":14785,"protr":14786,"progen":14787,"propos":14788,"procra":14789,"proved":14790,"exal":14791,"exoc":14792,"expost":14793,"export":14794,"exhum":14795,"exclus":14796,"exhilar":14797,"iane":14798,"unds":14799,"undil":14800,"undece":14801,"astra":14802,"astragal":14803,"ineer":14804,"preins":14805,"precomp":14806,"overw":14807,"overst":14808,"hyph":14809,"plos":14810,"plunder":14811,"pluvi":14812,"illos":14813,"sear":14814,"ucu":14815,"obes":14816,"obat":14817,"hebet":14818,"trencher":14819,"scru":14820,"ialise":14821,"debil":14822,"owa":14823,"ceal":14824,"ceeding":14825,"avid":14826,"avant":14827,"avia":14828,"ylated":14829,"ylli":14830,"clon":14831,"cliqu":14832,"ophleb":14833,"forew":14834,"ugs":14835,"uger":14836,"blastic":14837,"commis":14838,"inding":14839,"indiffer":14840,"angio":14841,"bole":14842,"disquis":14843,"disquiet":14844,"discern":14845,"tebral":14846,"flot":14847,"flut":14848,"flagg":14849,"bek":14850,"beech":14851,"athan":14852,"ubert":14853,"intox":14854,"intemper":14855,"ackle":14856,"atoria":14857,"atorian":14858,"monost":14859,"monster":14860,"interpre":14861,"trachy":14862,"ensory":14863,"tavern":14864,"parro":14865,"parall":14866,"mentation":14867,"moose":14868,"mouch":14869,"moved":14870,"rond":14871,"ronch":14872,"toot":14873,"tourn":14874,"geus":14875,"geared":14876,"resem":14877,"resyn":14878,"resusc":14879,"matril":14880,"glau":14881,"actyle":14882,"actyly":14883,"corym":14884,"corded":14885,"mets":14886,"insan":14887,"egon":14888,"colt":14889,"carbo":14890,"haught":14891,"poul":14892,"slander":14893,"sliding":14894,"dery":14895,"soiled":14896,"when":14897,"whack":14898,"rame":14899,"romal":14900,"ratern":14901,"othy":14902,"miner":14903,"minisc":14904,"barrow":14905,"ymal":14906,"ymic":14907,"retali":14908,"british":14909,"herbar":14910,"herald":14911,"skate":14912,"skyl":14913,"skunk":14914,"mercer":14915,"merchand":14916,"arches":14917,"brad":14918,"micron":14919,"microphot":14920,"pedant":14921,"copro":14922,"guill":14923,"guild":14924,"guided":14925,"axing":14926,"marvel":14927,"marsup":14928,"margin":14929,"ornamental":14930,"twine":14931,"decal":14932,"decont":14933,"declin":14934,"decentral":14935,"feeling":14936,"feature":14937,"ledom":14938,"pleur":14939,"strung":14940,"vehem":14941,"unsin":14942,"uncre":14943,"unculus":14944,"Chel":14945,"Charl":14946,"kern":14947,"calm":14948,"calum":14949,"omyces":14950,"counting":14951,"incred":14952,"incrimin":14953,"genous":14954,"hydron":14955,"hydrom":14956,"grist":14957,"ocher":14958,"oches":14959,"snor":14960,"snipe":14961,"ontine":14962,"anean":14963,"doz":14964,"dood":14965,"pyth":14966,"thered":14967,"swel":14968,"swag":14969,"sternal":14970,"sonian":14971,"malic":14972,"malap":14973,"beds":14974,"bedlam":14975,"hemp":14976,"hemorrh":14977,"desper":14978,"descens":14979,"desulphur":14980,"ource":14981,"ancement":14982,"turbo":14983,"turban":14984,"turbid":14985,"afflu":14986,"porcel":14987,"theart":14988,"theologic":14989,"untim":14990,"vening":14991,"breathe":14992,"pals":14993,"palis":14994,"wooded":14995,"rotal":14996,"zooid":14997,"ennia":14998,"sallow":14999,"petros":15000,"ytically":15001,"demic":15002,"demig":15003,"demoral":15004,"encia":15005,"ordinated":15006,"ordained":15007,"issant":15008,"orphy":15009,"fts":15010,"handle":15011,"ourous":15012,"ualist":15013,"ariat":15014,"rages":15015,"rhine":15016,"cataly":15017,"catching":15018,"reput":15019,"repud":15020,"repugn":15021,"scher":15022,"accru":15023,"rington":15024,"denit":15025,"denud":15026,"infat":15027,"inflex":15028,"sulfo":15029,"valve":15030,"canvass":15031,"balan":15032,"transform":15033,"transgress":15034,"formul":15035,"Ark":15036,"Art":15037,"ventral":15038,"lasting":15039,"smir":15040,"elected":15041,"eek":15042,"predel":15043,"auri":15044,"photomic":15045,"purpose":15046,"squal":15047,"squab":15048,"squad":15049,"antiphon":15050,"ettos":15051,"ettled":15052,"domest":15053,"mesoth":15054,"ereal":15055,"multit":15056,"restrict":15057,"proofing":15058,"laund":15059,"uchi":15060,"zealous":15061,"timed":15062,"surv":15063,"iculi":15064,"housew":15065,"remitt":15066,"uks":15067,"facult":15068,"oscopes":15069,"oscopical":15070,"chiro":15071,"extended":15072,"lectic":15073,"definit":15074,"aeron":15075,"ilius":15076,"splay":15077,"splitting":15078,"sidered":15079,"ciner":15080,"ertown":15081,"jective":15082,"rises":15083,"windowed":15084,"Shakespe":15085,"aminate":15086,"larg":15087,"larcen":15088,"Stro":15089,"division":15090,"scriber":15091,"protection":15092,"omorphosis":15093,"furrow":15094,"nought":15095,"persian":15096,"daemon":15097,"effort":15098,"ergat":15099,"odontic":15100,"logical":15101,"trough":15102,"boarding":15103,"supple":15104,"supplic":15105,"target":15106,"Elk":15107,"Ell":15108,"filtr":15109,"concession":15110,"bulk":15111,"similar":15112,"ematically":15113,"races":15114,"dogs":15115,"singular":15116,"extrad":15117,"lasis":15118,"oeuv":15119,"cockney":15120,"bows":15121,"bowdler":15122,"lamell":15123,"baum":15124,"devast":15125,"devoted":15126,"condyl":15127,"quadril":15128,"banker":15129,"aptist":15130,"located":15131,"identate":15132,"ophoran":15133,"passage":15134,"judgment":15135,"opodan":15136,"opodia":15137,"keyed":15138,"circumspect":15139,"respir":15140,"detox":15141,"Thes":15142,"Thur":15143,"Thorn":15144,"ioso":15145,"ophaga":15146,"omerism":15147,"spectrophot":15148,"emanship":15149,"physician":15150,"ombs":15151,"aments":15152,"crud":15153,"looker":15154,"ladies":15155,"putter":15156,"ubleness":15157,"succor":15158,"shooter":15159,"freezing":15160,"histori":15161,"Eng":15162,"unmort":15163,"ogenicity":15164,"tinker":15165,"voice":15166,"ynamic":15167,"sphac":15168,"propelled":15169,"vaunt":15170,"diazo":15171,"diaphan":15172,"mastig":15173,"covering":15174,"aqua":15175,"cephaly":15176,"frontal":15177,"vaginal":15178,"gallant":15179,"alypt":15180,"sticks":15181,"sixth":15182,"cocain":15183,"fleec":15184,"blower":15185,"uvian":15186,"chronic":15187,"openia":15188,"gesticul":15189,"citron":15190,"sarcos":15191,"sapph":15192,"auspic":15193,"nephel":15194,"unperson":15195,"aspis":15196,"connex":15197,"spinster":15198,"keepers":15199,"hurt":15200,"abolition":15201,"anesthet":15202,"stepped":15203,"nicot":15204,"folds":15205,"scopic":15206,"necroph":15207,"enzyme":15208,"ephemer":15209,"holds":15210,"ogonous":15211,"prerem":15212,"chalc":15213,"chalaz":15214,"goody":15215,"ophysics":15216,"iantness":15217,"famed":15218,"racks":15219,"osporic":15220,"cacod":15221,"anglement":15222,"Stein":15223,"ittering":15224,"oecious":15225,"rudder":15226,"ruddy":15227,"produced":15228,"olatrous":15229,"wigged":15230,"ogeographical":15231,"doctrin":15232,"epsia":15233,"wicked":15234,"wilder":15235,"ilicic":15236,"kiln":15237,"parasitic":15238,"scoff":15239,"practical":15240,"practiced":15241,"osterior":15242,"orships":15243,"advised":15244,"realm":15245,"objection":15246,"dorso":15247,"odyne":15248,"weights":15249,"pistol":15250,"westward":15251,"itudinous":15252,"phagocyt":15253,"pinnate":15254,"conscient":15255,"positively":15256,"electron":15257,"electrically":15258,"execution":15259,"patriarch":15260,"pestil":15261,"reverber":15262,"resisting":15263,"anterior":15264,"rogenic":15265,"cogniz":15266,"pherical":15267,"hippoc":15268,"osmotic":15269,"cooled":15270,"cicer":15271,"benef":15272,"involuc":15273,"military":15274,"fellowship":15275,"nurse":15276,"thaum":15277,"indigo":15278,"accout":15279,"Gallic":15280,"waggon":15281,"appendic":15282,"Phys":15283,"stretched":15284,"despond":15285,"ympanic":15286,"sylvan":15287,"anilide":15288,"tourist":15289,"inspired":15290,"breeze":15291,"kitten":15292,"coupled":15293,"endeav":15294,"glacial":15295,"academic":15296,"ogynous":15297,"supral":15298,"omycetous":15299,"believing":15300,"stamped":15301,"neighbour":15302,"appointment":15303,"Freder":15304,"strumental":15305,"oxylon":15306,"lachrym":15307,"bismuth":15308,"camphor":15309,"departmental":15310,"Brahman":15311,"shapen":15312,"elliptic":15313,"Oriental":15314,"treatment":15315,"ostraca":15316,"ofibroma":15317,"scholastic":15318,"otherapist":15319,"otherapies":15320,"Gabri":15321,"remonstr":15322,"snooz":15323,"pencil":15324,"trunked":15325,"Russo":15326,"garnish":15327,"transcendental":15328,"clype":15329,"phantasmag":15330,"racheal":15331,"keleton":15332,"chosen":15333,"indoctr":15334,"omycete":15335,"cathedral":15336,"enchymatous":15337,"pessim":15338,"gipsy":15339,"zircon":15340,"unsuspect":15341,"oplankton":15342,"anecdot":15343,"absinth":15344,"blasphem":15345,"eunuch":15346,"soviet":15347,"hermaphrod":15348,"ribonucle":15349,"'re":15350,"AG":15351,"AO":15352,"Abra":15353,"BW":15354,"Bad":15355,"Bang":15356,"Brom":15357,"Bord":15358,
[...]
